/**
  ******************************************************************************
  * @file    network_1_data_params.c
  * @author  AST Embedded Analytics Research Platform
  * @date    Wed Jul 31 10:36:39 2024
  * @brief   AI Tool Automatic Code Generator for Embedded NN computing
  ******************************************************************************
  * Copyright (c) 2024 STMicroelectronics.
  * All rights reserved.
  *
  * This software is licensed under terms that can be found in the LICENSE file
  * in the root directory of this software component.
  * If no LICENSE file comes with this software, it is provided AS-IS.
  ******************************************************************************
  */

#include "network_1_data_params.h"


/**  Activations Section  ****************************************************/
ai_handle g_network_1_activations_table[1 + 2] = {
  AI_HANDLE_PTR(AI_MAGIC_MARKER),
  AI_HANDLE_PTR(NULL),
  AI_HANDLE_PTR(AI_MAGIC_MARKER),
};




/**  Weights Section  ********************************************************/
AI_ALIGNED(32)
const ai_u64 s_network_1_weights_array_u64[127392] = {
  0xf02827eac4c3e5e6U, 0xc042205079fcaf5U, 0x163d043a2516e633U, 0xf2eedffbf3ef2616U,
  0x13dc1425fcf72516U, 0x17cbeedc1afba3c7U, 0xa0aee1352d994d7U, 0xf516df0443e307e3U,
  0xe3c6eb16031c19fbU, 0xbaf51a6b0700042bU, 0x7f73a3ef3c7dae5U, 0xf247d63b0441fcdcU,
  0xe5a3deffd73edcf7U, 0xc31ef8f618b3fe18U, 0xfcbaee07d92aea22U, 0x113feb20bdcdf415U,
  0xe31211cfdfd405f3U, 0xb1142ee629255320U, 0x3edff500f2c7e5f8U, 0xf6d4cbfaebf509c6U,
  0x3fc4fe28024dee15U, 0x1d18f9de1fa0fbf0U, 0xc4e8c6b6e40fe414U, 0xe8131a3cbddd11fbU,
  0xe21df7f4ac0a091cU, 0x7aa8fde9f708d9d0U, 0xddc20233f1ddf5f8U, 0xf9e7d0161e13aeb2U,
  0x2607fb08f647312bU, 0x15b10adb01060f1dU, 0x3d03e4f50417e63aU, 0x1a2df842edbbf640U,
  0x12160fe9e310fd39U, 0xf5e4f5e8def7e804U, 0xcd0aecdefab6f03aU, 0x90b38d8e542d6c5U,
  0xf801e9d70efdf1e6U, 0xefee8b1b808092dU, 0xfcc7db1a0c36f2caU, 0x36ff231e848ab16U,
  0x62b0e02062e0dc2U, 0x3c0109f0de211d20U, 0xeadfe45a1409300aU, 0xecf1304452afafeU,
  0xf7d6f41bcbedeb14U, 0xe5e6254213ca00faU, 0xe02a09fa0b160fcdU, 0xab310f995e3a9e9U,
  0xf5f168263308e6e4U, 0xf604e4e320015a46U, 0xca3eee1fbfacb65U, 0x14280dd4e94477e1U,
  0x4e622f74d39bcc6U, 0xb8e02081f7faf515U, 0xc472b25fccf15f9U, 0xddfe2ae7fcedae59U,
  0x2cf302f7191cc269U, 0xdcf22915e6bd2917U, 0x50ecddcd2dad4fdU, 0xe0173318eb10010bU,
  0x16ca42f4dec7ea10U, 0x17195600e5571e61U, 0xbd0aae0ecf1021ebU, 0x46fac22e68d226e8U,
  0xeee8d622012917b9U, 0xc3e50bc619dd05eeU, 0xecfdf3d511d7d922U, 0xc18c613e4f9ebeaU,
  0x1a0dead457240602U, 0x1c2bf419d9b1ec17U, 0xc320f922f50418e0U, 0x30eefbfe15dabbb1U,
  0x17fafbd6d4c6a825U, 0xcd052e09f707ecb9U, 0xc11206171dc209fdU, 0x2701eb0801fea610U,
  0x5007befe2c12e717U, 0x2fcd01bbfe162c19U, 0xe712d1431ae7de1cU, 0xeb2901d940ece8d8U,
  0x1dfa1c3c130cea26U, 0xfd250e3f195c01f0U, 0xe20b0ee8013b0608U, 0x45d6de021eee17f9U,
  0x4e27f5d7eabcc6b1U, 0xedf3d4aa1039f4fbU, 0xe8140325cae5f0f0U, 0xcf2de50a05e5f4edU,
  0x2efbf401f00ab51cU, 0x380203f922e60be0U, 0xf3ca57f0fa0abf1bU, 0xf50a23fa1347173aU,
  0xb5d0fbdc0a0adedaU, 0xe1483a0fbbecefc7U, 0x707f61cd1e82248U, 0x221fe214f51754edU,
  0xe8faed2225b200f5U, 0xe5e2fdf90c3de01bU, 0xcd2a162ac229f1e8U, 0xf30400fffdf5dc12U,
  0xd1ffd12235c547ddU, 0xffeef6cbe5f95743U, 0xdaf3eb03fad2e301U, 0x25f97f1e2901a916U,
  0xcf10c51b03f4232aU, 0xfedfdfb1c1c72fe6U, 0xf403e71b1cf51920U, 0xeac225e840df40e6U,
  0xd8ddf70719e6d0U, 0xe28f8f320b61c17U, 0xac09efee1af005caU, 0x55cdf70bd94a2fb0U,
  0xe250314dadbd7fdU, 0xe008f34ef6f1f9feU, 0xdf06f11a0f0f1fedU, 0xfe1a2003e9c2e2e5U,
  0x321c0f33fbdae534U, 0x2ffa0ce3db3cf145U, 0x130f5cf4220700cbU, 0x8e430fbfc412341U,
  0xe404f0d710cce006U, 0xf732e61c3a22f104U, 0xf4ee3fd903c902daU, 0xf9ebffe501121208U,
  0xb30ac516f60e10d3U, 0x233ddcb2fe17150dU, 0xe50be926380b1150U, 0x71c04e7d6131f26U,
  0xd1f90624cbe1061aU, 0xd02ebf2f322d4ffU, 0xd19c2fef105195aU, 0x140bb8fb1bccf025U,
  0x53046e20bd5f6f0U, 0xdc19ffdd091b3feeU, 0xf02128ed4dfde3f9U, 0xd072c17cfe016faU,
  0xd819e72af40820faU, 0xe4d9e2e719c7d4feU, 0x72fdcced4103309U, 0xd3ebd4de1f26f704U,
  0x93b14f933b71df9U, 0x3f3bf3c5b912070cU, 0xfcf9ecf3bc204925U, 0xea22cfca05e301feU,
  0xd6f2f93fc9cadf4eU, 0x7f6db0addc859f3U, 0x1cb2c7fd1defe813U, 0x33dfa22425e408bcU,
  0xd7e7ecf42bac34e8U, 0x46dcdf26313d81ecU, 0xd5d4ece2eddeeef1U, 0xb2c7f81e06dec5ddU,
  0xd244c41d042efbeeU, 0xf2fcf8fcbcf43be4U, 0xfafb0904e8da19f4U, 0xf9dd0b21f8dbc504U,
  0xbf6b1d2c18e230e4U, 0xe163b1ed7ee8915U, 0x22d42ef106e9ddffU, 0x28f20efd110962feU,
  0xd5e63be41621dec3U, 0x7b0fd920e1f9bdc0U, 0xd60e335a07e3c4e9U, 0x3524ddf60ce1e919U,
  0xd220df401f0040fU, 0xb8cf05f2000d3b2cU, 0xe0eeebfc0dc2dd18U, 0x20f2da0b16c0f9fcU,
  0x9c10e3adfea1616U, 0x1afd6f1e40fc4b1U, 0xf7d8230cf4fafefbU, 0xa90fe80730bde01dU,
  0x4514e521f9e8dd00U, 0xd1fcd5dea7134e17U, 0xdf33f0d8430d1ec9U, 0x24e2cb0b04fffff4U,
  0x2ee2c172be4ce14U, 0x3114c209f9d40a33U, 0xfce007151922e8d4U, 0xfb3614f2fd1221ebU,
  0xe2b8dbbd0304d6f1U, 0xc4db15000850e2faU, 0xfbe3e5f3f54e04c5U, 0xd7f70d3a06de49b5U,
  0x2fe8f5e8f308f00aU, 0xfbd1eceb27df531cU, 0xd5e9fbc7ffbd1f0cU, 0xfe8e18da24061321U,
  0x314c723f8fb4149U, 0xdfcb21fcefef132bU, 0xbf80044dc42c3caU, 0xf1234ac6f4f1eef3U,
  0xfb062bf4d4f905e3U, 0xf2e113e7180ac20cU, 0xf60f0f1311d7e7e8U, 0x19e1f2af12f4eddeU,
  0xe8fbfaeaf7fc37U, 0x6032bbbe1fa25e1U, 0xbefdfc6fcf00fffU, 0x21fc02e9fcefc615U,
  0x4e7061d49ca3619U, 0x28e0121001eef1e7U, 0xff1b1ad602f8e2fbU, 0x2638fdf2fe2703e5U,
  0xe3ea1615d4f60ce7U, 0x1c2a1316efe41c1cU, 0x24e8d2e8de0d140eU, 0x2cc502060007f911U,
  0xe3221108f230f604U, 0xf6ef05f6fb16cef7U, 0xe8ebde0205f3121cU, 0xd40d3825080018fcU,
  0xa549d5f7e613f1e0U, 0x8d6f50000281a0dU, 0xc915eb3be2e73306U, 0xeb0b050af3cf0809U,
  0xf1dfc2edfe5d902U, 0xf5e0f6ec1827ff11U, 0xe302ecfdfe1e10e8U, 0x1f70d07dd3ec905U,
  0xd1bdce25dc08def1U, 0xeef961e70ee11ed7U, 0xf6febf00eefb1bebU, 0xc819291ff8f1ee12U,
  0xf007db08ddd5f3f4U, 0xc0419e6f528dd2eU, 0x25f319d6faf3ffdcU, 0x3af31ffcf6f7e3fbU,
  0xe624e71317f7f02dU, 0x11a07487ff81016U, 0x1101f03a0ddefdfaU, 0xd913dffc020f4508U,
  0xf3ffdef8fcb3fdf3U, 0xfce82410e5f9f834U, 0xcf1627050507ef00U, 0xc6c905fe1ed104ffU,
  0xa307de29f9f819e6U, 0xf71107e816e1370aU, 0xe62f0af81d072f19U, 0xff131b0afee4031aU,
  0xede7ddf500f2ed2dU, 0x1712beddde3ced14U, 0x1204db07e0e918f1U, 0xe3e3fc141630cb03U,
  0x1401fc18f91bf312U, 0x6d2f9e612f144f0U, 0xfcb23f4163b191aU, 0xe5c224f320e105fcU,
  0x230b0605ee0509b6U, 0xe2e1eb2103e91d0cU, 0x18e8011204080ff8U, 0xd40aedf5f0fb0c0eU,
  0x3406fee5cf22c5f5U, 0x230413f504f7e92bU, 0x1abf1b0617e716f6U, 0xe7e8000419e51331U,
  0xe3f0d4000e15101cU, 0xcafee123e044b8deU, 0xd22f41f1f4eb2717U, 0xd70032f3f9f7f0eaU,
  0x5f93cf3eda2c703U, 0xfa07ec02e3463a23U, 0x30f0e1f907fe1b26U, 0xeec404160c04130dU,
  0xd3f0f3061edd14b2U, 0xf339e7ee2005ff1eU, 0x29f8bbed35313003U, 0xf5440d03f0db03f5U,
  0x3ecab8f5f3e2ff1eU, 0x1a0110462a2a0216U, 0x2d08fae3deee0a1bU, 0x2509eade2116f10dU,
  0xfaf8e52607da29ddU, 0x80f0c00071deffaU, 0xc3de1d0bfc01defbU, 0x36b2200b03d03406U,
  0xea032af5e1ef3730U, 0x221ad4fdd4f00913U, 0x12f9f5391005e70eU, 0xedd12b06fe400734U,
  0xffd10e80a1c0cdcU, 0x243409f6d5e5f707U, 0xff01001e27c13715U, 0x672e35cad918f115U,
  0xf01af3ec00332006U, 0xd70516f3e2f5e7efU, 0xd7ebfede090610c9U, 0xcc1bf31612f9d602U,
  0xf4d62f0ed5edfde3U, 0xd512dd19e8e60b33U, 0xbb1ac0d4da0602efU, 0x27141ee9021df8f4U,
  0x509dafbd7020d15U, 0x1228e02815fff4c6U, 0xbff9d300022bd85bU, 0xd0e2db6e5df2ae1U,
  0xbeef7f9f801eff8U, 0xb0ba20701b901a9U, 0xd8daf4e30d02030cU, 0xe4e6e60216150dfcU,
  0xfb273bfd0efaefe4U, 0x1104f52807131ad2U, 0xe9d61e20d30b0c00U, 0x33f101ecf2fa24e5U,
  0x13ef1d0f2809d1e3U, 0xf6070f0423ff09e7U, 0x6e1e51c14d643faU, 0x13d9e7eef0e0f9fdU,
  0x4f4120d270dfbf7U, 0xd401f0d50c054181U, 0x3b1605ef0d371204U, 0x7de0625da04cec0U,
  0xe603252df6082afaU, 0x310f1d16f7051133U, 0x113bf1fd09c604f5U, 0x511cd4ed7cb1926U,
  0xfdf209e514f62c44U, 0xf7131d22292306f6U, 0x424bd0ef43fcdc50U, 0x1e0712ecf1e21818U,
  0x291a24b80ad1e60cU, 0xbf42bf9a1fcc9efU, 0xae13b1e2cea1029U, 0xf845e7120c2b0200U,
  0x11010ca20afa41c7U, 0x21f3cb33deda3334U, 0x1d5cd34fcf00a00U, 0x33c9072808f4d811U,
  0xdb19e8ee8ce7d424U, 0x4b1ffa1f0ff1ce13U, 0xeac8b5001adb0a06U, 0x35b41e03fc250b25U,
  0xf42236fef3001fdfU, 0xee0bfabcdceb360bU, 0xec14d0d0ef16a413U, 0xf844d232319de014U,
  0x4d2535160404e31cU, 0xfc1ad41715fa3415U, 0x2f2f342611d3f8cdU, 0xe62e13e5cbf1cc16U,
  0x29e3831ddb2121f8U, 0xfdfae1c5e4c6f3d4U, 0x3a07fb2cebbd00dcU, 0xc022bbdd1d34222bU,
  0xdfdc142c0cb80df6U, 0x2d19fa0578d91c4bU, 0x9371202f84d0713U, 0xee1fe7ed170c1715U,
  0x180318cdf5f6c71eU, 0xd002f381082feae1U, 0xfdeebb1bfd0924eaU, 0x2bda08d0db301307U,
  0x98f3f5e7d42b0536U, 0x2ed321ed3d4210ecU, 0x34f006d41bc8050cU, 0x9a31d082dd3f0dcU,
  0x2e11d03a1e0dd61fU, 0xdf2b19fce507f2f7U, 0x3cf4dcd2051bdb27U, 0xf7f695d0fff6c3c5U,
  0xf621ff19d9cb131bU, 0xb3092393fd2103fbU, 0x12dc11df30084b2eU, 0x9df10b06380b2c03U,
  0x24ee1c2b21b8d526U, 0x34e0d4d71414b6b9U, 0x110fd29012da4d17U, 0xf6f9e7eef101e002U,
  0x111a4ec9fb0d0fd5U, 0xfce60a079dbdf51bU, 0xe71ee52ed1e3fcebU, 0xe34500a0c100629U,
  0xf64126d60b040e0eU, 0x17200e05016726d0U, 0x809040b21f21527U, 0xe5eeedfb2e3cdd15U,
  0xfce71efb1bf32302U, 0x25e812f910f4f5c6U, 0xd0ecf0025cf90610U, 0xd6f24e090622240fU,
  0x6085bef1a17dc2aU, 0x11565d40a163de8U, 0xfa32192df418290eU, 0x426e613eb131dc3U,
  0x14e62fb515d3ff34U, 0x123410ef04314cd4U, 0x9351bcf09361216U, 0xdc15bdf81e3be5U,
  0x180dcff7e5c2f80aU, 0xf2e319eefee3072bU, 0x62f181bcfdb181dU, 0x2c013e0a1cfd9912U,
  0x1ce9fbf410321ee9U, 0x7fce623d731fe21U, 0xfb0304c708dffe0aU, 0x421fe3cf329f8f3U,
  0x40f710481ea8131fU, 0xf632070d133fdcf2U, 0x5dbd9cbfc503a00U, 0xc927f100e6a41fdbU,
  0xef3ec22afef8f826U, 0xcb23cff42f2b9af1U, 0x2801dbf1e4c2f70cU, 0x132ddee501e834f8U,
  0x1bedb6f8f118087fU, 0xe807fffffdd5110cU, 0xf2dfe3d0fb2a244aU, 0x451ca1d0125cbe9U,
  0xb42d0d28f728f62bU, 0xcac923e23df23f1bU, 0xc7f9fdef16d2ffc9U, 0xf4f40915303f1ff4U,
  0x4124fbf5cd0c19deU, 0xe9e83e17fbde0000U, 0x42c722060417f23cU, 0x10380b31e3f22b28U,
  0x1ad01ce703c4d73eU, 0xc14f2e10527f92aU, 0xfc71edff10e226feU, 0xeec02df805de2c05U,
  0xfdde2c020636f239U, 0x30d9eaf11b341a66U, 0xe9190de90bf11428U, 0x15f91cea2b0d13e9U,
  0x31b122727030405U, 0x17c6d0fce0f8e623U, 0xf82ecfc1fe251bU, 0x341eeba60c18ecf2U,
  0xa4ae3482bf54f46U, 0xf8cdd4bf0526e52bU, 0x7131f1cc736cfbdU, 0xf2061324e9d2cd2aU,
  0xf9eb29310ed721c8U, 0x370db8440ef122e0U, 0xcaf31b02f5f20f2dU, 0x1440eb13e4113bf3U,
  0xea382505fb49f607U, 0x2caabcdd9f200120U, 0xe40610e9f3440106U, 0xf5f2ee22ef10e9f8U,
  0x3cc3e90515150b02U, 0x1932f50ee13406c8U, 0xed15fa3befccda33U, 0x4126af5707e3fe36U,
  0x9dacaded92caff7U, 0x24142612ebcc0d32U, 0xe33e0e0ecdec0651U, 0xee170408e918154dU,
  0x2b1c07c8160af3efU, 0xf1001e04300ad616U, 0xb7dee6e2173a0910U, 0xe02212004da17e9U,
  0xec21d91b12f4f205U, 0xcea8d32d2afe0b15U, 0xfea93b35cdda75d9U, 0x3dadfbf41ec5e5f4U,
  0xfd3fdc3d7dff821U, 0x1c3810052f15cf53U, 0xf1e551f916fdfa17U, 0xc33d38e41a16fe09U,
  0xfa0c12fdff653623U, 0x6820d4d00214de35U, 0x2bdc35dfe2da0c1cU, 0xdfede40b222f03f4U,
  0xf41913cb182a17daU, 0x51306e5261eb9efU, 0x1be7fef446ea1813U, 0x4403040606bc0939U,
  0xf3c3c6f622322deeU, 0x22ef2324ccf701c3U, 0xe50325f0edfbfaecU, 0x10b07ddd214fa3aU,
  0x300d1d16052906deU, 0xf46f33d00184f55U, 0xe41d06240ae55218U, 0x292efc1429efbee2U,
  0x1f4fee80f11ec08U, 0x26ffdcd5f2e84e39U, 0xf50be8ff071844c4U, 0xd4fefcc7f522f437U,
  0xe1ed2d140144cadcU, 0xba140bf11605faefU, 0xf6f50d0e3bea135fU, 0x1e471bd6eaece324U,
  0xf8fcf3f80432e11fU, 0x7dd2ce43e022519U, 0x1733f73bffd2134dU, 0xed13393507062bf8U,
  0x230224e8ff22deeaU, 0x2505fc442328ec05U, 0x2225e3d0e6e4cb3fU, 0x37dd2b2524f901d6U,
  0xbbe3e7ebfcf41cedU, 0x19032ce417ce35f2U, 0x4b2f17ee0cd9fe24U, 0xf1d4e4d514191121U,
  0x3dbe300611de112U, 0x68231443e1c8aef7U, 0xee2521f8180eaffcU, 0x2ec3dbd0f8101523U,
  0xd16bd13122f21f6U, 0xf8e60fc09eee1c09U, 0xced7acd8481f11f4U, 0xdad6fe08cafc1b3eU,
  0x5161408d5edf43eU, 0x350ad2e233eb2068U, 0xda1c0a08d5fc070dU, 0xdf4d0631bcec5308U,
  0x200f3d0b00ffd0e4U, 0xf629eb250040d49bU, 0x1d03fc400aed227fU, 0x1d21dfd6321df423U,
  0xd30be404f327fe10U, 0x22f80fb5f6d10be9U, 0x61d6e7254c082113U, 0xaff42e00eed1d10U,
  0xff1af03148260bdfU, 0x9e31df4160b3e11U, 0xb8d509010a161203U, 0xfdfc15221ddbf8f6U,
  0xe32b0104f3d81adbU, 0x14fff310f7370edeU, 0x2f30343daebee04U, 0x280e38ea01c83adaU,
  0x29dbe303062deef1U, 0x4417e1bcf9dc02f8U, 0x34437fc23faf31eU, 0xed5309ff1d16e5f3U,
  0xff561bde0beaf2f1U, 0x2ef30ac81436d9e8U, 0xbf083e17e82d70fcU, 0xf2f8e1dcee01ab16U,
  0x5904bb11512c04beU, 0x1af8cdb5ef1c09f6U, 0xf504fb272f12fef0U, 0x7d1ec0d1dfd05f7U,
  0xd81c092cff091c4cU, 0xbae20adc44002a22U, 0xe810e4e24e0bac1eU, 0x41c1d7df200efb13U,
  0x6e8cdebf537f5d9U, 0x2dc5e7eb4b5337d8U, 0xf7d62902051806c0U, 0xb9f2f60700050c09U,
  0xd0f169af61e2940U, 0xfabe0123e603fe31U, 0x13f926d6bce5e002U, 0xf9dff0fc0fdd1937U,
  0x24d5f5a9f3b6052dU, 0x7e90ce4061eaba4U, 0xa1e10917ec4223e9U, 0xa63b14ead781effeU,
  0xaed04f1f4d600aeU, 0xc7f9d5f1f01f12d6U, 0x27dcc52509e4b514U, 0x33b718ea21e6e831U,
  0x3d3a37e5f208afdaU, 0x16cb4009f4e005e1U, 0x4df805d2021ce2deU, 0x5d0c1025b9080021U,
  0xdd0cbdeac10553e7U, 0xc9fbf30a470d11abU, 0xcf0a390632ddf2f7U, 0xfef023af2f539d8U,
  0x2ee133c52218f3fcU, 0x81810c518f231f2U, 0x9a15e13af229e60eU, 0x1b03aad83af3d80bU,
  0xd118ddf2cf232b04U, 0x310c16f1f3ff3630U, 0x5e7e90532050e1dU, 0xd3e2e2ff031dbc0bU,
  0x2023f43339fcb8e8U, 0x1c240503d4f52adfU, 0xe3dc041202351b61U, 0xcf12315c7e60df9U,
  0xff811ea0de108f7U, 0x17e5b91fd213122fU, 0xfbd7f5eae90a28e3U, 0xd716d9fe1ada030cU,
  0xdd081e0801d10315U, 0xe1ee0823e104dff8U, 0xf4f105f0072c1c29U, 0xdce5ec04cee8f7d0U,
  0x32db33db2f28f71bU, 0x1c02f0e70f0706f1U, 0x13d702e4e7f3081aU, 0xc9faf2ec0bc7e202U,
  0xba0a14d01ebdebf4U, 0xce5eee2181bf7ffU, 0xfd0be513040ef72eU, 0xeeeeffe4e23c17f3U,
  0x22cfe2e83ef02806U, 0xf61f31112f15250dU, 0xc3c001c31c7f211U, 0x30c02f9c0090ff4U,
  0xe60ff4dffb1c00d9U, 0x151a43191630f8baU, 0x10da13edd3081709U, 0x15c90409d31d1b23U,
  0x1f13ef02fc0116fdU, 0x935dc0ad8ffe122U, 0xe745d2c419f311U, 0xedc8f20c0a23100eU,
  0x39f6391f3417dc14U, 0xf815f3eccee21123U, 0xf5ed36e223cf2511U, 0x90cd4d8ffdff353U,
  0x4526d6c42ec208f4U, 0xf223f2f5e93fd9e7U, 0xd01ef0fd52922eeU, 0xba0d31ddf4212d2cU,
  0xef10ff16043cd005U, 0xe3e60631e5ebe61bU, 0xfe24eae6ef1bffe6U, 0x7fdcf9ed40f6f6d1U,
  0xf4fe220f0623fbfdU, 0x8250f37f84a1fe2U, 0xee05c008d7f7f70cU, 0xfb2cf10ef5de19e1U,
  0x2cfebfd90400f4c3U, 0xe9e326f00de3080dU, 0x1722c20611e9cfddU, 0x7f5f4e3202d0804U,
  0xf6f6b1eefbe2c7f1U, 0xc3fd0517f0c5e1f9U, 0xd1f90ce9fe1ded0fU, 0x22308e9f40126cfU,
  0x13c92014f400ec02U, 0xf3d7c004e2110b00U, 0xb50a0f000c23e709U, 0x2d09001253d6de0fU,
  0x9eeec18ffe828e4U, 0xd6fa0711d6f324d8U, 0xee0a10e21622311bU, 0x102826e01f0decf1U,
  0xd9e70e1521042d24U, 0xeb11e5f1e3fd02f3U, 0x647f909f7010ed2U, 0xe600ecf3e0cdf8e3U,
  0x6fcedefddce0ffdU, 0xeb171bbdee022e0cU, 0x290812230e2603fcU, 0xe8f1d8ff03d7e50eU,
  0x1342e1dff104b913U, 0xfddbedaee5ec1dd4U, 0x8d2e5e113faf7e0U, 0xd52241db05edddf4U,
  0xdceae520c326f0f1U, 0x4181120f814ee30U, 0x81c0dc920141502U, 0xeff01affe9fafff8U,
  0xa6290e03ecfb07f5U, 0xcaec0af5e8dc1621U, 0x72b1bee1125b8U, 0xfffefc0101e21328U,
  0x232fc16ccf3de15U, 0x538fdfdf006eaU, 0x1a19ec1203fd33ebU, 0xdf8142e4daec00e5U,
  0x19ecd20dee0cf346U, 0xebe8f732fcec2e11U, 0x11bf0c51e010effU, 0xedd7d92103d92310U,
  0x2c8dfed0104ea0eU, 0x34f918119e0d1129U, 0x5d8e20def33ff1aU, 0x35de1b0a081c04f2U,
  0xfae9fdf70cd7f6d7U, 0x11e81318fff932f7U, 0xe71af4160d0d020cU, 0xe66d1bf00cf2f807U,
  0xda0b1f0ec10e17e5U, 0xf30ffe042f0e12f2U, 0x15163a3111eed7f2U, 0x27edfc11efbdd62eU,
  0x22341ee1f0fb09f3U, 0x91be1e9c4e8e52fU, 0x36de0afd26fa022bU, 0xc83906f102762deeU,
  0xda01f42d0dee16d2U, 0xf9d52e22d1fad120U, 0x24fef90ecc040fe7U, 0xc0fd0b161fec431aU,
  0x1526040805d309eeU, 0xa2cf2e2131705feU, 0xf30d07e50ff3e912U, 0x1119cf04defd04d9U,
  0x19edf8192fe91323U, 0x27fbecf404eef802U, 0x121a0cf4f0e6e9U, 0x204101126f4f7f0U,
  0xfa0dffd91f36d511U, 0xfce3622c608ecU, 0x2d3c0c15f8f8e2f5U, 0x5edfbdf12e039d9U,
  0x18153720f9f3ffe2U, 0x10e910fc083210ebU, 0xdf0801d123100fd7U, 0x6aa32e711de01f7U,
  0xee06e7f207132006U, 0xa061f3a0210eefaU, 0x1220e191fff1722U, 0xe0cd12bd92925fdU,
  0xeaf1f51c0ef0f0c0U, 0xe13101ed617042bU, 0x1f3dbcfd2103ee21U, 0xfef7d02826e4c109U,
  0x19e0320c0821edf9U, 0xf1d4ebf9c4cc7f09U, 0x918c7a514ec02f4U, 0xf707f4f801f9ee14U,
  0xfa33132c0fe6ecf7U, 0xafecdfd9140ff5ffU, 0xcfffd935dcf103f6U, 0xf7e3e6d52bfbfaf0U,
  0xe93df2c90ff01fdaU, 0xba0a11be37f9feedU, 0xe12ff33fae1f2bcU, 0xafe252a2535e10aU,
  0x492812fff7fd1304U, 0xe320f9ea0eff24ebU, 0x6ec1245d40ffdfaU, 0x9f8ebf63b0e520bU,
  0xeab31a0dedf7c462U, 0xfd0ee33505dcfc09U, 0xe806dc1ee000ec0cU, 0xdbafc9f4e62815ecU,
  0xfddb18103be5d908U, 0x13010bd405da03eaU, 0xeff6031fe927cd0aU, 0xff60d1f04e31de4U,
  0x4ae9ebf20936f334U, 0x1d3be9171510df13U, 0x1c061406f7f920f7U, 0xdbf426e616e910fbU,
  0x817002732d2100fU, 0xfb04ec2209e01011U, 0x2c2f2ee9ed0024e4U, 0x2b20fe2de5eff5e5U,
  0x11041bed1ceb33ffU, 0xe7520231c8190b09U, 0x3c230ff40551fd15U, 0x50e4e2e9eac9bff5U,
  0xc04f202ede40b31U, 0x1aea2d59e7f4ecU, 0xbf013f09ec07caefU, 0xfee0f49c7070d31U,
  0xcff816d71101defbU, 0xf514081118db22f7U, 0x4206e4c01bf9f2f2U, 0xe344d5e3fd27ff31U,
  0xecf841ed38210fd3U, 0xf6d80f03410ed9b4U, 0x254b10050726d226U, 0xf81c190bf2fddbfbU,
  0x211d1124e7c31518U, 0x11f509ec050ce314U, 0xf9cee220ee1118f8U, 0xed0f09f44bf90fe6U,
  0xef18f5d1f326d1e8U, 0x1faf1d6fa0eeafaU, 0xdde60eed020f1620U, 0xe2f42aeb4f22fe24U,
  0x28b9efdb0a0d0d28U, 0xd5da2905e432f6bbU, 0x15d1dd1e0e44fdedU, 0xecfc04f2f4fe29a6U,
  0xe417c9173c091a0eU, 0x33eff5d9041a0bf1U, 0xdfe5f805f4dd0d08U, 0xb609d3163405d806U,
  0x1ffe2851eae5ece5U, 0xeebf2214e8e01805U, 0xc354c131520516f4U, 0x1bf7fb3231f6122fU,
  0xa1e3de106222b37U, 0xca2cfde0e0e8bd1fU, 0x2200173211160427U, 0xe8f6ed2bd6211ef9U,
  0x272716fdd5f1f1cbU, 0xdbd921d805d31af4U, 0xd2717e418d101e7U, 0xb3336f9def6f4edU,
  0xbf1de0202a0fe4c4U, 0x38fc1ddbe62617e9U, 0xe23c3a02eebf33d6U, 0x5dbf10032f21823U,
  0xc2edef1c18042bccU, 0xd7e10524e8cbc9bcU, 0x1d0ed7f00e3118f5U, 0x10f5ed0dfb152f23U,
  0x829c4e7e0cff5f9U, 0xd2b0a15fb117ae0U, 0xebb0d50beab75042U, 0xbcdcf7d0fec2cff9U,
  0x220df14cf21f3c15U, 0xd6cbd5f2311febf8U, 0xf3f4edf42ae508c4U, 0x315220d70511ed2aU,
  0xf042a318edded52fU, 0x1d902fcde41118fU, 0xee360bbaff05171eU, 0xf0a40e819200ae9U,
  0x16e83c2204b12231U, 0xe2e64a2e35f0fd39U, 0x4201ea39f9c1f104U, 0x1cb31029e606e7e6U,
  0xfcecd3f1f6b7d6f4U, 0x4ecffb2432ef21e9U, 0x1bb43427e4e8d0efU, 0xf1c83dded5d3f01cU,
  0xc8f10b17dfe5d20cU, 0xf313e935d91ec809U, 0xe2ecd6c4cc3333dcU, 0xd62e1be00bd6e7f9U,
  0x90e2616e639f919U, 0x63ed17f7eef3f2b5U, 0x100af8d8233305e8U, 0xe6f114ee2444e406U,
  0x19efbf1f05fff803U, 0xf115ca15bfe8daf3U, 0xb81ffbeff3c6421cU, 0xdc0112134afed702U,
  0xd808ff03ff18d6f4U, 0xdfee120b08f21f1bU, 0xeed302bbf521c6d6U, 0x113c549f9e90916U,
  0x7fdcfa3321363631U, 0x23b6ea3cfacc2d13U, 0xcc291403e52a08fcU, 0xf7edcbf8f81c261eU,
  0xce11ee05c802ea40U, 0xcfcae7fe260c1750U, 0xc94df1f50a0203e4U, 0xb2dd31c4422f02fbU,
  0xe314fa1f47240602U, 0xf402ecaad4e7d123U, 0xbf6831a4e6e702c1U, 0x15f205100c1df437U,
  0xed1810005be9ff12U, 0x2115d5f7f5d61a18U, 0x4ff80e19f3fee707U, 0x14fbdba5fb2f05f9U,
  0x31c1c0244f2a04dcU, 0xf12a0ada0cd50615U, 0xf90fdc0293ef4bf6U, 0x17fad0f616ff24fcU,
  0xdb28d5e91f4af50fU, 0x9f3edf02ec5c246U, 0xca292df6fe1034a7U, 0x16056aef090e4bf2U,
  0xdbe0d0967e42847U, 0x3f03c382af8e201U, 0x1251dff81debf30fU, 0xe9fefd1eef4af517U,
  0xafd817c1dbee0332U, 0xfdf602e8f332f3b4U, 0x24040befe6bd3e15U, 0x22f2ea4cdcee19ebU,
  0xd7c40baef50c1808U, 0x1f5ddcffd14c9f2U, 0xef184ce5041417c2U, 0xf0e2fbf418de0441U,
  0xbc0be4d00195c3edU, 0xfd1bdb3bcd2cf5f7U, 0xebee0ebd81809b3U, 0x47b2ed33ee02f709U,
  0xf0fcd93ad0bb2fdfU, 0x4cf00e070d27e83bU, 0xc60a15200c151803U, 0xe80800cac246f035U,
  0xd414f3d1230207e6U, 0x60e51e3ff2a7fb0fU, 0xe7ea0cfd1d3249b1U, 0xeaca08f82d3de325U,
  0xbaefb1e20e09b5e2U, 0x212602c0d5193217U, 0x17d1238b4d1e0fddU, 0x1f01cec1f7ff0c07U,
  0xf7e611e925193d1eU, 0x6a180346111c08f1U, 0xeefcfc0405e8030aU, 0xcbfc3cf418811505U,
  0xfcc9f24afd05fbdbU, 0xbf1f1efbfd20fa20U, 0x22dd90c9cdd007fbU, 0x379c17ed2d07a5f5U,
  0xeddb172402bb4eecU, 0x14141dfeb819e9e3U, 0xece728d2db6b38faU, 0xf016f4ee8839f5d0U,
  0x2ba19e9fbfec40fU, 0xed1628fbf3fe2af8U, 0x7fe62af60f080a13U, 0x59b83aea1f064aa7U,
  0xeff8084adad5f51aU, 0xedb30926c3e4d215U, 0x2ebf2cf0a02ea1aU, 0x37f14e220abcb0ffU,
  0xfbca161b2bdf9a24U, 0x21da34dfff1aebcfU, 0xc2d3f109d2e32211U, 0xf12319d433163047U,
  0xd1eff6159a211402U, 0x19e0ee19f6c8f90cU, 0x3bf6f5cdd60e20f8U, 0xe343fe40106cc29U,
  0x29f0161af5f0ece1U, 0x9c1908721fdbea01U, 0x5e1151b172813daU, 0x203ef515faeb1724U,
  0x57de2b1e24acdfeeU, 0x46faf47f1b16d129U, 0x1dc081d02a4cb12U, 0xe6ec07e7f0322715U,
  0x2ceb0609334841b6U, 0xec082c43c72c26d3U, 0xca0eeaf9ebcefa37U, 0xfed9d3f304fc092bU,
  0xe1b1c0ffc1fc30aU, 0xf6e4e70a481006e0U, 0x1c08be17272ec6e0U, 0xdde1a1ae3bedf6dbU,
  0x1438280f1543d60eU, 0x16adb71cdb12fec4U, 0xf0fedc42f61be445U, 0x29f0e302ed2200b8U,
  0xe5d4e4fdfe1aebc6U, 0xe1d70b1d250710e9U, 0x3affc117e2f90bcaU, 0x32f14004da17f18fU,
  0x1512eef3150fddcdU, 0x14fe131ab5de202cU, 0xda00bbddcae412e3U, 0x2200c2e0eaa30c3aU,
  0x614f8ed041706a1U, 0xcde0f0f51600ffefU, 0x2cea3cd10631d21dU, 0xf0250ed6b6ee3c3dU,
  0xd7e629d3192320ecU, 0x14b55429f1e948fbU, 0xcfe5eee8d4ffde39U, 0xd9d6035c21d6af13U,
  0xff3001f2311f8c2U, 0x3911d793e1b41dc9U, 0xf0329e221a4098beU, 0xda070ad5f5f0ea24U,
  0xf6151afff2ff32a4U, 0xc9e5e8e92a09132fU, 0x2aa8670df4e81a2cU, 0xc18341ca60c2a32U,
  0xdb26c00d0318fec7U, 0x2a31f0ee2af4dd32U, 0xb3a4523221d051aU, 0x3421e505ece7af03U,
  0x1bedd336cfe8d0d3U, 0xef45e01ef90be702U, 0xfb12f4deef292f47U, 0xbb06f62cdbeb27fcU,
  0xeaedfc19e2f7e51cU, 0xda39ded319f7d548U, 0xef01d6e308f9d8f5U, 0x3af9e5caaef20905U,
  0x7f9fdec17ed00c5U, 0x2cbcfd08f41d2d31U, 0x34ed331710142aeeU, 0x280f271bdd1652efU,
  0x9f5ee070dc6181fU, 0xc4d6e91adc0a27caU, 0xdfe8d8f358f514feU, 0x306024e711e7c90eU,
  0x21231d1d47ce1b1aU, 0x38dfcaefecc923f5U, 0x28f901c5f465cecdU, 0xc2170c0d0f48c0f1U,
  0xfede0ffaea0634ecU, 0x12e110c01fa33f31U, 0xc1b32c2d2d7f72cU, 0x49c2342eeaf42bc1U,
  0xfefcd1f8e5dad22bU, 0xedfa11e5bf4333eeU, 0xeff7f9efee2a2cd7U, 0xfb1adae605e517faU,
  0xcfc20f933061005U, 0x3ee81024db0af3f5U, 0xfa012b0ad0e4dde1U, 0x4004362fd02f04f2U,
  0xe223fd093f2e0542U, 0x213c125d230ec118U, 0x13f11711d22033cbU, 0xf6d30b481ed90fd0U,
  0x30e0e3813cc0bacU, 0x9f403da0efad3bbU, 0x1e06fa1afd4cc317U, 0x521d50df3f5ef15U,
  0xea07ff1a05f6f730U, 0xd4f5c62f230ac4fdU, 0x10f013eff9ed0a33U, 0xd1ffe0f12233e626U,
  0xdf371afa180cf83eU, 0xf200040ee2e9160eU, 0x3b0742e4d9e21981U, 0x1c0d0502ea0401eeU,
  0xf613def6f007201fU, 0x3a1932f1e9f6ee60U, 0x16fef9ece80804e4U, 0x20419331b06ffd1U,
  0x73804fd14ee0aceU, 0x250f0dd0f4f82712U, 0xb6150d1001dfe91bU, 0xf2d26e705f9f317U,
  0xf3cf2a10def6eefcU, 0xc61a0c400ee1ea36U, 0x1c4e1be30a02ce16U, 0xe6392be715dc1a1fU,
  0xfdd7301a2c0e071fU, 0x55f52614d3020233U, 0xeec9c42af5fc20fdU, 0xb50cdfe48331507U,
  0x11f2c3fdefe012daU, 0x1fed02e0f800cd1bU, 0xf0ce00d5c10e2be4U, 0xd5e917df021ae301U,
  0xdef02fc2043f2f4U, 0x2df5ecda00f0feU, 0xe8020f3016cd01eeU, 0xc6d7f3210c101409U,
  0xfdb904eeecd2c510U, 0x30330637f5c54b1eU, 0xaf0b182f0a02e704U, 0x352afc3bf32c1bddU,
  0xa0c1b11fe2118d1U, 0x1a13f70ef2a62c22U, 0xefc04dc8c9351432U, 0xf914f255f9fbbaeaU,
  0x210b2245190648e5U, 0xe3dced15010df902U, 0x81218cee22afd0bU, 0x1f03f409e6e90110U,
  0xe8f9d501c61ce349U, 0xdf745c6f814432dU, 0xeeded100616e4ffU, 0xe83196d8defd1917U,
  0x7ffbef32800cbeeU, 0xe655410619411ff6U, 0xa2197dcf74014ebU, 0x1144f6e6e10411a0U,
  0x17e03317f6d64109U, 0x5d0adef602e3880aU, 0xf9faf5282c04fc3aU, 0x13ded30ce519fdf1U,
  0xf30b010f1026e433U, 0xf0e5f2e317eb1b1eU, 0x1f02f1f9250b16e9U, 0x2123e9fded43c0f2U,
  0x1ef8d8fe2909d216U, 0x5dee0ddd06f2f2b7U, 0xedbc24fcd506f82bU, 0x16f92c071cf8eadcU,
  0x22ef1cefff090d07U, 0xc6ed0d0256c5452bU, 0xecea0febeacbed44U, 0xf9e5c51be695d4faU,
  0x1d0edfc7eb07e6c9U, 0x7cba51e14a7b235U, 0xeceb2190c1148c3U, 0x22faf9dce3060324U,
  0x490c4cffe9f9210eU, 0xf7fe144015dcec65U, 0x26ed17fde4e65936U, 0xfafa34f2f21fda4bU,
  0xf013efbcdbf0fcf2U, 0xe8181f2202e0b2dfU, 0xfee1bfddf41117U, 0xfe003ee08cc0bU,
  0xff06d0a0c14d106U, 0xfff1dc251981acfbU, 0xd84b2c34d70cbb25U, 0xfb0ce80edb0af9d6U,
  0xe0eb270040d5e91aU, 0x2af108e9cbf8fa15U, 0x113df1e1f767c5f0U, 0xd0226d92cec6aebU,
  0x124005d8fff72130U, 0x1408c3e30a39d21eU, 0xcbd8110d0a3eaf4bU, 0xe5f4efff09ccd8d5U,
  0xe22411e4e4220af8U, 0xebf72faf111a2104U, 0xec0e13f11911ea2aU, 0xf60ad1c7f0e616ecU,
  0xe1c7fdf1ff271bd5U, 0xcf11e49db801f1f7U, 0x2e3d0343e9e2cfdeU, 0xef37ebee0dd61f04U,
  0x11ed3c02d5d1c712U, 0x3319f4210beeca19U, 0xd8241a57e31502dcU, 0xf61a0a0afa120521U,
  0x4d5e5f6ec0d1a03U, 0x290037d403f9071bU, 0xe1c5f609c1fac066U, 0x255407c6e82ded1aU,
  0x273fcff80019e4f6U, 0xf8e63b1bc41434ffU, 0x1cdb00376d051c00U, 0x82913ebf5db0240U,
  0x3f60130bf3191102U, 0x1c0ec21d14f04df8U, 0xcddb08eceb03e6faU, 0xd70f02010afa140bU,
  0xb8faf51a390b1705U, 0xefeb230615f9d313U, 0x1d1dd013f1291bf0U, 0x11eb1d35f4400cf0U,
  0xf9d92e100b1a02f6U, 0xe41fdae84d1a042bU, 0x7fcef5fa11ead0eaU, 0x1d391d002c1ff149U,
  0xda06110bec0f09f1U, 0x3d03fce2bae3ebfcU, 0xe0d5dfe2fb1cd9dfU, 0xbcd6e01adbd8f6efU,
  0xcee524e326fc22e0U, 0xeff0f719f8d5091dU, 0x22ff5142efce3c2U, 0xe2ba01f415ffe0efU,
  0xcec02e10be50002U, 0xcceaf340c0fef5f5U, 0xe6f81afced07e8c7U, 0xe222fa32f6ef1426U,
  0x2ccf0c30fb080ab2U, 0xa05fbe809cff9ffU, 0xd80918ddca0f23f7U, 0xc3ed07ecc9b90526U,
  0xaf5edeff4e4cdfdU, 0x40211eedf3f003d1U, 0xdff00001200ebee5U, 0x1012e5232102e4d3U,
  0xd82cf9f119f9e0f3U, 0xafa1323de3210faU, 0xe1613d711d3edb2U, 0xdd0c0dcf00f8f4f3U,
  0xfe132103f704e640U, 0x3f011d42aa70ddcU, 0x22133da7d8e71e1bU, 0xf1f122e230d6e9dcU,
  0x31253d41fa0d2410U, 0x2a2e0706d91a10e8U, 0xc706c20759effc16U, 0x10e806faf7ea003fU,
  0xd1adffe3cd815c8U, 0x2408f9e40cc61eaeU, 0x1a2b13ece6300ef3U, 0xf1eabfede9f812d4U,
  0xe6f2e306e7cbdf3eU, 0xc21f1f121df861e4U, 0xf6fdc5e3f70f18f6U, 0x5f5f617ef2a0ce8U,
  0x4034052f09ff2232U, 0x15d40322f221f900U, 0xd0022c2808c9de15U, 0xe40419e3e4242f07U,
  0x1a2bd0ff08eb2919U, 0xfce6c00b22ded3ebU, 0x2bd9f9011b1c07ceU, 0x12efabf83618f8dcU,
  0xf7fdd5e42a30def1U, 0xfef112f5da11cac9U, 0x7fee031031d9df18U, 0x1e344019cbe8ec01U,
  0xe6c5c7e007f90af1U, 0xe0f8010e00273771U, 0xfcf5045609050efaU, 0x282203ff1634f80bU,
  0x8191518e50ad906U, 0xf9180c2f17e41be8U, 0xecd2e42df6f93c0bU, 0xd9e20f33f2efde10U,
  0xb5dbfd29f7d5ba17U, 0xf81ac705f4d0f5f9U, 0xfbfab5191eecb9c7U, 0x43225f721bfecfaU,
  0xfe83df366f92a35U, 0xcaca09eaf5f80df0U, 0x1fe4ba39df1addfeU, 0x934002fa35e72cefU,
  0x1e0ac7b923e0041bU, 0xfc35f6ebd5d2060bU, 0xfa0ce64df71903e8U, 0x240d02cfd7caf83bU,
  0x17f10ef904ebd9f7U, 0xb29d2d71fefca67U, 0xed247e5e0e8d0fbU, 0x1b5f4f90e270f26U,
  0xd0031e171b0d11fcU, 0xee11ffec32dde31fU, 0xe3d0e5bbf710ea23U, 0x360ee44afdf207f3U,
  0xe000c8f7f8cc4133U, 0xdbd52d030f1e0a27U, 0xfd1c082627fc1e06U, 0x210ad51b1119e0f1U,
  0x381717f7d604c3feU, 0xeb18dd25e52af0U, 0xd3b1b0218f8302eU, 0xe629ed1d3402163bU,
  0xdb00c7fb041ef5dcU, 0x12182bfde751c5deU, 0xcf0ceaf301e409faU, 0xfd0213fafc07fbfdU,
  0x30d4ec20fccf500bU, 0x1f1b0d1c42e6ede9U, 0xbf1412e3e928b643U, 0xd01708dae1faf8e3U,
  0xee0dde121dc508dcU, 0x1cf4b0fa0afed8efU, 0xe822e1ed0aebfbc5U, 0xd0f7ddc3e1fa25d7U,
  0xf52d10bdf70bf0f9U, 0x2e4028b33ccde224U, 0x3b1afa55f007de02U, 0x32214601d5f327f3U,
  0xc408db230e5150c4U, 0x15fd13c82edfd90fU, 0x3c1fcbccdbf5092dU, 0xe223df30f70f3be7U,
  0xf0f2d602eddea5dbU, 0xc6f2070609ef2009U, 0xea13bcdee1571debU, 0xf0fff426ddea2ee7U,
  0xdb711921f01902e5U, 0x59d808ff58fac026U, 0xffe810f00129090bU, 0x4c19c0fc19c80030U,
  0xfdbeab0b3e1ff31eU, 0x7ede4d3eef1f4eeU, 0x171005f401ddd407U, 0xcdd3f4fa04f410dfU,
  0xe0f109eaf50b0cc4U, 0xf6c16d8320798f3U, 0xf4e0b113b93c1b0cU, 0x33f5331f02e7c21dU,
  0xf4d916e523cc3219U, 0xcf0cb9c14a01f00fU, 0x1c67ea190323f8ebU, 0xd1c31d530de03cdU,
  0xf6dc4221f4c5e518U, 0x612dc2040c3dfdf0U, 0x46ea0ce30009201fU, 0x4c07c6e0adfc1d2aU,
  0xf5231bf9f0ff0905U, 0xfdf0119f0ee51fcaU, 0xd8feae380d2f5017U, 0xfcdc62d03ac61804U,
  0x50bfd41a04311e7aU, 0x48fdf113f4fadf2fU, 0x1d3a4901fce72612U, 0xf7fa131040120cf1U,
  0xcae7fdfa061b0d10U, 0x23af1e03070d1014U, 0x40ee190f0f39f4e8U, 0x3d29d51f188e3a18U,
  0xfe04090e1631ebe0U, 0xd5112e35d5dffde8U, 0xdf300c490b0bd0dfU, 0x37f5f911fc08eb0fU,
  0xf5fbe5fe19e7be35U, 0x17fce44fdc49e3a1U, 0x22d20625cc5beee7U, 0xd9f9dbfff31bea7fU,
  0x13ef18fc0b1c3c20U, 0xef15f32d061e0d0eU, 0xae014dd050115fbU, 0x26350212e009fc11U,
  0xd00b27e0d60802e7U, 0x5cb07f01b35edd1U, 0x4013ef231e36d230U, 0x40e3ef4ee071450U,
  0xfad5e5fff9dd03b6U, 0xe6f0f428bd2cfb3bU, 0xef1d1be9dd0102fdU, 0xd3fbf4efec0af2c5U,
  0xd544fbfd29d709f1U, 0x7d5ddbefe04141dU, 0xdfe6dcf1acf5c4d1U, 0x33e070b1f14f6e3U,
  0x17d2db1f31f101feU, 0x1706efe7272c2349U, 0xe4e04fc94311123eU, 0x4a4280f17befb14U,
  0x19186604ebe7d225U, 0x2b15f1f6e9cc02U, 0x1b040401c9f62434U, 0xe5e8fcf4fccefae1U,
  0xedffe2ebddf3ec14U, 0xe42df51cf603dd03U, 0xbe000502f7d4e9aeU, 0xcbff061ef0e500c1U,
  0xf90321dd2be6b2ddU, 0xd3c1d9efca141749U, 0xe7d7071bf1f0ef5fU, 0xe0031705ceef0d0cU,
  0x5d3dbfa0c230ffdU, 0xe9260ceb1fe8e4dfU, 0xf3efcacb38c90b48U, 0xf4f517f218121e23U,
  0xf21707ef2b021b24U, 0xcf333fff22d7f903U, 0x300df928f810f423U, 0x2f19f3ee16d97ff5U,
  0xe0f2fb12e3ddda22U, 0x42bebf52127ccfeU, 0x3b3009ac080eeaf1U, 0x434ae40117f805f7U,
  0x14ea061edfe30025U, 0xf011d5ee49201ff4U, 0xc732e1ea02f804e3U, 0xf90f05ecfef740e0U,
  0x9fdf1f215e4fd20U, 0xf3e419e2e5f8ee09U, 0x290bf3e11ff7e9e1U, 0xcbfef4f80d341a0eU,
  0x3d210ad4220802d6U, 0xe5e646c613e7142aU, 0x10ed1614210ef3eeU, 0x162dcdf7473100efU,
  0x1206cd29d27211eaU, 0xf51c02fdeced1ae7U, 0xee2911cdfc0603d8U, 0x16f8d504bf1e0cf8U,
  0xf8f5d73a33dcf11bU, 0x52ecd4da05f00429U, 0x204db09f945f92dU, 0xe8f2f8ec0528013eU,
  0x8ecde16bfd5f7ebU, 0xe70aec2011edec1fU, 0x1b4f4dc190417f9U, 0xa1e03f8191507e1U,
  0x25f3fc45ee3c0a22U, 0x2adff512eaf4fdc8U, 0xf0e2013fff05bcfbU, 0x2efceafdfef93b1cU,
  0xd033023715300e2fU, 0x43fcee4515c436d1U, 0xde07fdd829f51215U, 0x2e2b9f27c5ea4025U,
  0xd83916f7dae02dfcU, 0xe601f02ef11a1adeU, 0xd8d916da0c01cdc0U, 0xf43e29cf04b71924U,
  0xf7dae61053160dfaU, 0xe7dcfd1109342706U, 0xe9e6ffc1131f44beU, 0x1d32161023dfaf35U,
  0xe9d112f13e070d25U, 0xf1291cb7efea1c04U, 0xf68ef41d1d450e17U, 0x26f8df2d10232ff5U,
  0xa5fd111dfaf243f1U, 0x41080c3bde03f7d7U, 0x1104080ec4d4daU, 0x3b0f25e9d7cc1d44U,
  0x8fd49f35e2f112e2U, 0x16eae8fbd93335c9U, 0x3a29cf0646f8fc22U, 0x171002fffcdc080bU,
  0x122ddbe21f26e620U, 0x13e60f1e051807d7U, 0xf4d7e5c9da09d5d6U, 0x5ab8eaf308f7b8feU,
  0xe71d362ddde311f0U, 0xf540faf0f6d2e6cfU, 0x9f1952dc020421fcU, 0xce13f8ce08fb251aU,
  0xe1d727d0f817e2e8U, 0x6b0016f6ec283b18U, 0xfab329bb1f232732U, 0x2e250348f6470e2cU,
  0xfc1e2a0df8cfea1cU, 0xcf222f070300d9ecU, 0xaefed1909161809U, 0xd23d162bf8f6d5cdU,
  0xb06d8d4130bfd55U, 0xd218ed18e80b23c6U, 0xfc0cd73bdb2ec5f2U, 0x6012afc34f420e6U,
  0x196410db18f9156bU, 0x10dc181a1e178113U, 0x22d61d230921028fU, 0xe8f9f6cf181d1c07U,
  0x4f8b6494f5232faU, 0xd5efd1d9c910f794U, 0x3d9280b01ddf0ddU, 0xf9c7e70f29da3b08U,
  0xe700081906e30b22U, 0x63fa7f8dcf9fec9U, 0xccde1fcb440289ecU, 0xeee7f0bcd8c5f523U,
  0x63a2d08d62ffbe9U, 0xee0cf62c18c802faU, 0x4fbbdb2e429d8e0U, 0xfcf5d21a0de5f7e4U,
  0xfc31b321e62acafcU, 0xf420ef0f1ce408d1U, 0x18c3050207fc1618U, 0xdb1acd17ef0b3000U,
  0xe6ebe8e5ba0f19f0U, 0x14e9c396061c74e5U, 0xa83440161c3d03f4U, 0x3719e91b404bbe15U,
  0x1cd30c82ead3ed24U, 0x3d06040316d72e40U, 0xcf281ae340f5a7eeU, 0xba0fd61d1909f5c6U,
  0x7f902e3068a321cU, 0x11f507bbd2d73c33U, 0x1a1b480739e1f91fU, 0x1de4bce021ddd3f7U,
  0x1715d215e841f505U, 0xbf0be609c9320924U, 0x2628259a42550ac6U, 0xae06003bfbf0b92bU,
  0xcb7316f1fcede804U, 0xe3be593b70f0d8deU, 0xb0f410d51cf81427U, 0x35cbe1ff3e0bd8edU,
  0x370125efae4a0cc3U, 0xe70f03e5f701ef81U, 0xf6fd14200b171301U, 0x42e6f201d5f50702U,
  0xf328f5bef727c8daU, 0xef0e1536c52846dbU, 0xecc9f826bccdfc5aU, 0x17cfdf1d08c5ad04U,
  0x23fcdd0910e3fce3U, 0xc61634d5e637fec2U, 0x37b011eed9eeefd5U, 0x14c35fc405c5c2abU,
  0xd82fe510fc450cfcU, 0x14161d00d5f9d11dU, 0xfb103b03bcdac2caU, 0xd7e630e92e0ff2d6U,
  0xf42a04cbe408e61eU, 0xf452ecf61418f1c9U, 0x4d0f4d6263be1ecU, 0x94c26de118c2711U,
  0x2accfb03efe2e614U, 0xbfe53cd632ef26e4U, 0xdf1a3732210d212cU, 0xca190013020720e7U,
  0xd9dc1122ff1d0fadU, 0xe3433332f4d8f1d7U, 0x1653cf50c3c3104eU, 0x8d062cf521fe4c10U,
  0xcfa44b8edfcc002U, 0x4e4bdeffb1424310U, 0x25c04cb5f8dbf707U, 0xe8fe0aece3f7e113U,
  0xf7e9142d10390aafU, 0xfdfdb10bf216e1e0U, 0xdb5e39bef0ebf849U, 0xee23d7045e08f5f3U,
  0x47f730d20905a819U, 0xcc0c1810b14831U, 0x2c3dc8f5da0036f8U, 0x2ae428cefb0e1bU,
  0xa565e8fc0f0ef6f5U, 0xaee22ddd297c2e6U, 0x593febc0ebe414b7U, 0xcdea07ff8b3df9dfU,
  0xd443131c33cb1601U, 0xd90bd325d10c0d0dU, 0xdbc815cbfa1a0408U, 0xea1af11f07eef70eU,
  0xf0162cb81e0abfe9U, 0x6c529ea302fecf7U, 0x238c228281ef4f3U, 0xb50cb31dbcd70400U,
  0x5204cdef70ffe23U, 0xdc0210f4e426a70cU, 0xfa4daff830c9fb04U, 0xe2cbff0efbd218fdU,
  0xf5ec52e92a23c7eaU, 0x2a05f91616d7fdd0U, 0x260a182b09ee0cf2U, 0x41071204243e0ee6U,
  0xe3e9f8c93804fdf3U, 0x501c5012dbe092aU, 0xe5fe15f712cf2409U, 0xd3fb75c4d601eb22U,
  0xde3bdc0314281d16U, 0x19d061303ce9ca5aU, 0xe8f81013c1222710U, 0x295160a1d23fb29U,
  0xfa2d05d6e4f8e213U, 0x415fb18470306ffU, 0x38eae9df2f0a03f2U, 0xc0e00fd40f3fff2bU,
  0xfafcca2712ac50f8U, 0x18150d02ed171de5U, 0x24202efe0f1cd0bbU, 0xfc060501d91b1d20U,
  0xfc3ef1d5e9e909f7U, 0xfacee508e010e8bcU, 0xa4181ecbae90b07U, 0x3424f2f5be6e1421U,
  0x1dd738cd31fce3ccU, 0xba0745dae7d80be9U, 0x1519d8ecd733f4ebU, 0xc7502b3c01e441c4U,
  0xeb1e3bfb24280708U, 0xabe0c0c06f4ee4fU, 0x2e2eb9062f0f040dU, 0xde1019edd350ff10U,
  0x330c241f1fd9b6e2U, 0x17e3ffb10202140eU, 0x34c01d0e1af8efbcU, 0x52563226d8ebfcbfU,
  0xf5eca21a392925ffU, 0xe7d8adde2fe026ebU, 0xcedeafdf4012a38U, 0xe5d115d2e2ea1321U,
  0xeaf1cfe4d00b1b22U, 0x141917459b08acc3U, 0xc3aafaed03ca2607U, 0x4f9140226f41f3cU,
  0xdc0c49ec24f618efU, 0xc6df1f243eedf004U, 0xa12b211de1fdcc7U, 0xd8c2d0105441d6ecU,
  0x33f5d7e0ede643c3U, 0xdef9bae1fbe63e2cU, 0xe12301082b62eb08U, 0xeb1d61fb181800f1U,
  0x9eab5fafd05f710U, 0xfa1cecfdf90ae206U, 0x241707f8dfff0801U, 0xff03cff6f10711feU,
  0xeddd3b2ae7f0a5ffU, 0xfdecf426e1122cf1U, 0xf50914e32a1dff1dU, 0x3171ff10e2bd0daU,
  0x1d33e716eb19f3edU, 0xecdef713f304e6f7U, 0xf309f8d20ce9f803U, 0xfd21053a0ef8e6dfU,
  0xe104de13104dfc14U, 0xd6fb080c10f7e1f2U, 0x17a903150b0b0611U, 0xfb37201c1af9f018U,
  0xefe5e220f4cef915U, 0xeceef018ecb70c0fU, 0xea21d60cfce62bfcU, 0x10f50a1df5002bdeU,
  0x2023181d0ac5d703U, 0xcfaf1d0f529fe3dU, 0x1afbd940e1f208f3U, 0x8d44d06e8ed13edU,
  0xf42a0908e4e434edU, 0xbfe06faedfff2c0U, 0x2c0506172928240eU, 0xc1ef050d2c26eb26U,
  0x5fbe117e8ed14eaU, 0xe6efe9f60e1bfdU, 0x40e8e7fdfef00af6U, 0x1ce4f5f1f7db0105U,
  0x2330caf1071bf2d5U, 0xf5fceeb9e5170202U, 0x5fae4f9da150707U, 0x40e41c17d32b2314U,
  0x171d34d6f71e1bdbU, 0x2dc30207fa21f1edU, 0xfafbf9efe9091d01U, 0xe6d61113d1f4e7f1U,
  0xfdd63001d706f1f1U, 0xed29f61e1b011120U, 0xe2dc0315fdf2c708U, 0xf919defc0b04de00U,
  0xeae6f1eaea0bf942U, 0x1bf7ede9c8120f11U, 0x19431e012bdcdbfeU, 0xc6eaf9fae9d3270aU,
  0xcf40cfa2804f6d0U, 0x1722effcc7080137U, 0x7d4cd180beef6f6U, 0x1de9f507f61aeeefU,
  0xec131c00fc172efaU, 0x1210cef2ee1915f5U, 0x17db0aeb1616e817U, 0x2e02fcff0d17740cU,
  0x2300db0200ed4200U, 0xfab013c31d192737U, 0xedfff51d18fe31ebU, 0xee1bf9eb023ffadeU,
  0x2413f7e1dd0bfd09U, 0xfedae2f0eeedfd11U, 0xcc0be211f00cf2fbU, 0x3128118e1e4effbU,
  0x14e4195611da2ef3U, 0x12c345fec9e7053bU, 0x90ed50bcf0924d0U, 0x322936feed200ffeU,
  0xdfec36360bbc1412U, 0x230d20f1812ac82fU, 0xf9f1232af6db0d3dU, 0xd4f03c212203a230U,
  0xffeccf22cb0af7feU, 0xb04f10103bfdb10U, 0x6b4053e1308d5f3U, 0xda19e8eb060eee32U,
  0x2ac836f6fb1c0d23U, 0x2c0b06e6fa27b4ffU, 0xdd2801e4cc11f50eU, 0xfe6bfc0bf44408fcU,
  0xea183be61113a640U, 0xb72217cfdee8eb2dU, 0x39faf6fb39f2240cU, 0xf2033604f7f4e0f3U,
  0x14ece3e2d2f7092aU, 0x4a2325ff0e21ec09U, 0xf4e7011823372418U, 0xe3e7022b1cbbfae2U,
  0xf018da50f30b1ae5U, 0xfbfffdf6e6f71ceaU, 0xdc29210314c45019U, 0x1014eb36ec0ffa2fU,
  0x1c21270becf726f7U, 0xdb2fe7ec071ddb24U, 0x3304d9340e02e817U, 0xe6ebee2b00f9ed4dU,
  0x2dbcb119ee2e181bU, 0x1d2501f905e8ed22U, 0xffe9dee41a2dd0dbU, 0xf70afff0132fee0cU,
  0xef9e30dd02003efU, 0x96d9e1071ff5e1e3U, 0xfc1e12fc1cb01d06U, 0x2b3327fd12a80417U,
  0xfee1cf1e0b2ef40bU, 0x1226fd0314030423U, 0x2536fa2c1ade541eU, 0xf0bc09df224412feU,
  0xf85d11fa1d0cfb25U, 0xfb51e4e91e2d04d7U, 0xd7eede0beb1ad52fU, 0x1e0306c617ea08e4U,
  0x91e18e6f327ee2dU, 0xef7e1240a16c8c7U, 0xf729e034f40b0f08U, 0xd5e34207fae5ffd0U,
  0xbff0ea3421cbfff7U, 0xea0cefd2c1eff0feU, 0xffadafb1ac9fa13U, 0xd7eb18051b411bf8U,
  0xdf5d1dde305ffd7U, 0xdd2effe917e0f805U, 0x1f2a1322ace50d27U, 0xe801f90fb665e20eU,
  0xe8fef5f41ff00605U, 0x1f3c10ee20480905U, 0x300bfc15dfe6140dU, 0x171b1befff1324f6U,
  0x72f714c248eae018U, 0x89ea57fe27f3f732U, 0xc41bf20730d99604U, 0xce5d0530af60be5U,
  0xfdee07305d0e3b3aU, 0xf602020ddc0cfb05U, 0xe9e0eddcfd42125U, 0xdef1aedf2a151c22U,
  0x6d43407040436fcU, 0xa1ee0bf0eb7fcddfU, 0x22ed3d1c741ecacU, 0xe807ef5ec52bdff7U,
  0x14f32449a7fd21ffU, 0xcdfef740e41dd31eU, 0x1f90ee7d9dbef27U, 0x3fb5ed031f6c2f32U,
  0xe86be2ee1f05a535U, 0xe115d61005ee3af6U, 0xf6fa0626f3ade3d8U, 0xdceb1001fd1ce0fdU,
  0x434d25d80a3d020fU, 0x4611a511e21418c1U, 0xbe13de00e0dce4eeU, 0xf23e3ffb342433f3U,
  0xeaf606cccce7ddb6U, 0x1fd7e0edeb10fc32U, 0x10e14c41c149d706U, 0x420e9ae433d179deU,
  0xdd04031a153b1c22U, 0x13e03dede02e9aebU, 0xc9d308dc15dbe6edU, 0xcfedf2071e88c87U,
  0x71038cc2a4df22cU, 0x48fd3613e213baf7U, 0xeaf7d9f22dfc144aU, 0x18c20403e3e7db09U,
  0xa340e91c1924e202U, 0xc6ddf1c40a0e110bU, 0xebdd04f0f00de5c6U, 0x5bccdc09292f24e1U,
  0x3a15e1fa313d1eb2U, 0xb4040bdc76dde50cU, 0xc1eeaf162f4efdeU, 0xe4c1024e160e3827U,
  0xfbe1a4c5d133f66fU, 0xcda010834e8bff6U, 0xf910e0eefff73effU, 0x61082c1f3b04461fU,
  0xbef2941b253deed4U, 0xf15bd100bcf9b9bcU, 0x1619d3e922dbe9ecU, 0x162befdceaf4bb33U,
  0xc1a8cdf807de0af0U, 0xbadd16171eed18f8U, 0xfffdbe81b7520faU, 0x1f402f7112057baU,
  0xfa14f3f414dafd3bU, 0xc80107fe05ffdcb8U, 0xfdf9e4cc36fa170aU, 0x6eee8c1e8da1bU,
  0xff3029d3d0fbac3bU, 0xfc552cdf2a0ae8beU, 0x3931fc300cbaeec4U, 0x4ef91a2309022f22U,
  0xda04cde317e22bd7U, 0x3c07111aed15fe19U, 0xc6fa03dbeaf70b27U, 0x380c21ed04f4c2e0U,
  0x1e1098af2cc3b26U, 0x5c5cdf08514e32dU, 0xdd09dc03bc4c01c1U, 0xaace06b4fd1cbbfcU,
  0xe9afd8ff2b2611bbU, 0xfffb0631e415d510U, 0xf7ed284622bb1becU, 0xe9170ac815efe352U,
  0xd1f181ab5cbdf12U, 0xfdf7e4ece808ecd3U, 0x1ff12e7b22f6f2f2U, 0xf3f5e0e715072846U,
  0xf3f615ef2730eaf0U, 0x182427e1ee1cfd05U, 0xac050f141ad516e6U, 0x5173004cae00723U,
  0xd2be012f93e001dU, 0xedf5c730ccf40eedU, 0xe5f81a17085bf6e7U, 0xcc2b0c4520120bU,
  0x271a0ff0e8faf8f0U, 0x1df33727e9e90cU, 0x1a1f47f60033011eU, 0x18f733342f130d1eU,
  0x15fb4a05081b2225U, 0xf1ec1b06ff1ff516U, 0xf5e4692515f10dd5U, 0xd500f9e1ee070c1dU,
  0xbe0110cf12f24dbfU, 0x16034ffcd026120bU, 0x33a16012506dbe5U, 0x7fe28fb81f4320bU,
  0xfcefe0ef20eef910U, 0xbe33fe3f90cc131U, 0x5f6de18f223262aU, 0xfefab7fb1b421ed7U,
  0xff0f23442eecf4e8U, 0x30ad0fcf139d80fU, 0x9207e12bf3ef05faU, 0x1a201af8efc6f81dU,
  0x3a11383819e12422U, 0xf20bfcea18f649dcU, 0x2837d210cf42cfc7U, 0x606edb407c24ebeU,
  0x11fbfdf40f4f0a19U, 0x9fe1203b1ef443b9U, 0x1c1508b7ecc96d0dU, 0x2d1a1814ffded328U,
  0x172813d8d91f2f09U, 0x730f65313fffce0U, 0xedf707c7fe08fc3eU, 0xf70bd5210ae5f5daU,
  0xe2334f2f03546e5U, 0xe20814eb266c10e4U, 0xfe09c6f10a0ff023U, 0x3d31430e7df1a11U,
  0xe438213003232805U, 0xeb0bcb3cffd5ce11U, 0xdacff33b23df25faU, 0x53fda7ebc743249dU,
  0xecd08e5c2f60fdfU, 0xe829fa21f10729caU, 0xbdde10058bf8b72aU, 0xeef7d31e21ec0b06U,
  0x9d72a1bf81dfb08U, 0x28c7cc3dde0695e7U, 0x21e7c5fdf9ecaaddU, 0xf824f2bde10f08e4U,
  0xc8e70e00271ead01U, 0x20f7cfe5f6c13818U, 0xfbdaea3dc6244dfbU, 0xedf4fc21ff33f818U,
  0x14e30021361153f0U, 0xef0a34e20152fa0cU, 0x2635e43001f10135U, 0x4305281c41faee3dU,
  0x70700d6d6d5e40dU, 0xe72bf914c513c8ccU, 0x28f0261289281e20U, 0x21f3485e220a2ad8U,
  0xedee26fcf4e7e6f5U, 0xb72bf7dcf732fddcU, 0xfbe7d3bcd419faccU, 0x1ef3341808240c10U,
  0xdddd06cf14ff05d2U, 0xe20cebe12bfbe630U, 0xecf52dda2a0508e4U, 0x2fe7f1167fcb0fd9U,
  0x181dfde1d2591119U, 0xff5ef61df8c2feU, 0x2dbb303ed4e9f94bU, 0xf9f8030730eadb06U,
  0x1c3814c6d724d9e0U, 0xe9fbe5ffcd14edbeU, 0x232e0bd8dc9cf0f8U, 0x28cf071228edc6fbU,
  0x8e613f0e3deeb21U, 0x981a0bf84bdd0d09U, 0x2ceb00b425cf141dU, 0x3a31160c0de5dbecU,
  0xf0ee609fffce34cU, 0x34f21dfb94f7f0fcU, 0xba4a2956f7fbd019U, 0x2c20fff0ede4d926U,
  0x51bf4f4e5e81004U, 0xee9f48440730d54cU, 0xd4331ae431082a10U, 0x8de205e90fca311aU,
  0x1bf7f6c5b83bd8d9U, 0xf93b011bfcf40fe8U, 0xc2eed0edd922f1caU, 0x60feed7e07e27b3U,
  0xd9d9e9bceba8ff14U, 0xdfdd67152691238U, 0xc8d1eea2c11dc1dU, 0x1bf0deec32fc211cU,
  0x24f52bcf03cd0115U, 0x32fff00d07150fd9U, 0xf013f5c40ae0c5f0U, 0x281af8e8fdd6e30bU,
  0xdbd5f6f4df280f0bU, 0x500e0ecfa3ad119U, 0x70fa19fcf0ffcdeaU, 0xeefd27d81e4cf52fU,
  0xeffd0ddbb426ec0fU, 0xef6f61af31ef8e0U, 0xefdf1bcef5fff5e3U, 0xec04f1fd49081509U,
  0xcce0c5ce1fef0331U, 0xf4ff3ed2e602d0d8U, 0xc0f3c021e8e00befU, 0x28daad03ea35e3fdU,
  0xffe1fad0dc0af5U, 0x3d01f3d51c261a39U, 0xc1d8eb4cf4fa5ceaU, 0x29f618e9f108be1cU,
  0xfa1aec06200ff408U, 0xf6f0f035fffbeceeU, 0x5afb30d5adb80fceU, 0xd0e15fc5d539fb0aU,
  0xd602aa0fdf29ee14U, 0xfbf109be041f3515U, 0x38c12bdeee56c008U, 0x16222cc7d81760f8U,
  0xb3d8d710c31920f3U, 0xf2ba1bdb0317dde5U, 0x3f00015f7f0ebfeU, 0xfb3c2c18ddd921f3U,
  0xeefde5f7d0ff1d0cU, 0xc1e43a20e6f0f3dcU, 0xfdee48b6e1fdb6dcU, 0xb523edeb1c9cb014U,
  0xea09ff0c35c6142bU, 0x20eed32605922333U, 0x1f9ca001bebefbcU, 0xd2fe1ec401e208dcU,
  0xeefc0fbe204c19eaU, 0xfd1fef1a4b17ee1bU, 0xe7d1eeedbcc9e5e7U, 0x533151fef044edfeU,
  0x1fd9391ef9e51209U, 0xfef1e60d43233618U, 0xfb1cedf51ed20ab9U, 0x170b0563f0032af7U,
  0x2dc6e108f11116afU, 0xe9dfc5073030ecfaU, 0xeb13ee02d1f20fc6U, 0xeefd1b1f1c33f2feU,
  0x18f70726111bd4f4U, 0xc8343d0924c2d204U, 0xfafe02e3d2e4fe01U, 0x3d28fdd9f0df1ae0U,
  0x15dabe0fed24cfb8U, 0x30ad85d1a813ecaU, 0xe7f5411d28daebe3U, 0xee1250ef6fb1c17U,
  0xe0e22c5f303f8f9U, 0xfa12e453fd2021d6U, 0x15e704d6f3d6e9c8U, 0x2c070af4edec48aaU,
  0x2da01deea353a22U, 0x6f8f9d85a220bfeU, 0xfa8dcc3ec1c11610U, 0x1fe5fdea56f29edeU,
  0x2b1bbf04ec2d40dbU, 0x3ef60603e021c618U, 0x2e7df4cc4091614U, 0x19b407c6530ebdU,
  0x3fc50f8f3d2e0f3U, 0xe28a7f02bfaef0cU, 0xe217fde02eed09edU, 0xc3fc1847e0d417faU,
  0xfd031e24232e2310U, 0x1ced2a18fcf03868U, 0x3dec24f4d10dfc00U, 0xdbfeffe4ebcff6f2U,
  0xfacebd10fb2bfcfaU, 0xe2dfe6d80bd2fa09U, 0x3729f1c6340830cdU, 0x17122129b2b6de30U,
  0x3bb2041316cc092cU, 0x24d8e0f03d402dcfU, 0x3525eb0101e3fd21U, 0xdcf626fb1d3af619U,
  0xf22a390940cd531eU, 0xe8c7e6faee14f225U, 0xcb2d2923f3bcc606U, 0x5217f000303e306U,
  0x4bad10f1bb20c6e7U, 0xd0a10cc3f32917e9U, 0x31cdee3e403192aU, 0xf944fed3f936edf1U,
  0xbe5a02e4de09b6ddU, 0x204f6250f294e45U, 0x747e934681b081cU, 0xfc3cb315fb28f3caU,
  0x22d81fba11fa3933U, 0x22122ff338f5f228U, 0xb9cdf31825e6190dU, 0x12f3d1e3d8041d1fU,
  0xfbdc6cd7e827f809U, 0x1efba8cfd3e5f206U, 0x32f6cbdf23da0edaU, 0xb35b400cc029f8f0U,
  0xd81ce507f5fd01daU, 0x32823e42f335700U, 0xcb04f89605d91df5U, 0x161f60102933112U,
  0x1ceef3f0252b1a0dU, 0xd201f52aed1947f5U, 0xfa4671f7f0c1c7aaU, 0xf7e605e9c6fa29f6U,
  0x5180bdb33dd1cf3U, 0xebedeffd3ef927f5U, 0xf0193a27ff1ccf42U, 0x21f1cf23f326f61dU,
  0xe1e807fb26e8fbf4U, 0xed271dc402bc1700U, 0xf9212b0cf817e9f7U, 0x5ec61b4f1c1f05fbU,
  0xf9031fd1f119c51aU, 0x16f3280e08163035U, 0xffdc35e71b03d3f4U, 0x1bcefe039f4cebf4U,
  0x171bf22a1344f1f6U, 0x1624cee6d0faf8f7U, 0x225dfaa8f5eeec22U, 0xf33148c538153019U,
  0x2757d9f8fcdcf0f2U, 0xd3e5e91519f32424U, 0xf618bafbe0e7eb34U, 0xf9f866dbf8f823c6U,
  0xc7f80a4613b6ee6aU, 0xda9e93f2ce90cf6U, 0x10f61e28f0d7092aU, 0x6dd971729421524U,
  0x2022cce4d3123109U, 0x36263b27ebff2002U, 0x42016d11a1915ecU, 0x34c7f8d90ce00008U,
  0x8e2e1e7171fe4feU, 0x11b602c7034e3033U, 0xfcd4f1f7e3e7e8efU, 0xb78f0bf909e6f427U,
  0xe0fbf0d2eef2da1eU, 0x12fc0cb0fb4cf0feU, 0x13e0e5fac018a20eU, 0xffe315f3adf615efU,
  0xdcdfa0040114fc16U, 0xc1a81dd2dcdd1824U, 0x16fdfefdc7d61739U, 0xfe4b1903f9f301eeU,
  0x68b4e518f12c073fU, 0xaafdb60af4fa3361U, 0x17fb177ff8f621d8U, 0xe726a704012e1210U,
  0x42c2042befe0dd0bU, 0x2ccf080b73fb3024U, 0xfbf6e11ee0ead410U, 0xf2d6328be3c5df5U,
  0x3f17e72db414b99eU, 0xcae91807c0e7f5e2U, 0x49f9c9fa370e56e6U, 0xfe0431fbf6ccf828U,
  0xfd3de332f81f35d9U, 0xc3f807dce3125fefU, 0xea06f0cd022d02f5U, 0xfcf4e516d0af2dfaU,
  0xf2d959f00af5f010U, 0xfc101ff319341b03U, 0xdcc406370516f80eU, 0x7efe3c70e2a20fdU,
  0xf0c8ff2303db0be9U, 0xa80e01e32f0431c5U, 0xe8dab61beac2f2e1U, 0xab4ffdf510fdc6e9U,
  0xb4bd4223ebf637a6U, 0x18cf03fede300d02U, 0xa12504bff6c5e1cdU, 0x6cd1d18203b10f3U,
  0x32419b463c03cfe3U, 0xaec22ff0001302dU, 0x9f0100d03f8f6f1U, 0xf873d03925ca0632U,
  0xf5d448fe22d81af0U, 0xf412ffef220cd4c3U, 0xba9d7f7d3f4dc05U, 0xe8f925fe0e052618U,
  0x1f3795f913e711fbU, 0x7d91735ffd51fd0U, 0xaddf0f92f28f1e0U, 0x142f15f71d0be0eaU,
  0xfa770cf70ae5f212U, 0x12002e08ee1dd3e0U, 0x39e31ae633d509d8U, 0xddee04034425e120U,
  0x23f12ae5457f06dcU, 0xf4f1a020eff09ecU, 0xeedb38040d30fc24U, 0xe902f1bbeed721f1U,
  0x115c0139eff20237U, 0xdab7f3488b080f6aU, 0xf10eec2024340cedU, 0xb511ed28d5583207U,
  0xc8f24e32050e0209U, 0x9bee23e8160f1418U, 0x32ffda2126f51cdbU, 0xe127e3e50971b8f7U,
  0x3fb3e9b2ecc30707U, 0x39dbe5e33b124610U, 0xc62ecd1f03fc0e42U, 0xdcb91902a364ebf7U,
  0x2214ef0a110bc7e6U, 0xd921fbf0131505c8U, 0xaf72618c5150f60U, 0xfbe62fe9bb0c1940U,
  0xe2184fd2553bf129U, 0xe3becf6319f3d521U, 0x1711bd1507432fcdU, 0xa181ee332db210cU,
  0xc52def5ed31e5255U, 0x60010ff14edf913U, 0x39c0b8e850e3b5edU, 0xd73b0cea070827U,
  0x13debd06dd291ff3U, 0x15b600bc97cb50d4U, 0xe62958cbe5cab115U, 0x111deefb4e2db61dU,
  0x27090dc769644f11U, 0xeffd19e349ff3a15U, 0xebd608fb06d60d08U, 0x22eb3de111da18a9U,
  0x3e10d03cfd3843e1U, 0xe2a622b8ffccdc64U, 0x28e813e1150ac3a2U, 0xe334b80319510813U,
  0x2b06decff6bbe404U, 0xf74e07fd0aee0c20U, 0x12d702cbc218f1f1U, 0x1901f0edd9f0f2d7U,
  0xedefbf023eb12dfU, 0xf8f8df3c08ea90e5U, 0xc5de0c2324214d1bU, 0x1848b4c3c902adefU,
  0x1bfbe650cce1c6baU, 0x8ffc01c0ee051104U, 0x1d0d0cf1fc07c933U, 0x16f91b324af6ebf5U,
  0x3c8389ee20603cbU, 0xcd0019f9e7356ecdU, 0x55c93b9a0ff2ed07U, 0x2cea712508eb9700U,
  0xf4d31e2703d9f6U, 0xcc200bf3deff292fU, 0xf5f8f504e01cc70aU, 0xa67d29b09c5c6ddU,
  0x37aaedfc041c0fe9U, 0x936de1e0fc3fdd6U, 0x5e0231dffa7df614U, 0xee8f3ece3f31506U,
  0xbdb911ef1a01c2f5U, 0x9c0e0fd703231732U, 0x6c38ef422b32120U, 0xddeea308090a06e5U,
  0x4df3a08e42fd513U, 0x302feb4af906f207U, 0x142ec1ffd416f986U, 0xb202f710cacf1a07U,
  0xe3efdcf5e4814e16U, 0x47acb3beef81c57U, 0xf57cdcf84b1216feU, 0x3ab227ed26d40efcU,
  0xf113fedce7e5370cU, 0xbd0d0e21b24103eeU, 0x82227ffea9df149U, 0x5970e3c6e4fbfbddU,
  0xd5d801faf7d66412U, 0xeafb01011701a7f2U, 0x71d8fd11dd2e98ffU, 0xbbddd9273ffa1afcU,
  0x4412d7c6e0e6cfeeU, 0xcc77e9e5de103609U, 0x1609fa051dbafa0fU, 0x5a92bdd2db80cedU,
  0xa5ce2dc5dee5ece6U, 0x4ccc1fea20d63011U, 0x28aa01eeee11dbd0U, 0xde0dbce312db27f4U,
  0xfcf0f7511fdfb90dU, 0x2f90514eef30b3cU, 0xe71d381529f6c9eeU, 0x25e343260cb7ebf2U,
  0x2aec4219f424f894U, 0x641e03cafcf339dcU, 0xd4f509eeb5eeba0cU, 0xc7122c2308231852U,
  0x36fc2148d9e7f7d3U, 0xe9fd29f3140361f9U, 0xdade18e614072ef8U, 0x243530000d0e10efU,
  0xe018178d1decf5d3U, 0xf9ebe311000624b2U, 0xd152a907f3dbb2edU, 0xeaf505f817fd0c0bU,
  0xc90d194125f9d716U, 0xafbec2f47f846d2U, 0x3232ed1b2c0a012aU, 0xe0b17bce5a9c629U,
  0x290b06082824110bU, 0x4dbe3dff0cd25dfU, 0xf706ff07c8fba612U, 0xd7df010e34d5013aU,
  0xd41f0a25d8decfa0U, 0xc5b7284722b762d9U, 0xf31bedff14fedfeeU, 0xb22df2203112820U,
  0x207092f021c1ceaU, 0x1c1851dd17f615c4U, 0xd9e72c2a47190702U, 0xe21e11d7e1f5291cU,
  0x2818f40000c81a17U, 0x10905d8cce4e009U, 0xe2824aed8ac0521U, 0x4e914f155b0fdffU,
  0x391ac8f70648faeaU, 0xf7f0fc2e04300005U, 0xd1d010ff6b8f6d8U, 0x3ecfbe720142af1U,
  0xfdef2f15121f33e7U, 0xd0fa03f4edfdf7eaU, 0x1909cdf4ff261535U, 0xd7e5e1e5deddecdfU,
  0x4c21df5f411f101U, 0xaf509fe0bf22302U, 0xf3d72a09fd37f7fcU, 0xfd18e2080beecff3U,
  0xefc7f938160aece1U, 0x91711dbe507fa16U, 0xd62c2230f8ef29beU, 0x2b04fddcd212f90dU,
  0xf11acf02ec0fc1ddU, 0xe90e191820ff160aU, 0xf215fae815fe1cfaU, 0x4ea2223f302fb09U,
  0x1cd5c9e9da19fdf7U, 0xf33dd13de1ef0aecU, 0xed0df2f4feed09e9U, 0x41f91a0ce2fff1fdU,
  0xe2fbefc00728ee16U, 0xef9fe04560fbf1dU, 0x2e12f4ffdbc20fe2U, 0xd12bfa41e91cdd11U,
  0xd8ee04dff6d5dcd4U, 0x5fef21a39cef3edU, 0x57cdfb00080c2deaU, 0xf233db0efed4ea05U,
  0xc106ed031c010d01U, 0x25f2f337f9eb1438U, 0xd02ffaf0e9f7173aU, 0x161d0e4fbc33191bU,
  0x3612f40301ebf4f7U, 0xf124042b100de107U, 0x21f9161df01de1f4U, 0xf51b0b18ddfe0e1dU,
  0x2bfeed062efc0dfdU, 0xdcda040d813ddce0U, 0xec1bf1f6eefae4c4U, 0xe61609dffee710caU,
  0x32c9eaf23015e2f5U, 0xdadb1319f10514f0U, 0x915d6ab18e82ff5U, 0x14dffd003bd404fdU,
  0xde20ea122b03fa19U, 0x1b2105380ae5bb1dU, 0xf7f600e325d8e5fbU, 0xe73a2d0608cb00b4U,
  0xfce2363a18331710U, 0xf6ef0c4b21ea1d1dU, 0x601e4edfdbf120dU, 0xea180f0209da19U,
  0x9ff03ff1f071ff7U, 0x37132713f8221bd6U, 0xfd170ff803051221U, 0x1601fbe4ebf5e70eU,
  0xc024e9e31cee1306U, 0xf623f7f00521fef4U, 0xf0f4c3fde9d80802U, 0x2423100ef307eb0eU,
  0xe15064a5d15140dU, 0x521de9f0e5161c39U, 0xa11015a50e7f934U, 0xfec427221b2410f1U,
  0x857f22dd72efafdU, 0xf2182bc30d322741U, 0x33261030c90ccf23U, 0xc2f8f80c271cf6f3U,
  0x13010b0a272913ceU, 0x154bdcedf4d7e427U, 0xb1053ff1d825f53cU, 0x10bd2040faa729fbU,
  0xc54bf5a108cd0128U, 0x12f4223631f12f34U, 0xf3cdf20f2629f72eU, 0x2627e5f70adcea11U,
  0xef160cd2f0e6f8dfU, 0xc05c22f040adc0cU, 0x333404f9f3fc5524U, 0xf05550423eb01e5U,
  0xd734470bcef51cfcU, 0x28fef212b4e927daU, 0xdff3f2d8292703U, 0xa05e701dd0aff21U,
  0x1b030de02cf4ee10U, 0x130ffbab2caec94U, 0xe84dda1fb0deff56U, 0xfb22dfd0110fe8e6U,
  0x1815ede21f232618U, 0x140eeed6c2ce3bc3U, 0xf635ec2a3111f022U, 0xf822f7c2263c1e6cU,
  0xeaf8dcaea8ecd748U, 0x6ecd0efc7ca52f7U, 0x29dcd8f62d024027U, 0x9401fbecf016f8daU,
  0xc81b2c48291409edU, 0x1838f4e6cc01fd06U, 0xf162e7cbe25ad945U, 0xda6fac7bf1971d5U,
  0xdbccef12062c0ae2U, 0xcfe92618d3e9c902U, 0x2de9d7e00006aed4U, 0x324d5e04b2709bfU,
  0x4220280cfc03244cU, 0xd345040e0b0ece0eU, 0xeb1a5c01d0f0fba2U, 0xf7e7071d1a22e3e1U,
  0xfde8135fde3a3d01U, 0xe2eb110cc11ce220U, 0xef11f74c240aef02U, 0x32e42de8ead4fcecU,
  0xeeb092912c9cc29U, 0x2ffeb6fbfb11f610U, 0x147ed1f52609dac8U, 0xe8fa2ad91bdb2cd8U,
  0xd379dd511d9d5caU, 0x20d8f7100108ef05U, 0xf0d07093c080b0bU, 0xf1d13e0e6d3d50aU,
  0x283109d5d702ca23U, 0xcd99de510d36fc5fU, 0x10520e07f0b0617U, 0x1cddbf5a60cf7caU,
  0xbcaf8defaced411U, 0x30e67fa202d7b6U, 0x44c5f0524735d8fbU, 0x11f81b25ed043c0dU,
  0xf919db0cd6ee6311U, 0xff24e3181f00cf54U, 0xe445f42ff119091aU, 0x528dab61f100fcdU,
  0x16ff150aedfbc608U, 0xd93e030807fc190dU, 0xfac6efd8f8050d3aU, 0xf7c2f5befef123f7U,
  0x84cad1a11fed422U, 0x151d20b01fec1102U, 0x10cd0f3afcdda7beU, 0x9f2fb141f1fbd38U,
  0xdf0fe063d290132U, 0xefd91fd5440bfb09U, 0x1d073df6d4031d2eU, 0x2936ffea1f4ce2d4U,
  0xec0acbcc1b18f94cU, 0xee03c212e7301e1eU, 0x1bf4f72401f9f437U, 0x1e68d920e311470aU,
  0xb278eed603fdfd14U, 0x2ff91715d7e13905U, 0x14e5f5d79003b805U, 0x48f419caf8e6671eU,
  0x341fde5a0c155702U, 0x322efb4f1aba200eU, 0x1bfa0c180716d8f5U, 0x26cbf0defde5f642U,
  0x24260deb4313cd33U, 0x3cebef2a27d6bc02U, 0xef1ca8060ee343d1U, 0xcdfc2b1ffcbfe606U,
  0xd2fc30e50f0efd0dU, 0xda001c04e308c4f7U, 0xe8f339d61616f646U, 0xdb062818e808f8feU,
  0xc32e06fbf713ebf4U, 0x44e306000a5bf0e9U, 0xb16e30302cde00aU, 0xdc3e0c02d6e0442fU,
  0xf12ba8fd111ff000U, 0xde4d02f6db172ce3U, 0x17ef081a150ee6fdU, 0xf6fd21efbcd6f2e1U,
  0x1010cde024ec1e32U, 0xc6faf806e9150e1cU, 0xed1233f30113d20cU, 0xd6dd0f05d7deebe9U,
  0xc2e8f5e9282e2a0bU, 0xeae1f23f1719e2f2U, 0x111a461d11090d14U, 0xf9e6d54c171bf2f4U,
  0x4d63804eedce7d8U, 0xd1908f3e197f744U, 0x32e6c7eee4fd1241U, 0xf80cf45c10e30b04U,
  0x9c3066c13ecd12bU, 0x8fe0b2113cfd74cU, 0x15eeff51f30411d8U, 0x31280604029bffe2U,
  0xc4e1d5e72e420e2bU, 0xf2fdde1227f61bf6U, 0x26cefb10f8f0fbd7U, 0xd71ad738f9f630faU,
  0x17f01b170015efefU, 0x3008ca1a0b1e0dd1U, 0xafbe10251c05b80eU, 0xe6f404090836e503U,
  0x17171100df14e41dU, 0xd70502aad6d8410fU, 0x1614f02832ead9d6U, 0xfc3cf4c6e1ddfffcU,
  0xecb9dfe0e3f1ee1bU, 0x2604f442e5af0ef5U, 0x2322073a163f070dU, 0xd22b0704dd2e2907U,
  0x1ce9d40dd20dccf8U, 0xe3e5fb160cd8e121U, 0x2eee0e9e6f9381cU, 0xa0be8e119fb21dfU,
  0xfdceb00cf5edf6feU, 0x8012617d5dff4f3U, 0x19132df3e11afe05U, 0xf70ff810e4e6ed0cU,
  0x724e050051fddfaU, 0x4a380308fc1e227fU, 0xdc3f00fa3109e00aU, 0x1df506d4db040314U,
  0xe118efcb15311907U, 0xedd302f62f02091eU, 0xe4dcc4e7f9f2f7e4U, 0xf40234f3ebee20d9U,
  0xd90308022622d6d2U, 0x15f31dcdee28ea08U, 0x11fa11eabb04d2fbU, 0x152007ebf3e91605U,
  0xf7111c12eb1e05ccU, 0x3d0de841ed3efc53U, 0x4b23ea1a2021edc4U, 0xe8ee421c08cd2ef0U,
  0xebfefd05effe11e1U, 0x3feef9e9d51103dfU, 0x8b32425f1ff0bb2U, 0x2403d7f90c141e0fU,
  0x1319e7fbe2f411eeU, 0x171aef21f9e78ce5U, 0x1c1e25fdf40827dfU, 0xa45f631e123bf06U,
  0xe3f61de11d16d611U, 0x17e4fa00c711401bU, 0xcef1c81ae2fdd50eU, 0xfbff1202e8e103daU,
  0x102f4e9dfdcd9f3U, 0x1017f8d1f7d0fdf3U, 0xa125ccf8e3c0f018U, 0x62240cea2afc32c7U,
  0x34cc17092beeeb18U, 0xefdcf01619e402e4U, 0x36dbf5b8fe13dd01U, 0xf9e1fc3e411c1cd3U,
  0xf419fc0d12ebf916U, 0xe80ef8e0e0390209U, 0x2120b5ecdcee0a1bU, 0x1eeaeb1c1209e822U,
  0xeccef8dd17d4f7bcU, 0x93ddddf2e121f401U, 0x90114030427de17U, 0x27f54b131022ebfcU,
  0xedcf07d5fcec182cU, 0x2126fe0efa2dfeb0U, 0x123d16eafefa180fU, 0xdff50642d6dcab09U,
  0xd5e608fe5bd0ad25U, 0xeb41090ff7fe0bfbU, 0xec013454f7f81efeU, 0x10abf601cd534f6U,
  0xe25fa19d331daa9U, 0xe1bf01c232c1305U, 0x1bc7112cca2cfd2aU, 0xfafc38f0560d06dfU,
  0xf9a81313c4c11026U, 0xddf5243f0bc8f800U, 0x22f9cde20808c50dU, 0x13134116b22cfe0fU,
  0xc7e8d0102a110ff2U, 0xfe08f89a051109e2U, 0x1414d2f2f0d3d7dcU, 0xf1b0a0f3dc5f82bU,
  0xbf11e1bc723f0a19U, 0xd7d2feddd3fe40f6U, 0x4dd01def1ddfdc7U, 0x1e233be811d702feU,
  0x2703bb14cb3fd612U, 0xeff7c9d6ebf4cd0dU, 0xfe37c0d4e61df1e5U, 0xe3d4fb01e73e25f3U,
  0x1c17203b40cde21fU, 0x440de13e06d1eb3fU, 0xe81649fa0617eaecU, 0x230dc3241b19ee0eU,
  0x1de42eec022a1de5U, 0x2c04e0f45e9f3203U, 0xd439ff091d1c0e00U, 0x30b0ec5e0aae4dbU,
  0xf7e606e4c00bbbU, 0x21040901baf9d604U, 0x8eecd0b24df6911U, 0xef07cf3234f61b26U,
  0x3b20c6d5e1081740U, 0xff4ae939a2d5f119U, 0xd2fafe1812171d2dU, 0x45163b1bf50011f4U,
  0xebfbd12c19270d1aU, 0x45ef2cd41fd73903U, 0xfcec0d22f8de1f2aU, 0x1d1df7ec27e015a7U,
  0xea032a4e01070bf5U, 0x1b083217f9f70f10U, 0xbb8f28f8fff83ed8U, 0x1c14532ff942dda8U,
  0x10ddf52d2f0c3011U, 0xcffc381a1c811817U, 0xcfaff96efae9f814U, 0x1e070906350133ddU,
  0xedf16f205f9094cU, 0xf721cd2507490409U, 0xece336f72ff02e39U, 0x28013ddbd6290d5cU,
  0xeed26928ed26ec14U, 0x23f91a0f03d8241bU, 0xebde32ee1fe7dee0U, 0xbafdd4b90b300e08U,
  0xfb291d27fa381c01U, 0xfa00c2f248f7de27U, 0xebf8f709f904ecefU, 0xee24fc04453ffe12U,
  0xebfed31ae503b3fbU, 0xf5fd1d0ae31d40f3U, 0xd2f4b1054cfc1ff4U, 0x2ae3eeffb225fcddU,
  0x58202bdcf50efff5U, 0xfacb2a1af0fc18f4U, 0x2df11705dfe6d72aU, 0xb35d5e1ed1e1d02U,
  0xf6e1f2dff7ec41eeU, 0xc819b9fd211043eeU, 0xcff5f02839d6c715U, 0x39b8fce29fdf08d9U,
  0xdc2afc16e7bc0bebU, 0xe4f84706ed1ce1e6U, 0xfd08df1d03a5d1e8U, 0xcabaf9c9e5c1ea04U,
  0xbfee1418081bf8fcU, 0xd266f4f209ec1532U, 0xfdef7c6c106f7f3U, 0x363cc409f0610dccU,
  0x2f2dfdf30afdfaedU, 0x31fe1bfcdcf3eef6U, 0x24202ac0f82902ffU, 0xafe8eefb2a34e84eU,
  0xf6d8f1edc6fd04f4U, 0x7b20d80d06e586fdU, 0xf1d61204b4e81915U, 0xf082c1b5120f7f3U,
  0x56ed1bb2d90814ccU, 0x11e4c05934264646U, 0xfef91a29f069fdfcU, 0xee12332bed9c2e20U,
  0x3636e0f1ede629d4U, 0x30911cb28f4f5e8U, 0xf409d61322df2ffaU, 0xe2e51dd00b0dc3d9U,
  0xfdf304ffe1e804d5U, 0x21fa182b0ee16f51U, 0x4ad7ef81241c0f56U, 0xccf1f315e53beefbU,
  0xfd2629d11809d1f1U, 0xf8ed1a0aef0d8d09U, 0xe14530ede037e900U, 0x1377fed22b47e8e9U,
  0xf301fdf501d61f1aU, 0xd5ed120ce804a8f3U, 0x16df01df0e12ebeeU, 0x2304e2d2d4125d00U,
  0x6e4e5d81ccdf6f2U, 0xde0d08dfff0dd7ffU, 0x10c1f241dcfb07fdU, 0xc2f01b3129e4dfd4U,
  0xb44df271ad9eef1U, 0x2e070c2c1deddcdaU, 0xc6de2f0e03ef0c08U, 0xeff62cd9e70a071eU,
  0xdaf30cccb41c0af6U, 0xf1d93723b3f64145U, 0xffb32fff04e9c0abU, 0xe120b517c2e3f3U,
  0xfc48f6b105021720U, 0x93eef53026fe5906U, 0x9620e443f60c27e2U, 0xddc43914e3ed12faU,
  0xeade04051e22cf2cU, 0x12ed48170102b0c2U, 0xc52118faf6e4ece7U, 0x13fffe211512d003U,
  0x9fe001bc7ee1523U, 0xe7f5bce3da15d010U, 0xf8ee1b0afcf8d90fU, 0x250405112841280dU,
  0xc5d406393512dc2aU, 0xdd1bf1fb56e130d6U, 0xead62108320f6605U, 0x47e8074e07d149aaU,
  0xf600351e0a1aee1fU, 0x3603fd03e70b1906U, 0xde29cee5d5faf8e9U, 0x1804ecf7cdff06d7U,
  0xe018f4220637210bU, 0x13110d1eb01242c9U, 0x828e8f446e9ddd2U, 0xf83c440bfff72015U,
  0x40e202fc6001f63bU, 0xbcdde7bc74dd07efU, 0xf4bdcd1309deefefU, 0xff05f12ffdda150cU,
  0x15d0defb0e33dedaU, 0xeee8f13a0bf61828U, 0x25e4aec5b8d2fcfdU, 0x1cf21a15db17f10bU,
  0x20ffe40be6f90ebfU, 0x162729bebfdc21fcU, 0xe41d3202e8fe22f7U, 0x23bf3e1200040bdbU,
  0x35fe111ae62418c6U, 0x180d00b74a2310ffU, 0xcaead1332b14eeffU, 0xdf531f0bd00041eeU,
  0xbcf0c0a303a0b14U, 0xf2f5e2dc33ac02ccU, 0xccfed21b02f0e3U, 0xfa05fb162707e029U,
  0xf7fc02bdcef9dc33U, 0x150ef61cd9deed26U, 0x242808f825fe1a28U, 0xfdff041bf67435f3U,
  0x18f1f720d30c020fU, 0xfa2605e3d3f7ed05U, 0xee08dc4d2506f1f1U, 0xe2010afe7f18f824U,
  0xe60f3619cb12e62fU, 0xdb5209ff0c1bf215U, 0x442ac7dc142bcf25U, 0x2b02cd04123743fcU,
  0xc610281b04f417e3U, 0x4c2657af4006eeceU, 0xefe8e32e0bba26f7U, 0x2f8fcfd35d2bdf4U,
  0xebcf16aff5db06f5U, 0x390419243c166322U, 0x171c11ff1e062fdcU, 0x1402f520f32ae7f3U,
  0x15c0113a15fcec35U, 0x186026a921e13ffdU, 0x2e39defd07f3181dU, 0xd6eeb0e806dfefa5U,
  0xd31fd0c5f2f19ecaU, 0xd2d1214cf52dee2U, 0xf619e2fd0b1ef1f9U, 0x240e0c5bca50da02U,
  0x38f0a304ce12cffaU, 0xe0f82b1bedcc1203U, 0xfc1125319822fe14U, 0x1bef0f2bf1f2f7e4U,
  0xde46db0210e409e0U, 0x91ffdde41111604U, 0xffec1cfbd3081b57U, 0x1a15114a032400c2U,
  0xd8b06e018ed00efbU, 0xd7f4f2c9111127ecU, 0x20112f153405e723U, 0x2bee11e1e93225feU,
  0xf8ee0804f4fbf3e7U, 0x30f70d1e0a19cf38U, 0xc70a36090be724f8U, 0x2f4f9a034593bdbU,
  0x111fdfe0292fd5f6U, 0x20dcdf8c0e4d02d6U, 0xc31ec4dcf73dd9f5U, 0xe81a17dc0c1e0f39U,
  0x141ceed6f9bcf1ddU, 0xdbddf02e08d709caU, 0x2b14f0e747e723f3U, 0x1c17d9e94015171cU,
  0xd1fc60725ed5504U, 0xeff0cdef1cebede7U, 0xb54ae5e8004be00bU, 0x9cf8d6e3fbbe291eU,
  0xc21be8e8fd0bf10dU, 0xf3e2f2dcdefd16dbU, 0xc9f2fc0b0cf02999U, 0x2e16f5a504fee4deU,
  0x48da2a01000202e3U, 0xf3be491a3cd40018U, 0x2108321e13d8071aU, 0x28f50442192b19ddU,
  0x351ffc082320c5d5U, 0x18139f7fda27ec58U, 0x1806070b04c1dbfdU, 0xe5e2f70fefa8c8b7U,
  0xcd2c15e4ffc1f14eU, 0xc225f13811cce6edU, 0x198b010821091325U, 0x10ff0ff12daf5f7U,
  0xf40f3a2708eb1104U, 0x12fcf1fb0104062fU, 0xdf81ff8aa3905e4U, 0xdf30fe25db09d8c7U,
  0x5452a60c3085811U, 0xfdedfacce8b4b4e6U, 0xc620ee0567c3edcfU, 0xee071b1411100ca9U,
  0xda371e24f63b1437U, 0x3705e1e86603d2e7U, 0x11e9eaf1e0201ab5U, 0x2ffc02f9233f23e0U,
  0xf73c6022d716f5bfU, 0xd31bf00cee18eb1aU, 0xbb1035dee9f8b709U, 0x2639dcc60ceee721U,
  0xb1307452f56e52bU, 0x1863feaffdf8f8f0U, 0x5b11c60ce1022edaU, 0xe5c7e3d2ca0028d4U,
  0x27076408f5080beeU, 0x112822010ce42f16U, 0xb8f7f6c6eb0b0c1eU, 0x37be1942164753f2U,
  0x55290710f516c4e1U, 0x1f1e0e04be3c20dfU, 0x1d4ae837dd2ad4f8U, 0x5c3f92953f32035U,
  0x4809d20910de16beU, 0xfe25e5f73ffeddb1U, 0xedefde1b16cdff30U, 0xf18540bdd461c35U,
  0x33e916f83702cad3U, 0x33e5150df510b24aU, 0x37e61019fcf64bdfU, 0xe3e23b103a2cf0e0U,
  0xf9f1db890ad255d5U, 0x3d26f9b202d20108U, 0xf8cdd6f7e3fcbde5U, 0x1549fcfb0c173411U,
  0xf11ef0cf12081af8U, 0x130e2e645cdb1e62U, 0x3109fd0d21ff10e2U, 0xd463e1e81629f92fU,
  0xf6c037cef0e4261aU, 0xc9d60aef04183cd3U, 0xf5ebf7c821d41208U, 0x91200dfc19471d38U,
  0x2d1cd715c30cf754U, 0x37fbe445e2fef2U, 0xfc0a27cec8fce2c3U, 0x10dfed292036120eU,
  0x291e02e7fffa121bU, 0xc42f5bfa270817e3U, 0xe81a2214e004f80cU, 0xc5f7ea78e050d4baU,
  0xfbf845d2dc55ee21U, 0xebff09ef0f280c12U, 0xf13c11da0110da11U, 0xefedc41ad7ccff31U,
  0xd10f1a9e8221520U, 0x2c5ea0bfa0b035bU, 0x18270abd22360628U, 0xb9ecd5f50c3b22a2U,
  0xecde24e2fedb8178U, 0x846c1444b18d220U, 0x1bb4eb0c30e35ef8U, 0x1312ede11d08da1dU,
  0xfdfcf51e6224f3f8U, 0x22eff60702d5fcb5U, 0x25fdd30c6141ec60U, 0xeaef010a08c210cfU,
  0x210be2ed510b0fb0U, 0xdaf3e30238be0609U, 0x3b2fdeefd6fb0968U, 0xc22e5db5203d5U,
  0x14dccf32e514cf08U, 0xd3ed4c2ae5fffa31U, 0xc2a716050d0efdf6U, 0x34f30fcbe5f110e6U,
  0xf3f5110a33bad702U, 0x7f090f2d1510f21eU, 0xdc1de9c403bfe910U, 0x2b00ea341b19f7f7U,
  0x170df412f61c040cU, 0xe3ce25cf0327f509U, 0x3afbe43e240024faU, 0xee5eee6fd36cbf7U,
  0xddd5cfd6001ffb04U, 0x340f3d0335f9ef22U, 0x3708fbedf2e255f8U, 0xf4e7da2927050027U,
  0xcd4bc9f01d1fd450U, 0xdce813fb21ccfffaU, 0x9ce64134e10a37ffU, 0x607e3c112f1f5ffU,
  0x4d0efb25eef525edU, 0x1a0900fed5fbf515U, 0xd3040aa4f5f7eadaU, 0x371a042cf333f8d7U,
  0x1cc4e5d5dec30806U, 0x3731ef8f1615ad3U, 0x5e5e0cffa030705U, 0xacfe509efeb2f0dU,
  0xf722010126e8dbc0U, 0x14ec2812d8edd11fU, 0x1a05c1d5f103ec0dU, 0x3b15f705e30df9e8U,
  0xcedf5c8e7eafefeU, 0x18b51c081df43ff1U, 0xd5111a14fc01d7b2U, 0x290927140f43e50dU,
  0xedbcdf217e91f42U, 0xe60c11ee12fdb9daU, 0x7d3dc3c01d0f439U, 0x1c27150c28f1140bU,
  0x43fedab20f0af3aaU, 0x100f1a271bf4d8feU, 0x1e17f70f22f11320U, 0xc2f3eb980c18fe38U,
  0x1fff3f04d7f4dae3U, 0x33e1bee1fcbfea09U, 0xd0d50a0a29f118ffU, 0xd0fbea0d01daec0fU,
  0xd6fa130d1b16f3d1U, 0xe30210e80f070502U, 0xd5f10de4de05e5eaU, 0xf2d71024e1f530fcU,
  0x2125f8320b02ec16U, 0x5f217150706021fU, 0xe84af51d103ed7e8U, 0xe8f435f830e0180dU,
  0xf719ffe120fae3f6U, 0xfef622f518f02bfdU, 0xf0f715e4e310fe18U, 0xd140b09e125e165U,
  0x2f342932e7a5e825U, 0xfbfa1d1e7f0a021bU, 0x1d3fbdd000cdbe5U, 0x4d719ea0a44d6U,
  0xda0038f41ef91d06U, 0xf9cfeb1efecd102aU, 0x22f62eeefa2123d5U, 0x3d21ba233132223U,
  0x130de505db11081fU, 0xcf4f5d9f0fefc25U, 0x9ecffe41529fdb4U, 0xd3f10bfa82dee412U,
  0x2b06fc0c473f17U, 0xd1cae802071be0f7U, 0xf002de02bfc0eafdU, 0x3812d40337dcdbf9U,
  0xfbd1e2e32e322bcfU, 0xeef1f23fd710f7e2U, 0x18112923f22620e6U, 0xc8400de5c4f5fb08U,
  0xbcf1f61b1a201fe1U, 0x1d11fdf1f11d162bU, 0xe30c09fd1b2d2739U, 0x1ae83ce314f60024U,
  0xf4fe0fef321b19fcU, 0x1f080619f7fa48fcU, 0xdb1de0ebcbfafa11U, 0x4df2f6440f1bfa0dU,
  0x91e427df12b003f3U, 0xaef5ce1115efd8e5U, 0x3af41c002703c7dcU, 0x1bf4d2fc18c8feb8U,
  0x7e9e9dabe31060eU, 0xebf633f314dd0f23U, 0xef3c0cd3f51d05d5U, 0xd3e8c7eedaeff208U,
  0x9def80e18e7d8f4U, 0x50051a172518c807U, 0xe9d5ff2afc0edc9cU, 0xe702dafbcfba292dU,
  0x3bfd10ee0bfa05c6U, 0xae4e9a7e4c7fe08U, 0x45ccf908fc2a11aaU, 0x1cfa11e9ac193be2U,
  0x160af90e3831ebf8U, 0xfed06f94ebde40fU, 0xffe4d8e9d8f50d1bU, 0xd122dfe6044805d6U,
  0x1608e00db936ea1bU, 0xdd00020b1315dd35U, 0x3a1b01eef5e2e3deU, 0xf0f0a6f616fa49faU,
  0xd20ddc1f421df1e4U, 0x5d9e607cd254813U, 0x1ab4f9d02850e1f4U, 0xec15ed17ef0d91efU,
  0xf226011cfff7ed9dU, 0xf034e619fe0bcde0U, 0xe3c012100cf30d2dU, 0xfbf6d609b8e407caU,
  0xdae945e9ff09f4ebU, 0xe3fbd52524464219U, 0x190a2602cd03d6cbU, 0x37f0ac1442011e04U,
  0xf1194bd302bc1632U, 0x1a31cc2f1702de08U, 0x475dbf1124fbdac2U, 0xfc0d35e7c6f6ebdfU,
  0x1b366ceef7e4b7ffU, 0xed08d0fe480beee6U, 0x12fe15f4f7f70718U, 0xeadb06be24cfd314U,
  0xce23fd002c4dfe38U, 0xd7fc100bd8756a0fU, 0xe2ede0f6f8cdf3d8U, 0xcff60e190345b244U,
  0xe7f837302848fad9U, 0xc01de7e0f4f3e720U, 0x2cddfc0001c129ffU, 0x8f7d1c8f03ddeefU,
  0xcd1df3fc1006bd3aU, 0xef1823051305ea12U, 0xe90914a4e9c5ea2bU, 0x16000cc9f925d864U,
  0xdf1c3e090d0a38d2U, 0xf8ceec42fe2a030dU, 0xcdd614e3f5c8d6eaU, 0xdfdbc11214d7dbe3U,
  0xe234f32720ede407U, 0xfd18f8ee2cebfdddU, 0xad0216e00313f6U, 0xfe4714fa0aed28fcU,
  0xf5daf4072bd31cd2U, 0xced8efdfd1f2a5fdU, 0xf9c2e53cff0ddffeU, 0xdef82b47ede41250U,
  0xd5fed2ff2afcbc53U, 0xcaa91005fa28eb27U, 0xe8251debe2fcd37fU, 0x94eaef044114f7d6U,
  0x3a24f8ece1d2081aU, 0xfd0c39070928bd3bU, 0x1f50af8ed4a0025U, 0xf9110013f2242701U,
  0x4f92139e81ae81aU, 0xb7dde3080623dd0cU, 0xafe10430b0421d7U, 0xe31a4aeb0a1d0501U,
  0x1defe6f2f401001aU, 0x142dd7e11fd5110dU, 0x5c626354b0bf256U, 0xf7d7d8cd0834233cU,
  0xf3ec1adf24e9d200U, 0xd6b1036a090923deU, 0x1cfa1218f2f8f8f8U, 0xfc210b530d4830e8U,
  0x8b02e3000b00e0c1U, 0x7d7ece85128e6bfU, 0xb260080adb0eda32U, 0xdea2316ebe3c2eeU,
  0xe7fe1e2c14afd535U, 0xed2af6ea48cde51aU, 0xfd30ddd3e42508eaU, 0xad665b4b0e101effU,
  0xf9f7c4e300f9060eU, 0xf136f7ba1d190b0aU, 0x33f00fde160b27eeU, 0x2827e6f3c821af21U,
  0xdd1c12f7fadefdeaU, 0xe2ed0e6b1d06fbe5U, 0xccf1dbdfced4fdb6U, 0x1918f113bd14e5ceU,
  0xf2a41713f83bd4c2U, 0xf8dcee66e130f627U, 0x3451080afe1b6754U, 0x361bfed2ecadef12U,
  0x31b1b24521e4cfbU, 0xfd65ec2f1e12fd25U, 0xbc012fac4e2f54fU, 0xeb75d01d32fec0f1U,
  0x4febc8ecfeffe1f4U, 0x1ee34ee1f14f7ddU, 0xccccdb3b2419f21dU, 0x25fbe23ef925d8e6U,
  0x14f2d8ed221f06e4U, 0xede7dfefe40d53dfU, 0x1d02c513f613066bU, 0xf0d00dc10717e305U,
  0xdc050bfe0e810414U, 0xf9f69331370ced3eU, 0x271b37090dda260bU, 0x1ffe1fda260604f9U,
  0x2eb183d02fccff3U, 0x20d2f81b00fa1c31U, 0xfdbf250f09d9fa2dU, 0xe2f917ec2f510911U,
  0xef516e1ef07dec5U, 0xca19ee1e1ffa3b00U, 0x55d4e1f501e7101bU, 0xdd09fc3af02ee8d6U,
  0xffd817f8fce3ee63U, 0xfb111239cef8d53eU, 0x15c4f821321c0811U, 0x52f6100d94fd10d6U,
  0x3416ddecf1fc3308U, 0xd12cea13c5b018e3U, 0xf605392aed1be7e1U, 0xffd7efb0f64a2207U,
  0x25f4eb020bd013bdU, 0x412beeda7edff04U, 0xb2ea20f0ec3003ffU, 0xf2cde1dd0706f6f8U,
  0x31af2f3719291c39U, 0xe413240123ed1e01U, 0x2afe1d39da2d2350U, 0x2917302804141b10U,
  0xfd15e9cec818df17U, 0xd8f6ed01ab38d766U, 0x174bd00f02e63befU, 0x26e50b32e3e61335U,
  0x31fe15f123daec04U, 0x44333ba4faf7e918U, 0xe7d8dcf8f712a91aU, 0xf6fa06270ae33e13U,
  0x2004f10fea29261fU, 0xaef7071a2ee5090fU, 0x1b1e121ccfdb0403U, 0xf5a50839e3b9040aU,
  0xf11517e158be4dd6U, 0xcdf3efccfe654507U, 0xa80f28f8e92feccaU, 0x261636f7b6f5e1ddU,
  0x1526d0faeeee173dU, 0xd6d91be7d7f6fae8U, 0x1f8e92e2dadf7a6U, 0x1033e80cf6fbfde0U,
  0x9f4ec6228eee6e3U, 0xe0bc08582bc1ed03U, 0x46e2d0fbcf13f4f4U, 0x1500de0f3322f6c6U,
  0xfac6f20c35350cdfU, 0xc4f52110db120b18U, 0x1bdde0ee66190727U, 0xf93724fe0628ee2dU,
  0xe407040239ea0c4aU, 0xf9e41ab6fbeb010fU, 0x31231bc80fdcc44bU, 0xb409e2ef1830b6e4U,
  0x11581ce00d3bfe10U, 0xfebffde2d5bf33ffU, 0x140335fab9d2e91aU, 0x44e80eea1ccbef22U,
  0xd138de0305dbfb22U, 0xc5f4febd8f727f9U, 0x11d22e5e7ff1e0aU, 0xee1ce8effbea224dU,
  0xdc40d4003feaf0f4U, 0x14021e1801f0f021U, 0xf406eef303faccf4U, 0x17cee301e92bc60dU,
  0xfb34eaf00421d318U, 0xf4ff16f12f0ae9e0U, 0xfd2d0820290b1418U, 0xd200fdeae4f404cbU,
  0xf905efefd0c21ec1U, 0xef12cb061bdef7ceU, 0x900eaa6c610f5e2U, 0x24dc0fedd819de50U,
  0xe71fda023907f55aU, 0x252c27e91fd2e21cU, 0x1d0d1f17fbe9f7ecU, 0xa6064038330ef104U,
  0x14271a1ce9c1eb57U, 0xe6f9fa1ff10500ecU, 0x1001f80919091accU, 0x1c030be623f346f9U,
  0xfcb19e01401f017U, 0x1e3fad4fa06202fU, 0xdc1e3113dde1ff09U, 0xd92ffc10f9c30f29U,
  0x2a06213ee9d6ffd9U, 0xdbb7cc0209ec3ee1U, 0xe1ac2f505c6520eU, 0x81108eed510e80fU,
  0xd4fc0bece91a13f3U, 0x516112303f9ffe7U, 0xe0fc3302cd270be0U, 0xb9e8f8191a2233deU,
  0x1508251a0d3d1c08U, 0xe81aeb030832fb1dU, 0xe810cf181bfacfe3U, 0xf6091bf5f67fc81bU,
  0x124f1cee07ffe8fdU, 0xeaeff2ade7fd0d05U, 0x3e91c0efa24dd08U, 0x15013d1b26e7edd5U,
  0xf6e0f5dfec04e432U, 0xfe0d1b22102b1b10U, 0x4a1e1e3a2f1326e8U, 0xe2f94ac3e1ef05d4U,
  0xf01bd71dedf9fe0cU, 0x828e2decbc8f116U, 0x28fdd1fbbdf13e01U, 0xf627e90307c9cdffU,
  0xc0d11c29163dc8e2U, 0x8ccda280b00f3f0U, 0xf8c4dfdb0fcf02feU, 0xffa118f9f3e4b13bU,
  0xaf310e11ddf32a00U, 0xf9fcfde2fe00440bU, 0xf71d0eeddb06d9fcU, 0x142d40020afd3e0aU,
  0xf4c20728002b0035U, 0xf5f2ba2f49101aebU, 0xf0372700f4013de8U, 0x4f9b1d1b19202cbcU,
  0xeef227e4e1f1f422U, 0x1c1dbccdf9fb3df1U, 0xbd600cbea1fde1cU, 0x40f6fa1dcdaa2804U,
  0x17f4e0050013f5f5U, 0xc36dcf414f61446U, 0xf205fcf7e6ce3716U, 0x1813070f23dad5U,
  0x59c637ee31d1ddefU, 0xd5421fd7ff22ead1U, 0xedfd0320260000bfU, 0xd70bd936e7cde70dU,
  0xdccff80cddb70b1bU, 0x20bfded23e7de25U, 0x27d1fafe7f0814a8U, 0x12edf2fe22f4e303U,
  0x2a25f6e9ca0f2826U, 0xb2ee24f793172be2U, 0x1bf90feb0b06f5aeU, 0xf6b7a7ba080bb0b0U,
  0xebe7eac6f0f913dbU, 0x4fb2e233539481fU, 0x110fff1406e10efbU, 0x3ad4fcce31d704eeU,
  0xe3eaddd31c060df1U, 0xf8e10d36f021fff9U, 0x1da0b3a39430fU, 0x30fe3090118061dU,
  0x1c0c2217ac201ad8U, 0xfa02f2c6f606dcecU, 0xeef6092efa042715U, 0x52daeeec2c24e214U,
  0xefd7fe2018281611U, 0x59c30ebfe015efb9U, 0xe3fe0ce107f60327U, 0x12d8dddf00d813e8U,
  0xfac8f6f224c5b6f4U, 0xe72512debc1a0d1eU, 0xf3e5b7ea220c0420U, 0x32df2a0d10c3a0e6U,
  0x24d72536eafbdb1eU, 0xb90c211f120ce40bU, 0xe724e6101af300deU, 0xe120c42ce8032b22U,
  0x4ebe5eaecd2f0d5U, 0xe4d9001a14fe1ad7U, 0x40f6090bd111011cU, 0x1dec181a11fbd2f3U,
  0x11cc39cb0f1a44e3U, 0xe6fa1c162e31b7feU, 0xffc9f0fad8faee0cU, 0x161a21e0f3ac08deU,
  0xf2727eef2faf9ffU, 0x1538fbdf13c0c2f5U, 0xf3e8eed3ddd9f3e6U, 0x131708260e05d519U,
  0xf51a38dd0e3011f8U, 0x2a0a10f91cba1707U, 0xd0d50b0b29f005f7U, 0xf9c829100a10d721U,
  0xcf1fe114ff024bd7U, 0x15ef0cbc1ad60e37U, 0x55f03510f0da13ffU, 0xedeadcde27222ef0U,
  0xf8f536140609f2ebU, 0x14110021010c03e0U, 0x17e0d9f5e4e0eceaU, 0x31e4bcea2b40173cU,
  0x48f6e3c8e015d8f3U, 0x17ea10fb81fc4bf8U, 0x172de4521e53c0f5U, 0xa06a843ef3ff623U,
  0xff8dc2cf031051fU, 0x1af124d232f00011U, 0xefeac6ff011107d2U, 0xdcddd2f5fec6f1c4U,
  0xefebee28fdf1f7ddU, 0x11f80613ea09f7f9U, 0xfb06c3d2d420f6d8U, 0xb240cd4ed0b0a27U,
  0x46ee180df6e4fe03U, 0x100a0fd3f1fa1a1fU, 0xfd0c0f1aef1107fbU, 0xd32dd90b1e0ff700U,
  0x30fdec07f7f101f0U, 0x261c12eaf23b2aefU, 0xafa1607110bd718U, 0xdc326404eae7fb13U,
  0x333ef106e323170fU, 0x30ed15084bc600b1U, 0xebc0d5d30d0df8d1U, 0xefe808eefc36e8ddU,
  0x9fefd07f705a2f7U, 0x25d7c6c70a472de6U, 0xc44b5f90dd7f4fbU, 0xee28e817d2f50ee0U,
  0xfb3bf6f2fe1b22ddU, 0xf8f4ebfaf918cfd8U, 0xeca1114cf1c34f9U, 0x40fa2646e6f60c0aU,
  0xd7051a13f0d80ce6U, 0xf93fee0f06b6f31cU, 0x54227f025d046e2U, 0x261e1327b0d21af2U,
  0x161af834f2e5befdU, 0x1b2922e830f50906U, 0xe900f43125ea14f6U, 0x2ceff3163f192aeaU,
  0xe606e511e41801faU, 0x2ecdec05f826eaf8U, 0x1fd21deaeef403dfU, 0x35faf81521e31221U,
  0xfdec2455262bd0e9U, 0xb01ecdebab82d10U, 0x3839d9db32fc0f2bU, 0xda110d2f05c91818U,
  0x25e6b9e01918f6e3U, 0xff161bffe80de136U, 0x199b3407fc2b1fefU, 0xf114e7f5fd0a18eeU,
  0xb1dd06f81eec32e8U, 0x1fef3ce11bff4d5U, 0x3f08f013d50414dbU, 0xf6e5f919dfc92124U,
  0xebfa991407d262f3U, 0xf7f20aea2d00d10dU, 0x2fcf601190ad617U, 0x25de58eb14df2310U,
  0xf725c2ec0efefaf7U, 0xe600ed1810eb01ecU, 0x9f53705fc1be93dU, 0xd6e515f126fefcf1U,
  0x1bf5eb0b24e0efe6U, 0xf5f20a0d10fe1730U, 0xe904e1ca4d451accU, 0xde06384302b11ef4U,
  0x391ddff4db05381eU, 0xfc6eb54111c2acdU, 0x1c573d11161c05fdU, 0xfbea111862fd061aU,
  0xfe481cf9f6df071eU, 0xb6f6ca271312e106U, 0xadf0f2cd0b2425fbU, 0xff09eb0605010ffbU,
  0xfd3301d011213b11U, 0x2af4d013004241d0U, 0x7f007bed1282003U, 0x38fd31e1dc1c39deU,
  0xfc1714fa1f2f0535U, 0x30a82a12d1272a3aU, 0x4f2e4090b04f3d9U, 0x821130add42e30aU,
  0x28f1fee1d1160de2U, 0xfd0ec025e929e5fbU, 0xd631181fedf7f0e7U, 0xf501f651c0cb03e6U,
  0xcddfd2e0e81a03f7U, 0x1e80af0c5fc0153U, 0x1ae410de0d043afeU, 0x1c3eefdcf2239daU,
  0x20f40dc91df112f2U, 0x223f236df0c0b05U, 0xe5f419eafff24d0dU, 0xfdf00bf4f8313bf1U,
  0x2ecbf204d9dad60cU, 0xe7b9ed0044f22642U, 0x1c0fd83106ecfbe2U, 0x215284adfdbf80aU,
  0xcf0418e008feb710U, 0x16e6dcfaf4f71ef0U, 0x12de0706be1ae47fU, 0xf6f9e13925cd20b9U,
  0xfe12cac7f0bcf6d4U, 0x17f3d3d71cd20b15U, 0xff1b27efcddb25fcU, 0xd422f540fdf02af4U,
  0xfadbd5dd1119d3dfU, 0x261ef73dd3252ef4U, 0x6071a3cd4f6fb1cU, 0x1336c905cbed2be7U,
  0x2f0130b043f3108U, 0x29340ffef7d5001cU, 0xed3430fc0e0efcU, 0xe1fd276bf53f1ef4U,
  0xecebb45febf50adeU, 0x2aebdaa209f7031cU, 0xdd8263ce20c3d1dU, 0x243261ffc3091701U,
  0x1dcc160014cfebefU, 0xce52d8e79ae80ae9U, 0x18fddce708f112e6U, 0xebf114f93d194032U,
  0xd9c0f30918e3bb14U, 0x202b09dd05e03ce8U, 0xf50b310cfdd601d3U, 0xe2e4d52a180cd8fdU,
  0x2ae903fefb2110ccU, 0x2429052646cb3902U, 0x15f1c627e40411e3U, 0xf5d934b0e52b571eU,
  0x61e91e01007002d9U, 0x16e1f7f5d0fc0fefU, 0x3723f5f11507f0f2U, 0xf0dd0501fa33ea2fU,
  0xb5d92800e7ed0a10U, 0xffe42928ed403cf3U, 0xf90433eded0c0ce4U, 0x1e36f513bac6157fU,
  0x1fbfe1601e010e8U, 0xe82ae1c4ec522fd9U, 0x8ead0eafb242009U, 0xf400d9b3eef7ea3fU,
  0x17102cd8f6f1f4b8U, 0xef091ff11b0602d8U, 0xecc30bf20aea00d0U, 0x181bedda2afd24ebU,
  0xe00e3df5fdf33bf4U, 0xfd74b34f5b32727U, 0xeafd1bda05d0fe05U, 0x282043c5ed00d1efU,
  0xe31d3a11d3cce030U, 0xebd256b3af4fecd4U, 0x170af6c9e5180eadU, 0x4ce3d91811301bU,
  0x34f0ecec17e513e1U, 0xdb03e93dca57e923U, 0x1c1e21eae73bf708U, 0xd6e910f38d2ec7e1U,
  0xfe2eefc42de41c37U, 0xf2e4de0c3ce5ec31U, 0x3be8e750cfad0805U, 0x10d7ffed41aa0cf4U,
  0x4905dd04e625d2e7U, 0x3f7c022ffd7f1b1U, 0x3fd00e44df5e4f6U, 0x310024d9d31efa2fU,
  0x141cc2f9ccfbecc1U, 0xf0fcfebce8fee6U, 0x3fd6ee1a1d16050bU, 0x19ff1809d9ff14faU,
  0x2af4fd44da200af8U, 0xf6d308e10edc1bf9U, 0xf3e416030102df1bU, 0xffde9bcf51508dcU,
  0xe8270df0dadfff1fU, 0x1d008e201fa082bU, 0x23f012e204f70a13U, 0xdf00ee071ad80b00U,
  0x9f4d1e4fc17e902U, 0x1dfaf2e4f81b27fdU, 0x262eed04dfd2e61dU, 0x16db0108182b1716U,
  0xf3bfec340a0ef209U, 0x1e5a422cc170100U, 0x180bed07eccf42f5U, 0x1edfdaf9b3fb02f1U,
  0xadcef17dadfd3a4U, 0x153ac936f0fd1c44U, 0xaf85e000b0cea35U, 0xe40df8f605f2dd1dU,
  0xd006fae7f21006f2U, 0x15f0b0507022709U, 0xc32f7e5e02c0809U, 0xf2cf0509185816cbU,
  0x2ebde523f2f21d6U, 0x3cb35170cf4072cU, 0x200747ec04fa0ae8U, 0xfae0100ae5f7fe9eU,
  0x2ffce9c4fdee2b1fU, 0xe4ceea1e0e01de3eU, 0x1327f2721d91edaU, 0x20f9134cc6dfed2bU,
  0xea052afe05ffe5beU, 0xdbe8fa4de62efcf2U, 0x2b0b1cff041eddfdU, 0xea3532be1d231ff6U,
  0xed2d2e0deb2d0edeU, 0xc8fa12fffdf6eb1aU, 0x23d0eae9ffe517f4U, 0x1739ef2cf2d8f710U,
  0xfc2af1352bedf51bU, 0xf309f1f328eebe02U, 0xeddeffe9fadd09feU, 0xf61dcb0819201420U,
  0xd0072ff3f9ea16e1U, 0xe40fd2f8ebdf202cU, 0xe831612a29ea3230U, 0x24ef05294501291bU,
  0x11ce70de9f5f9b9U, 0x2df02df14eef2f6U, 0x10c0e3fbf604f0f6U, 0x10f9ceed0d411a0fU,
  0xf4ffe7f0f9ca37faU, 0xe31decf64b27dde3U, 0x360ee80f2823f629U, 0xe921effc01cb4005U,
  0xfff706e4de141a02U, 0xfc14d815080a1efeU, 0xdffefe0c05f30f5aU, 0xe63617124512da0cU,
  0xee062e1112380b03U, 0xcfaf3f01eff0636U, 0x380af2152cf0fcf7U, 0x5ed121b27db15efU,
  0x12d120feb5f918f6U, 0xae1f17ebf106ff5eU, 0xf7d5fd19c7d9dd3aU, 0xf8ba20dffed8dc1cU,
  0x23f3e7d0eb301c24U, 0xbd04fcf602fb23daU, 0x14a38e01df9ed00U, 0x16e809fb44f3fe1dU,
  0xf70717feff1cd9f8U, 0xea06ed23f30cd9edU, 0xd625d5cdba07fe50U, 0xfacd06dffceae4e7U,
  0x1d012bce141f0c27U, 0xfdfef7fbc01ff8fcU, 0xcc2010faea07f536U, 0xed0ee33efd00f6d8U,
  0xe02e5ff2fc1f606U, 0xf029f8e4ee12f009U, 0x32c034f8e1091b0fU, 0xd9d619e7ebf7f62cU,
  0x1406f524ecce1205U, 0x9e7c80202ea02f1U, 0xcfd8cd00f530264bU, 0xea1b07ede7f510e7U,
  0x26ca0212eae30af4U, 0xf01d1cd6d20eceffU, 0x20d10df5fcfa12e3U, 0xe7f5ebedf7e6e9f1U,
  0x6f5fc0808d2fa1bU, 0xfcec4ce524e8ffc5U, 0xede63818d5f00323U, 0x23e521b8f9f9f4fdU,
  0xf300324c21d7e928U, 0xc7e8fa0a1c20f824U, 0xecfcf58103f2101eU, 0xce5b1dcf6ecfac9U,
  0xcfdfef16fe27d617U, 0xf2cff5f8dc20be49U, 0xe31e204ffc102106U, 0x2d1f364d3cdbedd6U,
  0xef0d45e033f70906U, 0xb217ea1f1c08eeeaU, 0x1df6e8e5fde00737U, 0x14fc19fe93d8d9e7U,
  0xdc22de0f0259fcf3U, 0xfb28d4e715bc21ecU, 0xb45bd0ef407bbf2U, 0x233c12020140e0eU,
  0xec09d7d3f4fcd50bU, 0xfaf9cb1dfe0541d8U, 0xe7cb3927101efbf3U, 0xee381f16fe320d1aU,
  0x1014be07120a25e9U, 0x3310deb6230de7edU, 0x11f6304e13bfaebU, 0xe70c3a11e4021023U,
  0xdd5da3a2602101aU, 0x82efdde1d23f32bU, 0xd45f108dffe03f5U, 0x82a342be6de0f12U,
  0x10ff9dbc4f9fe10U, 0x48f23d05de2743ecU, 0xfe14150c66d4c0ffU, 0xee6ebe2e5fac9afU,
  0xeb11da20d8f4c018U, 0xfb0be14608044b08U, 0x21d71236c4104837U, 0xb1fa2fdeffedecebU,
  0xe8ff1906cfd105fbU, 0xf83ffa18cebcc905U, 0xe4c7db72dffcd604U, 0xdb14f53248cf1305U,
  0xd6ca2623a138f416U, 0xe90be11be4fceef8U, 0xeb16ecba4c2f30c0U, 0x1be509f5472cf8d0U,
  0xd3380a4e52272e2eU, 0xf41b8242129ecdaU, 0xe2f0d234fcf51401U, 0xa6ac609d8e9f0e2U,
  0xbef1be0ffefccdccU, 0x26ffc315f8030efdU, 0x26e63601fff515f2U, 0xddb00f7e9f11eceU,
  0x8ec09101201e4f9U, 0x28ebe0f2e7336a27U, 0xf93c25111d1f0681U, 0xcc9ea17162dccccU,
  0xdbe720e2452ae8f7U, 0xe6fa08f304e5e919U, 0x7262bf9fcd533ddU, 0x584e03d2dff9fabaU,
  0xf4bec9ce49fcf8ddU, 0xe4011104d9f014ddU, 0x263de60dcc16f401U, 0x1cddfb010a48e5ddU,
  0xf11b1deef6070a59U, 0xa429d6dd117101aaU, 0x17291512f9f3f3d1U, 0xe82013bb0dd308e6U,
  0xe32de616fc03281eU, 0xe170dea24c01d59U, 0x232110e6fcfbf0d7U, 0x10e0e51ee1e7cf29U,
  0x15c400521cf20dedU, 0xfbedbe013028d702U, 0x3c0018ecd61a042bU, 0xdfe9111ae8e87e25U,
  0xfeec2d28f6f31a07U, 0x95da2ee5959df0e0U, 0xdf42903eff4b416U, 0xde34fe48ed0b2ef7U,
  0xcd4607ddebeedd20U, 0x15def928ee3e12ffU, 0xc50903c2152dede8U, 0xf118e6e6dc08bd03U,
  0x39def1e416ecee13U, 0xc701eb10ff0ae6fdU, 0xef163fef11371d03U, 0x4220e0e2be3e80eU,
  0xe7f20af8fb021d3aU, 0xe2ffee46e0fbebf3U, 0x29fefdccd1faf36fU, 0xcd01f0e15218f02dU,
  0x4a1af5e3140e0ac8U, 0x7ffface23f02a0cU, 0xd521e7f3d81ff716U, 0xfbdef518f1d40afeU,
  0x14ff07c2ded1f7fcU, 0xf107efaad828e1e6U, 0xd21deffcea2ed81dU, 0xe5f7c3d1d81cf619U,
  0xc329ccfe108112bdU, 0xe425f11f240de108U, 0xcc50da1d30f8143aU, 0xf31d09fc49e1b5e6U,
  0xfde3ee18092fe302U, 0xfb33f126fe13290fU, 0x144a10120702f6fcU, 0xf3d605ebe1001cf7U,
  0x1023d7f401b7d616U, 0xef2fdef070fe614U, 0xf43d0e05de0823edU, 0x421f2cf5f713de92U,
  0x1823bb121fe6f9e0U, 0xfb15171afc10dcfeU, 0x1ef10e02fef5f5cfU, 0xfc091a21c711f041U,
  0x15d80de3e6f80ce4U, 0xd71514e419130ebeU, 0xec14e407c931e6d9U, 0xed05ba26dcf6f2d7U,
  0x340e1bfd19f01deeU, 0x2a2d17f9e30922fbU, 0x17ea47d4db16173bU, 0x10ecc7050b1e0320U,
  0xe8e0df0509e5110cU, 0x2515c82b0605e009U, 0xeef212ec0a130dddU, 0x202147f518210bb6U,
  0x160cf9e3db3f2231U, 0x35d3e1fdee05ec15U, 0xe7f2f2c5f46717f9U, 0xd3f3ed2412f502ffU,
  0xf71bf0220a051d52U, 0xc910d7f201092711U, 0x43112c1140022fcU, 0x2e07e81803f4ed03U,
  0xf727fbd1010d0625U, 0xcf27f4eb3af8ee09U, 0xd0fcffe62c040ccdU, 0x142c282be0f2ea07U,
  0xb210736bfdb122fU, 0xf91ef1040422cdf0U, 0x33faf91309e8e3U, 0xebe3ee130aebfbe6U,
  0x2e61f04c1040f14U, 0xe50e6016f13a28U, 0xf63eb43cede5db15U, 0x817f0dcefdc4645U,
  0x815db0e0afdbe00U, 0xd2190cc9ebe5d9ffU, 0x246f1ee8dd1cc70fU, 0xe20625e5f2cf0b12U,
  0xdc391320180aU, 0xf2571d0d000a1ef3U, 0xe3e71932c2141729U, 0x2eed00003df3ed1fU,
  0x1402fad9fb38010cU, 0xf8f91d16fde42dedU, 0x114bc1a431af212U, 0x1015082ee0c415d0U,
  0xefea300337de03fcU, 0xf5ccefde00fdf5f2U, 0xd60518f6f6d215eaU, 0xb9102ae302eeece6U,
  0xe409022c05110006U, 0xf4fd1020d2db22f2U, 0xdc20dcd4dc3ee910U, 0xd30406080e19e0f9U,
  0x2efecedef41ed0cU, 0xc9de2418d1bb060dU, 0x16c1f2053019eaebU, 0xdb35fb03ebe52917U,
  0x15fe00eee422f1e0U, 0xedee273bfb13080dU, 0xc50ceeffec132014U, 0x2d2e060af5d9ebdeU,
  0xf2f9e7f4f7f3eb04U, 0x1612343513e41158U, 0x3f6ad2220d10f0fU, 0x2da1f6300aa2e705U,
  0x4d90328ffe1e1e7U, 0xe5160b2f2cf0325eU, 0xa4eefd01c3170d07U, 0x60eed4925110cf4U,
  0xc0f904f907c9097fU, 0x302423edf80608e4U, 0xd1e22ed14e109a9U, 0xc5284109fd451ce1U,
  0x81fcd4beceb1ae0U, 0x4a36e320f7de1be5U, 0xfcf33c112038ebdeU, 0xb09e7ef2301b80fU,
  0xf5e123e81df922d0U, 0x10f6f805e5fb2806U, 0x1f33330830e1faf3U, 0xee1861e21af2edcbU,
  0xd4aecff0dff16dfU, 0x3030bd0ad827a1ecU, 0xf1ff01fb043429deU, 0xe3e1f5261cec0f10U,
  0x1a1ddc3ef4fffd14U, 0xe7d416dd280ad3e3U, 0x33f52518ec05d9ffU, 0xfcb9ed100bf1cde8U,
  0xf183e40e97e129eeU, 0xfeda3d701ee356cbU, 0x321c0c0208d1b91dU, 0xe7db12d3b6173704U,
  0xc5fce905009d1e08U, 0x1dfadfa2f00300b6U, 0xff053633fa1ed90eU, 0xca00002ddc042120U,
  0xf6f5e8102300b1d7U, 0x21070bf91cecf532U, 0x16dbc3d1ef09feeaU, 0x8fa1a161c451ffeU,
  0x2fd0eeedfe3e2a4eU, 0x19e715190e1d0232U, 0x273732e7ed194222U, 0xd9e8041135ff09f7U,
  0xc8ceff16f7c5e80fU, 0xd91d17e83007983aU, 0x135c1c3cd4d8fe1aU, 0x735dcf5e72ce329U,
  0xa9d03ff961c15d3U, 0xf5c2fb17d32743d2U, 0x6e1cbc470a07fc07U, 0x260ded2545191fe2U,
  0x2011c1c613cba11dU, 0x400d1ae1f1350ae6U, 0xf8be6b05dae80521U, 0x1126f99f01dc09eaU,
  0x10f114d5091806ccU, 0x1061fefaafdc2b00U, 0xd62c0aca1511146bU, 0xb4ec16130939b5b9U,
  0xdefb433b19d2cc0eU, 0x381d193723bfee11U, 0xefe6faccea362d0aU, 0xcffbf636f1fe2dd8U,
  0xe195bceef520f2b1U, 0x17eff81bc2cbdd1cU, 0x11e100f4cb210f06U, 0xd927baf503f0da12U,
  0xf61b0e19ea00091bU, 0xedeafbd43bdcd527U, 0xebad20fae73f33fbU, 0x4a47ff32fc07c720U,
  0xdf2cde0b9a2dcaecU, 0xcfd351609d3ad00U, 0xfd2d0de4e5030b85U, 0xd305152fd62bffcbU,
  0xde0adbcffd50d7f5U, 0x23174221d1e3a1f5U, 0xfdee1d02122a0407U, 0x273002292e07410bU,
  0xe40453f2f3140316U, 0xd5efdd1105fc2b34U, 0xda1df8e5070ff1b8U, 0xede16330112f9f4U,
  0x62520e8ea1318c3U, 0xd10f1040fd271ff3U, 0xcd662101e112a115U, 0xcffebe273d4d53fU,
  0xfd42d4f3f6e8e8b4U, 0x3f0ffbf8100ad2ebU, 0x33f8d2bee803e6f6U, 0xda0238e910c6002fU,
  0xe56ae4e70ef209d0U, 0xe02a401df2d41103U, 0x41a4c2d15000e07U, 0x15050fe40abe12f1U,
  0xf8e327f7f318ff09U, 0x450f2107dc96290cU, 0xb321f0732d7300cU, 0x6dd063590f403b8U,
  0x11f9f8ef1df8c955U, 0xfd12140fe3e41025U, 0x2bda00ffdebcf810U, 0x222cd3d4419e100U,
  0xd110f2fcce17f629U, 0x7f20cfff17fed722U, 0x3fff0fa2df82939U, 0xb9fdb6110ef5e2edU,
  0x19f0b4fbd9fff243U, 0xaf27d4aa1038330eU, 0xff01b9110af3f7bbU, 0xfd9d9da19231bfdU,
  0x30e3553aeb07f90eU, 0x1d0cf3d31de3f0f6U, 0xe05b1967d204c8eeU, 0xf7db9d16ed160ac2U,
  0xedbf18fbef1dbee5U, 0xffcaf918f30fc7dcU, 0xe80cd97fc12602e4U, 0x14f1fef45ef02442U,
  0x2637331ed81efe33U, 0xa2a014dd1134f103U, 0xfa4a23d730ddb222U, 0xfe11e3ee5ee7ecffU,
  0xd20037f813e82334U, 0x30370de4d908d5ebU, 0x2ef35627e616e94cU, 0xc2cc0af8cc03e6ddU,
  0x9b442f74ef4df13U, 0x18f22966e6330f43U, 0xad612faf834bf0eU, 0x520bad0144e0fe03U,
  0xe9d7f628e5ade716U, 0xb0bf3db060aaf2eU, 0x4cf8e5b9a7cc6710U, 0xf3f028d0f9050be8U,
  0xcb0918d2d3d201e9U, 0x1dbfc1c03ce52025U, 0xf9e708da1a35dfefU, 0x44f1191b223c182aU,
  0xf3f44121ded0f735U, 0x1b06e38a03c813e9U, 0x3140cde65e0b1ed7U, 0xfe250110b7f60e34U,
  0xb102fd2d15bb4a2aU, 0xd410a1decdcd720U, 0x11d5b6aafc14d432U, 0x22da2626fae2294bU,
  0x22ec1d09ef0bdff3U, 0x1f1641edf4cbcabeU, 0xced2a20209212211U, 0x3f7f7031e16f4c8U,
  0xe9fffbd71ff505faU, 0xf7ffdb0d0efd44e2U, 0xea1a09b3edf4dda4U, 0xef06e4f40800f90fU,
  0x1a1a470d11811825U, 0xc104ece6f42342a2U, 0xecfc08ef04f524d5U, 0x1f2cf3291646029cU,
  0x24e90e240406cc37U, 0xc0103625ded23f12U, 0xedd721f7d29ce608U, 0xfd341fae033ffe2U,
  0x281f3621ddeb2601U, 0xfd280ac4e84102d4U, 0xf2e8dd0e0eda0ee1U, 0x38d777bf1bdb211bU,
  0x160ff1eb1709fedaU, 0xc639be16f8ece2feU, 0xe3dfcce2cebf0231U, 0xde2622e1d11b1e0eU,
  0xedffed336fbf304U, 0x240e07c4ea50dcb7U, 0x1323db1502cee51cU, 0x1a1247232403c3feU,
  0xdfeada30202920feU, 0x517d6f92d0241ecU, 0x3ff208381adfe6dcU, 0xfa39fd31ea1ad8f2U,
  0xe32fc0f6ac2dd634U, 0xf109f9fe0c2bebf2U, 0x33e903fcd33204f8U, 0xfddff034df2aeb03U,
  0x25f3daff263d0ff8U, 0xaa11e1ecc45bfce8U, 0xfc02f934372f12d0U, 0x15ef23e8de224446U,
  0xfe18fbe402f61410U, 0x14dcf52308e63cfaU, 0x31d00510cebdc948U, 0xf30fe14bdb0410e0U,
  0x2157e3fcebfce98cU, 0x150ee3faebfaa4d5U, 0xd8fefd10fe3824d5U, 0xbe450f04bcd82623U,
  0x2027bc0118fcc026U, 0x27320e1a183355d8U, 0x13d6de0403c5e004U, 0x4d935e33a20e10eU,
  0xf60dff1933df0ff6U, 0x208c016fa50b40bU, 0x38d9f50023eb11c1U, 0x20f2c22ef4a704edU,
  0x9f53b03ec09cb60U, 0xda1be1ac702a1beeU, 0x2ce08f47ee7eeceU, 0x2fa143edc4f9f445U,
  0xef092be60fec17ecU, 0xdfddcf1fd616fe1bU, 0xd5e6f5cc2115e7e4U, 0xf940fb42136112e0U,
  0xe1f001fdf7dfef08U, 0x10e3d217d6f4c82eU, 0x231625e8071be4edU, 0x2d4bedf525ff17ddU,
  0x1df0dde5ecebf12fU, 0xfdfc00f4befee8d7U, 0xda02fe22300c2616U, 0xd81cd60711f1caf3U,
  0xe4e806cd30eaed09U, 0xd616ff24dd03d981U, 0x10e2063509f808cdU, 0x18c316f130e3f1e5U,
  0xe901dc011fe6060bU, 0xf4f9e61f1ade0e1eU, 0x1ac2eedaf7babcedU, 0x4e71abef201043aU,
  0xcca07e801f5e9d7U, 0x2bfdf010d9f0074bU, 0x84a33e6180cb71fU, 0x1812eb00eb41e8e0U,
  0xf5240fc00dddc6e6U, 0xf4d7c9e4e0f5e3c7U, 0xdffef723081c20e5U, 0x51cdcf70a253917U,
  0xb208dfcdb328efe8U, 0xffcb100e16461cafU, 0xe24fcafaf808feadU, 0x11110f2d13f1e1deU,
  0x34c408f411ec0e1aU, 0x60ec00ef401f3fcU, 0xf7ebf216e022fae0U, 0xfcdaff1a01e6dcf6U,
  0x2b01d1f3d1cbcdb9U, 0xe6fa062e0413fc28U, 0xf3a516150f0029f1U, 0x322d26352aef1803U,
  0x1ad91a0cdf04f61fU, 0x23e9fc17f8d70002U, 0x21dc0e13e8f3d61eU, 0x16c33cdb3d63b31dU,
  0x7f05f827da2fae1bU, 0x1e0117c719010742U, 0x180e18ea1b27c4bdU, 0xd60f26f3f1dc03d3U,
  0xd2e10e01fde20be9U, 0xfdf4fff4f11fa828U, 0xf1532230fdad9cfU, 0x1a1ad1fe04e12a31U,
  0xb80efddbe814b2e7U, 0xd2b516f837fef6d1U, 0x1809e50cac1d02efU, 0x47f4cb580cba20eaU,
  0xed000bed0c0e36d3U, 0xdbf41ef9d3d62be3U, 0xa31bb14ed0712d6U, 0x12eee1b0160a1704U,
  0xf0d5421ff60d07a8U, 0xef1cecfe1c1a1b29U, 0x122922fa0fffccf9U, 0x11d7e5f101f51facU,
  0x41eb2b27b2dc19e4U, 0x20e81622f5f3f313U, 0xdfbb1fff0721effaU, 0xdf2ecd220adfe2deU,
  0xe0fddb2fcbeff1f0U, 0x56cc150c12ffd0fdU, 0x42f0120cfe03c9dfU, 0xd1f3cde26fc344eU,
  0xf447001708d60d0eU, 0x25ee08e51ef7ccddU, 0x10eb20062e000701U, 0xec381333fe19dfe2U,
  0xe1121fdbebd0241aU, 0xe9e12f46f62526ccU, 0xfd35f3f3f8070630U, 0x33f1eee115382bebU,
  0x2170de00ef8ecffU, 0x1fedcf4cb02c901U, 0x3136f2c8eb1233f5U, 0xeee0cfd80ea42e78U,
  0x6e01f34d5f7bcefU, 0x18102804050301e7U, 0xe15bd6eaead72ef5U, 0x72208f62623f700U,
  0x2dbaedf8f50ec60bU, 0xfdfd1fe21d3921e8U, 0x19a617ea2320d41aU, 0x1fd61308011906bfU,
  0xddec26532f1be014U, 0xeea819ec17d2e002U, 0xdf8ea2d10bac6d7U, 0xc2ff3f0aece8ef1eU,
  0x17c834da2bfde912U, 0x2cf51b11e10429f2U, 0xfb4140cc19f2250dU, 0xf1eb0b33dcfdd209U,
  0x704fb1be616331bU, 0xe6110e1aef26f10dU, 0xffe7c90d19f3e616U, 0x1cd2f3d45eefecf2U,
  0x5d2e8e14026001bU, 0xc71101e9e62f1310U, 0x293a01d530ecee11U, 0xe5f52a3e2ad1e74aU,
  0x1b1801291eeb01e5U, 0xeee2f826eafefbdeU, 0x4d0a26ce12ddcf1aU, 0xf3f8123af9302afdU,
  0xc7e71a06f800edc9U, 0xdd1af005113a0e00U, 0xd4d500e6e11e1229U, 0x27de01d9feecf00dU,
  0xd51b26c218e405f3U, 0x1b10e711051c0e01U, 0xe8efe0373018f71bU, 0xda250b0526ce2ae9U,
  0x1919f8113750391aU, 0x142f8f8f9e3eff5U, 0x1819e7eadc0e0fffU, 0x17ec28e9ea342efdU,
  0xff1807f8d4ccef00U, 0x1d0ac4030fe9c7edU, 0x1524240afeef1cedU, 0xe5cd25000d0ccadaU,
  0x40f6dadff60b2c2dU, 0xdfb1a0a293724U, 0x2a19fff90aaffcefU, 0x10da11d3070c24f2U,
  0xf310e0ece6ee04ffU, 0x60e0efdc8fbcff5U, 0x245101bcfc08fd09U, 0x20e5e7e531dffb11U,
  0x2300c306f4fd1416U, 0xe7b7d60ce625ff01U, 0x1331d703e4f02281U, 0x45d333d7f01ef815U,
  0xf8270c1e3c10fcd4U, 0xae3fdb00ff22e32aU, 0x1c031e1dde16fe53U, 0xeaf419f6e7e4ef1aU,
  0xf141dce6ee0f200dU, 0xf3183be2d91fee65U, 0xe11832f5f6ec1d0eU, 0xeef3d60224120319U,
  0x341140e7e90f08e3U, 0xd3e701063b1afe19U, 0xcafc19eb24dc13e9U, 0xedf01b12f1f2ea11U,
  0x612800ef11c10121U, 0xf22a3814efebd309U, 0xf34403e504e61ceaU, 0x1bffdc012e04e515U,
  0xeaf2edde0124fabaU, 0xe92218470f9730cdU, 0x3205eaf5260bf508U, 0xf9f820f8d7fdd7adU,
  0xe04f3c0ddfe0ceaU, 0x25b4f7f83f3be6e0U, 0xc0000104a7d1f3f1U, 0xe30223eb241707d2U,
  0x3deaf723d9f3d308U, 0x3309f539101a351aU, 0xfe0ec0f6deadf4e4U, 0x43f842fa210e2c00U,
  0xc113e116e0046227U, 0xc00d0ff40721dae9U, 0x113a3b6d24e811adU, 0xc902100b002219efU,
  0x2fb32c0e45edbf1eU, 0x20bfb3ec9e82c07U, 0x20f714ce38d239f7U, 0xf3251dcd46e9f95cU,
  0x1ffa12c1e74a05deU, 0xf9fa260bf5fb06e4U, 0x48d7e819ff35e8e5U, 0x3a030a0dff28d9e2U,
  0xfef701cabc0be3f8U, 0x2426ffecf0f318f0U, 0xf6d4132ce62e0960U, 0x14fb2c3df201f1e2U,
  0xd5e02cf4481e1deaU, 0x1c090a0a0241051bU, 0xfdf0defd29d709eaU, 0x212a05d0e2080b48U,
  0x2dd0099913dd0c17U, 0xd4280903380bf912U, 0x7dd4020e7232733U, 0x54e62a120f13160aU,
  0xf1060b04dd0a0408U, 0x616f63815271430U, 0x20eb0805e9bd20deU, 0xd30301fbf86fd02dU,
  0x18fd01001c13fee3U, 0x9d0f0cf6bb9afb3dU, 0xc0c40dc8dd1de719U, 0x20c0ff07be09fae9U,
  0x86d3d42d3c112421U, 0xef7fe4fe52b31e6bU, 0xdbddf62f3bfa1d1aU, 0x64be2ad3012de00cU,
  0xdf08b737b5fa13e4U, 0x14a3f9e53e3918edU, 0xfa01114909f84fecU, 0x2aedf72b672802fcU,
  0xffff2c221d11f5feU, 0xec00fdfceb06de04U, 0x10eddde90fe6f207U, 0x61f3fe00cefecbcaU,
  0xead01320cfcf54f8U, 0xef18e8f6fed7ca01U, 0xcecafaf25afa9e22U, 0xe73a09082029ece0U,
  0xd312cc1017e60725U, 0x1dce10c3654e953U, 0x21d7ea33fe0d0db6U, 0x4ecf9f72eb40a14U,
  0xee0cdcc20f2af220U, 0x53f8cbeecdffe3fbU, 0xfae20c1936113fdcU, 0xe5e91015e64919d5U,
  0x31f0cb27fee52a38U, 0xe1f201090337e16dU, 0xf642efaef71b09f3U, 0xfd21bb1eebbd9a29U,
  0xee3de4fbe4c6450cU, 0xdcd3f6fafa181a3eU, 0x166039dbf8f920d3U, 0xe402f6eeecf2ec24U,
  0x5a177205464a2122U, 0x13280ef8df1000eaU, 0xbc0921e22e1b0501U, 0xf236c8d7d8f002c9U,
  0xfe20dd0d0c17d0d3U, 0x322c834e1042904U, 0x30e20feaff58e302U, 0xf08eaee0c17064eU,
  0xffb942eb23b6083fU, 0x2d202703d7fbe136U, 0x19a4f2f3ec4806fdU, 0xf6ed0b0a0eddf13bU,
  0xef08351031e90d39U, 0xcd2fd5e8dd0705c5U, 0xedd700e8d4bbfaacU, 0x8113e41de4f82cffU,
  0x17c5f64df35cf91eU, 0xef2bfdb0bfd1ed1eU, 0xac7121b01082ef2U, 0xaf3a0ffc3f25f0f5U,
  0xb1ea7a4221d2dfedU, 0xd31252e0fe2fcee7U, 0xff2af82429280b16U, 0x4a07c744dff21248U,
  0x1efb08f70404fb04U, 0xdcd3fcf8f3461c43U, 0x44ee33eeaec1112U, 0x418ea28f748190fU,
  0xef0124d3e23a1403U, 0x6eff50c000f4fd9U, 0x382fe2dfcbdd3928U, 0xdb1a134e22da2115U,
  0xa5d7bdfc40f90e1eU, 0xb1cbf102fbe919dbU, 0xcac3d4261428b102U, 0xae06421736d40adeU,
  0x17e7591acafe2dfbU, 0x2829eeda5af2da26U, 0x2003d5f7dedb2be7U, 0xf9d0f019daf4fd43U,
  0x16ff44c34027ef62U, 0xecf1f34c55c7a9efU, 0x9fe07c106b904e3U, 0xb20ceae5de250ee0U,
  0xf116cbe41c013d35U, 0xfe51de1aeefe2640U, 0xcae0ea602313b5e0U, 0x100353f47329eb0bU,
  0xf6b54813111fd00cU, 0x340db8920dd7d0a8U, 0xf9fadde8090198U, 0x271a05f90e0a49daU,
  0xde03aed0c4e01ec5U, 0x47e61b03111f0609U, 0xffe30afceb13022aU, 0xe9fd03f7dd0f0b06U,
  0x3838d42ef121c0f4U, 0x2fa5fcd0c00c29f6U, 0xb0df3eb26e6590bU, 0x804400202e715e1U,
  0xff030beb04d2d115U, 0xc202d70df003ef21U, 0xeb23ffebdff1d8edU, 0x142c24dc03f91c0cU,
  0xbfdc55cd28f6f4bcU, 0x2baaeee42d021df8U, 0x361b1dd41bd6b309U, 0x202ce8f401d6e8e3U,
  0xdb121b25ea0ab702U, 0xcd1180237e0d614U, 0x31ed27b1d735a4c7U, 0xbe3026eec5158135U,
  0xd41a2bf0440724bdU, 0x2cfcf94713f516f7U, 0x21f0011b00f313f5U, 0xc80a110fff310acdU,
  0xf0d1f5000008f1adU, 0xfde81dfdad08eff2U, 0x2a26170fa3e045e9U, 0x131adefce0af22fbU,
  0xab21be1b63510be3U, 0xe4e44edfe634ef21U, 0x13f302200819a030U, 0x1aba1cbd3bff2c1cU,
  0x4634a91821ea00bfU, 0xcfaebc8e6e4dc27U, 0x24c7fcd9f9f3ebf7U, 0x931a2ce6f4062c1cU,
  0xed2c47cc15df3300U, 0x6e012d935d7d007U, 0x16f8d516ee35de09U, 0xc5d9e760d51c2642U,
  0xe5f4dc2fcf18f646U, 0xc31b00f8b4ee0fdfU, 0xc910cc01f50afe35U, 0xf2cb1de7c203ac34U,
  0x20d03f3e7f81824U, 0x431adada1b36f632U, 0xf8e50343e62133c4U, 0xc5d19dfdef1db6b6U,
  0xea1b31d0cc1af60cU, 0x1b1f08251025dacfU, 0xe1d62816fe311606U, 0x15ddd114e101e70fU,
  0xe2ffd8d1b7ec9c18U, 0xb7e7f7f13cde33d1U, 0x3e12a0911fa3416U, 0xf2ec301805ecaed6U,
  0xf5f4ff0bf4f30cecU, 0x9de804e9123317ebU, 0xf004c6cbf2cee2f9U, 0xddfd31e73003f01aU,
  0xd2dd6d6f4fe1105U, 0xfe20080f391cf029U, 0x2416faf729d50d3fU, 0x18f824f9fff90eddU,
  0x45ccca291cc5ef04U, 0xb312e8fd064737e4U, 0xf911c313cdc11515U, 0xf0f6070210ef20d4U,
  0x27bed8e5becf15ecU, 0x10533fdf0a00d016U, 0x1d91ede4def505ecU, 0x1f2ced052bbd1f47U,
  0xe62210fa1613e928U, 0x2729c8f9010917fdU, 0xf34b27ddbe09081cU, 0xd705d32bf1070500U,
  0x27dc25cdf119dce0U, 0x1e2f20080ae42312U, 0xd928f229e1c6220cU, 0x293e2917f41de402U,
  0xca2a0ae2172e47fbU, 0xdc44110e1ec91e1bU, 0xccd9ffa9faed2eb4U, 0x800ef25cffa0fdcU,
  0x3981df03fcd90a2aU, 0x3718ee73420dd0f1U, 0x4fd10cbf2f9ccc3U, 0x92efc030cfc0f04U,
  0x4133e830d12cf8f6U, 0x10ae15eb2611f317U, 0x11f0adeee1023e9U, 0x26dbe917e01616f7U,
  0xf1ea2514d13835feU, 0xf8f7e50119e5f046U, 0x2d16d9cc06342a10U, 0xf433d5f0310febcdU,
  0xff30e716f6e831f2U, 0xfd2e251f24eb2615U, 0xe8fcff1f0017ff27U, 0xad25d9f8f6062207U,
  0x280fffebd532062dU, 0xa210fa1845da0746U, 0x8d5f02814f6f8cdU, 0x282b05e8210ecc12U,
  0xf4f3080300d80bcdU, 0x11cb0300b2d84c3aU, 0x1a3711f104f01b15U, 0x1221fb2c2234e43eU,
  0xb62c14f703dd02ceU, 0xfa123de317f3e24bU, 0x1f2d0f3303ff1513U, 0xf5efd414f34ad7c8U,
  0x1a9fee950af09fcU, 0xd8ee12c3f01708f5U, 0xfc0f1de62edcd526U, 0x52fc5ed12f202eaU,
  0xfff51619fcaa1312U, 0xe9c6ca15213bd6e7U, 0x212febe701da06faU, 0xf51fd103641837e7U,
  0x3f9f90201e9d542U, 0xfd0f03f62d0b0be6U, 0xe4e44829d7211f12U, 0x29c3b0dd4c06e610U,
  0xe7532f2e05d51c29U, 0xe5dceb01f3d2010fU, 0xf12dd8fb135209f3U, 0xdef0080002dae7eaU,
  0xace02ce1edd0d09U, 0xbd91d16e2ffd9f6U, 0xffd103024909d00dU, 0x3c03d30526221d45U,
  0xe806aeb8ebccc4fcU, 0x2d7df1243e4282fU, 0xfcbf12b9370724d2U, 0xded36d1ce513ed2fU,
  0x18cf0aee4e4fdcecU, 0xe3e1fbbdd32aee04U, 0xdc012a0fe1bc0981U, 0xdb2415c1d1e5ffcaU,
  0xf20cf80928f5cbf2U, 0xbd1dee3df5b92af8U, 0xf621d3f7fdf9dde2U, 0xbafb0c2ae73d091fU,
  0xeaf6f2f8e3deef4eU, 0xeeebfffadef1ee19U, 0x9deaedd726d2280cU, 0xf54b33dd4af80319U,
  0x1cf53c0f11d6145bU, 0xd8e3fc0e090be223U, 0xedd9061e1cfffce9U, 0xff3835ef0d0eeff8U,
  0xea09043bf322c914U, 0x55ee24abedf21001U, 0xf402376f22e0b310U, 0xd7f0e30fddfd4a40U,
  0x173acafce8f4f2ebU, 0x13222422060a1b0cU, 0x6eaf0f110ff3fe7U, 0xc31c34950cf1b42cU,
  0xf204aaffe528024fU, 0xf5dfe21dfb144212U, 0x5181bdc38dc12feU, 0x1d0122319b8f720U,
  0xf0fc22e4f6180fbcU, 0x3315b418b6df25e2U, 0xf8dff926f7b42721U, 0xfcf2ed4adefbebdaU,
  0xf92fef22f2310ad7U, 0xb805f608110dafdfU, 0x251538c8ef24d216U, 0xd7c807fc20250cdcU,
  0x3418d80cf10feff0U, 0x41800f20bd1bed7U, 0xd9e2eb0be7fbecf1U, 0x1ae232f8c9e730daU,
  0x13f0c50e16f3fbfcU, 0xe91731f5e941e3c8U, 0x2b2f2bc7e3fd15fcU, 0xd840e5eac83006eeU,
  0x1dff1c1af217f103U, 0x1cee10b5ed283028U, 0xdea816d14bed051eU, 0x312bf1f7f1f54ef3U,
  0x1cf710ecfee512f8U, 0x3afa13fdb8b3d609U, 0x1a03d3ef291ec0f5U, 0xff0a17d91345f3f6U,
  0xe82ee014c6e4e0acU, 0xe7d24232e93832eeU, 0x7e3d42f0f2af240U, 0xe3fb2b050bd22822U,
  0xef555d9e3d2de1aU, 0x89153f170dd6e5fdU, 0x8e2b3014f2bbc4e9U, 0x3bfcdf0ae00af4e9U,
  0xe81024ec14f9c7f6U, 0xd6e1bff9e3fafbffU, 0xf51e0c03d6e0fc18U, 0x38181e0e06b8666aU,
  0xd9e4d3f9cdbb5c2fU, 0x29edcf81aee1106U, 0xbfb434bfeb19eae8U, 0x2731031b3ee7c5e0U,
  0xc80eed181cba1f01U, 0xf7f8f7dad21ef246U, 0xa341d8c614e3efdbU, 0x2fea4936b3cba72fU,
  0xa9e922da1744f50aU, 0x38170124cd1bdb24U, 0x160a2908ffae2862U, 0xb2e6de200cfde614U,
  0xdeb9bfc519db3dcdU, 0x2e4e08ee2cd039b5U, 0xfbdffb12e1c11e5U, 0xf7e3f70714500de8U,
  0xf51812b70f19fe2dU, 0x3aefd02f810344ceU, 0xd529ecdb55d72f1aU, 0x12d53cfcd3f9d208U,
  0xd5f1eafd68dfffU, 0x18712fc8c7831bcbU, 0x1ddf1bee2aec03fdU, 0xbd2edfed47e6d401U,
  0x14c40fee04e408e6U, 0x60b34643f27b7U, 0xc303c8f5ff16e636U, 0xf9ef170d4d15c2deU,
  0x4fef021d3834ec2fU, 0x226437e200d14f2U, 0xdb08162ee107e952U, 0x20bc1da15aadc2dU,
  0x6a2de0d1ebdd0118U, 0x6035334fefb3844U, 0xf13dff3190013f1U, 0xff031e1aea1531ebU,
  0xf441a9fa5327fe54U, 0xe70ce91bc0358b03U, 0xd997cf1a2e225e0eU, 0xeae12bdbdef52b3dU,
  0x40ad4ea45fe021bU, 0x88db15e235faffbfU, 0x40d12eb195a3a1fU, 0xd8f3ea332dc938d5U,
  0xddbf20b5780d0d6aU, 0xda211bbd12c03504U, 0xf47ea26c6f600dbU, 0xe6ffd9eb0ada20e2U,
  0xd4bef0ee0008a90eU, 0x6f22061e0532db00U, 0x1dd4d4b36cbce0eU, 0xdf6049e025d0d0dU,
  0xdd59342034f215f8U, 0x800fcd5ecf505cfU, 0xdf1a47182ed6d6bdU, 0xdbebff44082526daU,
  0xbdd099f01bdcf4d5U, 0x110eaed620f207ebU, 0xc6083c0046290631U, 0xaef4040e13c9e84dU,
  0xe85168fd30a9270bU, 0x25f1a7c8e504eff8U, 0x626e2e50624c9a6U, 0xf0e80112a017f121U,
  0xf21dcfddb209e0dbU, 0xe9d60904e20cecf7U, 0xe6159639e1a1f7d7U, 0x5cf120efbf2f128U,
  0xe116130f21cf07f6U, 0xeb1305fe230a1a33U, 0x1b171f2d6f120cf1U, 0xe170341e0d47f434U,
  0xbfeeddf3ff28e013U, 0xf7b5beeff7e303ecU, 0xdf2b50e1311619d4U, 0x46191d1cf3fdf943U,
  0x3036c212d2e5c711U, 0x3159682f1c041d33U, 0xd3f3023b00aaebf1U, 0x9f8e302ba47e84cU,
  0xcacb0bfc20c91ecbU, 0x1915f71033edc5e9U, 0xf7cc141afec034d0U, 0xe5fdff36170ab34aU,
  0xf33beae47f211ce2U, 0x4d3144f803351fe5U, 0x3915b60505ce340fU, 0xd8cce307caba09c5U,
  0xe4eeea0015fc14feU, 0xb9c7fa3f100406feU, 0xe7a4082a26224130U, 0xf6071af6c3e74b5aU,
  0x5202ce09e8bc21b3U, 0xde190c5e42d245cfU, 0x48e31af6eae211d4U, 0xf73500cdf4923ff4U,
  0xddf81d0a01d105dbU, 0x37f5f717021311fcU, 0x4dee0f7003eecfcU, 0x37fe140a380821c4U,
  0x2be80cd7fbcfcddfU, 0x6193f4463e40ae0U, 0x1c8d4f321f1cbd2U, 0xe6033c2a0c44d0ebU,
  0xc4042927dfc80ef8U, 0xc90d1b2051f8ead3U, 0xfaf5fee505212f17U, 0x3249fed7e1ecd102U,
  0xe804eb12c6f9e1ccU, 0xd0171fac18c811d0U, 0x6bcd8222f991af5U, 0x1548f41b5224d044U,
  0xc9475e0439cc1b0dU, 0xc62fe0bfcadedbbbU, 0x402b05b9dae3fc1cU, 0xfa1cd8f4f90947dfU,
  0x27db46441e212614U, 0xf8eb49f50e52e32bU, 0x22dde92023af1720U, 0xb25190fff67e8edU,
  0xfa0a34e72807de21U, 0x40416ebfabce520U, 0xc5fad9ea2b262cdbU, 0x33022219002517U,
  0xf9baced21f372c20U, 0xfa1be41c3ade1fccU, 0xade5ed013eec3ce1U, 0x182ada29cdf9f5f5U,
  0xca074207f8cccce9U, 0xf4d701fd30061129U, 0xc6200dc3c91afbefU, 0xc2103e009f9fd04U,
  0xd7819dcd1bd423baU, 0xd7021e9c2ac82debU, 0x1341f317f6fce819U, 0x18e10e180fe66fdeU,
  0xee070f1f3f0d0febU, 0xf320e44f0c14f523U, 0xe2eb3ece370dd6f8U, 0x25da2de80bfdf905U,
  0x3225122f560be9U, 0xcae9f2ba1919fd4cU, 0x15140cff1713ef25U, 0xda340ef00912ec89U,
  0xeaded63ec70e4ed2U, 0xc70700d5cbea76c8U, 0x800d1d51819cedbU, 0xe6c1f423cccf1402U,
  0x29efd7e3f1d2f2f7U, 0xeb2bd315d0d7fad2U, 0x9217eee8c2f0ea04U, 0xd9ce37f643264a69U,
  0xddfb03d298d43d23U, 0x40d4e334e9fc17eaU, 0xf217fdc564ecf4e9U, 0x4e002a1736f60730U,
  0xeae1b226fbcd05faU, 0xbdf41c352ed04621U, 0x15352af12a0c10e2U, 0x19ebd20be41104f4U,
  0xeb2e1dc4170cee19U, 0xd4140f1298dcebddU, 0xc1211c01ac150145U, 0x160826ba02c5f104U,
  0x22beee737ef9c48U, 0x200592040ac90e40U, 0x4c8daf83e1622cfU, 0x23f310e737bfa0eeU,
  0x21ecca31161661b7U, 0x39dafe00f6f12e57U, 0x2118d4d11d48dd35U, 0xce190a48cb0e29e0U,
  0xdf31ed2823fb18fbU, 0xd1d030f3c4fdebe0U, 0xece41b02312734cfU, 0xc7fb0d24eed015e4U,
  0xa0fe10d3e6493e14U, 0xf8fff3e1fb0ac321U, 0x545903ebee03ab0eU, 0xe13804eea7e0f1e7U,
  0x161d3afa07ff4ed5U, 0x4d013021d1dfadcU, 0xa0414dbd80d45eaU, 0xe924c9e20dfff9e8U,
  0xe7112d1b9dd3112cU, 0x4e9edf529f5f11bU, 0xd6eeffe0f520d72fU, 0xf3f91ee954fe1a28U,
  0xed00ec03fc2cf714U, 0x1008db1132e8ef07U, 0x43c2cec71ff322d0U, 0xe92605e3f71129e0U,
  0xeacb150f08221dfeU, 0x401106dc07a81dd0U, 0x2f023616cc54ed03U, 0x526e9ecf80726f8U,
  0x1b67fd2fd839ebU, 0xd81cf2e72a24f9d9U, 0xfaf2e5d3e5f51025U, 0xc51401b25dffb1aU,
  0x2eeaf2fd20da3117U, 0xce1a2def17ee25daU, 0xf6ecfb15f9252e05U, 0x1c1c0e17c81e35feU,
  0x3e725f4f638d7a9U, 0xff1a088d2014d3e8U, 0xe91cd7c3d4df1bf1U, 0xf1ebdf0ed90a1b08U,
  0xebd909ccef31fb13U, 0x3331d730c020d2d4U, 0x38fd3719cde4ae2bU, 0xd415b7051952202fU,
  0xe7fcff04d2f9e6f2U, 0x9caf4040c11e70dU, 0xf3070f14e711ec27U, 0x1006bf28f22a0437U,
  0x18fe1bf20becfb0bU, 0xfee5d508ebfd1ddcU, 0x3e11f5fdc8daf63cU, 0x9141f11aa23e33eU,
  0xbc0fd7dbd508ffeaU, 0x190f17d145a0b4f2U, 0xf7123ad32f2713e9U, 0xad834f1cfc3121aU,
  0x446d4281910d91fU, 0x10e6e9e6b519eb15U, 0x504fff31d31ebefU, 0xf11d234cf9b81acbU,
  0x7d8dd11f50cebb4U, 0x184042d3d52195efU, 0xd5eeccf43010ec13U, 0xf611fbf840f60feaU,
  0x526fc34efbf14U, 0xf9c2c91e121e1e39U, 0x21df23dddf330901U, 0xf8be080c0009cdedU,
  0xede1e4aed2161830U, 0xb304f39b08f20dc7U, 0x6d3f51a0bdc36e0U, 0xedd750154cdcfe14U,
  0x40e0ff625f4fff1U, 0xa3e4e4024ce209ddU, 0x1c0ad9cea6f20e1fU, 0xf725f8ee7217ec05U,
  0x53c322b8dafd04a7U, 0x2bdd15f61029d000U, 0xd8db7fccf92cee18U, 0x1bff4ec9cd0f172fU,
  0xe30314ffe6fb088fU, 0x70d45e1faedd3f8U, 0xc110b1d31feeec5aU, 0xd819c0102725ec6bU,
  0x14f32ece540f2a36U, 0xeb2834a5d53ae7eeU, 0x30fc01c133092e6fU, 0x5b06ceea0cf20c0cU,
  0xf5df3b1e231408dcU, 0xd2bf010801e1ede0U, 0x45413ffcd2b3ddecU, 0xe4bc242ccde70208U,
  0xf8c43a2e32c2cf24U, 0x22f0f7070c1629efU, 0xf622511a0d3ae63cU, 0xdedae6e72fc0021fU,
  0x29ea60eee206fc0fU, 0x30ed1d01cfe2e131U, 0xd7f706d5ecbed5U, 0xf72c080caf1e7f26U,
  0xeaf3dcfbb6ea5a44U, 0x33f4001bd1cf0006U, 0xf32b190022fafb48U, 0xf62be8e9f829f61eU,
  0x3001e7dbec0811deU, 0xd5e4dadce032ec3bU, 0x1df91cfdebe2eeddU, 0xf23700211450880fU,
  0xf463f4dbf620d4fdU, 0x1ed42aea1c6393c9U, 0xcf160a0aed0748eeU, 0x7f3fbfadfe31d07U,
  0x27f49cd84807fe23U, 0x55fe3b1ac9df410fU, 0xef1fb1d817e7f6c2U, 0x931a2a40de1b1a19U,
  0x4f1314fb05e01209U, 0x49f00b0935e4f20aU, 0xffeb05ed0ac2f708U, 0xe239b203f90af859U,
  0x5eee31a170a0adeU, 0xddd608ecdd19240dU, 0xdc8ea03ecd9ead6U, 0xefce29f722d106fdU,
  0xf02bbafff31100c4U, 0x173c3bf898408f0dU, 0x13eb2ae4ecefdd10U, 0x1bdae2f4a7e1c5ddU,
  0xdb3616e10820ea18U, 0xe900f339f000d022U, 0xfdf11cbdfff1f530U, 0x2e24ddd96ceb30U,
  0xf81d5e0aee1fed3fU, 0x6f23acc14112011U, 0xf9ef18f4f2fa0cdbU, 0x2bedf7fe052eff0eU,
  0x1700332df706db2dU, 0x6d52bfc173d291dU, 0x5d2d6060e1202f3U, 0xe7c4acee06e5fef9U,
  0xf9cf0ae73bfabc04U, 0x62e1ecf2bdc1123U, 0xc81e11de20980444U, 0x40df7dd72bc2e837U,
  0x11fa201ae9d2f9e2U, 0x242cfdd6e6aa19deU, 0x171bf0c6ef2af61fU, 0x15e3ed3f1224ff11U,
  0x2c15aefe12bda6ebU, 0x15262d10101ad90cU, 0x24f3c10adb281de4U, 0xcf1f08af1eec09eeU,
  0x12c21702032df3c0U, 0xacd3f3fe0686d442U, 0xbc51920ebebf00bU, 0x2727ecf001101e1dU,
  0xfa0cd626ca2306f9U, 0x7fbc0ec52a34ebd7U, 0xec34f2e9dff4de35U, 0x264ef6f119eef8bdU,
  0xe58f4fef1c6b8e0U, 0x2cea1de1200ddf09U, 0x490306ece81537d0U, 0xe22df2da260ff5ecU,
  0xc408dd15d556f722U, 0xd5022ef113e4f6cdU, 0x5ff0dfceb13fff4U, 0x9280c2b6109ee1aU,
