/**
  ******************************************************************************
  * @file    network_1_data_params.c
  * @author  AST Embedded Analytics Research Platform
  * @date    Tue Jul 30 18:09:46 2024
  * @brief   AI Tool Automatic Code Generator for Embedded NN computing
  ******************************************************************************
  * Copyright (c) 2024 STMicroelectronics.
  * All rights reserved.
  *
  * This software is licensed under terms that can be found in the LICENSE file
  * in the root directory of this software component.
  * If no LICENSE file comes with this software, it is provided AS-IS.
  ******************************************************************************
  */

#include "network_1_data_params.h"


/**  Activations Section  ****************************************************/
ai_handle g_network_1_activations_table[1 + 2] = {
  AI_HANDLE_PTR(AI_MAGIC_MARKER),
  AI_HANDLE_PTR(NULL),
  AI_HANDLE_PTR(AI_MAGIC_MARKER),
};




/**  Weights Section  ********************************************************/
AI_ALIGNED(32)
const ai_u64 s_network_1_weights_array_u64[127392] = {
  0xee082decc1e7e8e0U, 0xf8181b2305bfece8U, 0x1360340340aff2fU, 0xf3efcf1be6001a02U,
  0xfbc2152603e3080cU, 0x1ccd0cfa3203cddeU, 0xd1704134edeaddaU, 0xec10e10e43cb17e9U,
  0xe5bdfd21ff160523U, 0xdff8154e09f3131bU, 0x5082f5606d7eee0U, 0xf52dde37e638dff8U,
  0xd7e1dc1cd355e7e4U, 0xe3eff3fa1ddefc1eU, 0xf8c9f501da2026f7U, 0xfe06ef26d7cf0430U,
  0xdb0c02d5e5f7f8f2U, 0xcf0e1ae71a123007U, 0x30e1ef09efc1ef1fU, 0xed17e0f2d5e6f3ccU,
  0x42b90532fb38d1ecU, 0x13e3c10cd5dccaU, 0xc0ddc5b0e3fae302U, 0x1f28f529ece5ff23U,
  0x141b03f4c7f90000U, 0x53be16f604f4c3e8U, 0xe0d1f824e9d917f8U, 0xddfe11d0de6daa9U,
  0x17220111e4223313U, 0x2aa1eee7d904eb2dU, 0x2218cb110114e01aU, 0x1214f63bf1ef0229U,
  0x170c1ae6d7f7f804U, 0x18def4e301f3f005U, 0xe313f2e600bf0d13U, 0x281516e8e448e0d6U,
  0xf3f2f8df181bd5f7U, 0x1cfa01eac827fa23U, 0x15c9d110f92604cbU, 0xf7570730f135c71aU,
  0xff1ffeec101b16d7U, 0xf5f40bfef41b0f13U, 0xdce212262e0133f9U, 0xe3e217f71d2cf91fU,
  0xde3e52cc0d9d912U, 0xeee11d29ffd615f6U, 0xe119e1fd150e18eaU, 0x4b4efd1aad9aef3U,
  0xf00662073beef2f6U, 0xd0700e420fa4553U, 0x17b1f2e419fcd47fU, 0xfa1615daf23c4accU,
  0x14f315e94e2fcb03U, 0xa2e115c6e6ed111aU, 0x1340161ce6cc1d08U, 0xf2085302e9f3b543U,
  0x1cf406132600d95eU, 0xdaf9230defe02611U, 0xf2f5d2d0d3ece507U, 0xeb02291dfb11f5f8U,
  0x16ba3b0c02dcf81bU, 0xd2fb4805e04f1c69U, 0xd905bc12e0102a18U, 0x61d7ea1d56df1de7U,
  0xdae7cf28ee2a2dc9U, 0xd5e7fabc240309fcU, 0xd6f0e7ac1097ef11U, 0x292acc13ea0105f8U,
  0xfb2b15de61330d06U, 0x1b21eff6d6abde0fU, 0xec2f0f480d0f23f6U, 0x46efdbfbdff5bcb1U,
  0x140b11d4eebab834U, 0xeb093f1708fde0caU, 0xdc23050afee411ebU, 0x1213d0f4ffefac27U,
  0x5b15cde42f31ea11U, 0x31c90bcedee72510U, 0xfb14bb0d32f31631U, 0xeb25eadc45eeeee1U,
  0x19fe2a2af8facb06U, 0x193e122e1b55fdf4U, 0xdb1bf4f40144fc2eU, 0x3ce4e0d61a053fefU,
  0x311ef4e803b1c3cfU, 0xda00e28813fbebdeU, 0xcf12f931cfede407U, 0xf528162df5d504e7U,
  0x12f3fe0802f38917U, 0x2519100e46cd10b2U, 0xf9b847e6d5eacb20U, 0xe3261a001144184bU,
  0xa8d400e6232efac4U, 0xe6343012b302f2baU, 0x2522fd2bcaed3159U, 0x2918d3f1f6233de7U,
  0xc2f6ff2d20ab08f1U, 0xf0c5f206f948cefeU, 0xb3212b2ab31bd8ffU, 0xe2040714f204d104U,
  0xc8fab52e21c25ab3U, 0xcfeeede5fdfd562fU, 0xddead50c0304e3ebU, 0x17ff602124f0a618U,
  0xdcfcd40e20f12b21U, 0xeee307bae2c53503U, 0xe101d828130a3020U, 0xabc728e533f01ce6U,
  0xfe01e4061710f8d0U, 0x117ebf715b7070bU, 0xa0fff6f808ca0ecfU, 0x33bdf818d6242db2U,
  0xa21f512baf6f1e2U, 0xcd14f87fec06f2e9U, 0xdbf8e5440d0f00ffU, 0x40d4b03c8a6f8faU,
  0x2431073a07ccea1aU, 0x39fe18e4f6022065U, 0x1c0f5cfc1917e9daU, 0x18e80bece9233050U,
  0xf4e715e9fec8e00bU, 0xfb38d9353e1ff3f4U, 0xe2de45fcefdc1ce3U, 0x2e9fe001d2b0efaU,
  0xcb0ebe33eef00ccdU, 0xfd59ddbaf00c230eU, 0xf805c32d3c191751U, 0x11410fffa0720U,
  0xaeea011dbeeb0c05U, 0x411dfd6da3cf216U, 0x1722d5dfcf08063cU, 0x403c5f004de0815U,
  0x72115edf4f7fa0cU, 0xe7fc18e1042b220bU, 0x72022f22f0a09f8U, 0xfd000e02cee61604U,
  0xbc08f134c5f42411U, 0xe7ecdff11fc4d408U, 0xfa27d8e9f70b1b0fU, 0xc8e7f104363ff4ecU,
  0x1f3c00f21dbb0beaU, 0x3d3d01e0aa1b1b24U, 0x9fffcf2b3142f2dU, 0xe513edc7fef60608U,
  0xdcf9f53fb5e1f345U, 0x270cf113d6db5903U, 0x1abfc10f1fdde01fU, 0x35dca60f1be0f1dfU,
  0xc8bf06fd2acc2df4U, 0x4004dd16401d81c0U, 0xd4f0d4ebdce60108U, 0xa9d8091606efdbd2U,
  0xcf2bd623152607e9U, 0x6d4fc0ae1f513edU, 0xeee7f612f706200aU, 0x4cd0922f6c2d2f9U,
  0xaf7a253a23fd17e3U, 0xf10f3ef9e7ddae08U, 0x30e24f0a0bf0e5f6U, 0x2bf9070d15eb5400U,
  0xdcdb4d031206f2d4U, 0x6014d225e1efd5ebU, 0xcf10284107efc6f7U, 0x312edadf1eecdd30U,
  0xe2f1bf0ff151812U, 0xe3c516ea2afd2f05U, 0xdc13dceb0d05e62cU, 0xcddc7020cf01625U,
  0x3bb51714eb072104U, 0xf2a0dfe7e522b5c6U, 0x6ef1312efeb2000U, 0xb110e8012fbb0227U,
  0x3dd2053417d8e6f1U, 0xd4f0d6f3bb223805U, 0xee36efd545fafddaU, 0x2f2c6030be2e4f3U,
  0xbf4172e15eec905U, 0x3416cb20e9ee0b2aU, 0xe9ee04062019efdeU, 0xea380ae1fc0b300fU,
  0xcab7e3de0600cff4U, 0xc1e012e30141f0faU, 0xe9ff14f3350adeU, 0xf1f22a200be828bbU,
  0x16f0e8faf40409f2U, 0x24ede5f02cfc4238U, 0xd2c30fdbead335faU, 0x19213f31e09ef2aU,
  0xf627c921d0eb2e3bU, 0xe5e025eef2e1221dU, 0x3030e3eef28dce7U, 0xd6ff2fc510f3dd02U,
  0x15ed2ef5e00bfdccU, 0xfeef1fc52105b51aU, 0x82c030002d2e9fbU, 0x36ebd6b433f8e3ebU,
  0x80517ffdaf7f25bU, 0x1afc1fb4ee072bd7U, 0x1f7e2a814e30a00U, 0x38f612ee06efd428U,
  0xf4ce072a4bb02e21U, 0x3fd019faeae5f6e1U, 0xf52c0cd7fbf2f5fbU, 0x3837dc04f31f0decU,
  0xebf00e10f1e4fac7U, 0x222b1b2bcde62712U, 0x34f5cfd1ca0813f4U, 0x16ad2a10fb0e0a13U,
  0xec43f100ea4af915U, 0xa0303e2ecfccfcaU, 0x8d3dae6dbf6232eU, 0xbae847350bfa3211U,
  0xac3eb0ecec2f05e6U, 0x1cc70c0d011b141fU, 0xa123e442cc0134f8U, 0xef14f5fd09da0519U,
  0x40a033ececebff7U, 0xdac405c215320a22U, 0xeb071117042027f9U, 0x1f0b1312da57ac1cU,
  0xe0a2b51ff11bdd07U, 0xb817711521fe2eccU, 0xe6ffa912e7f726e3U, 0xdb183e2d05fad607U,
  0xd60cb00eccc7fad7U, 0x25fb1efacd4fd10eU, 0x22fc2ce1eee2fedaU, 0x29fd23e3f3f1ebf3U,
  0xe343e7ff1cdff211U, 0x202432387fef101fU, 0x2004f04120e8f7ecU, 0xf028d7fa13015811U,
  0x5f0cdf50caae6d9U, 0x6e90015dde1ee3fU, 0xec2037f7f5e001fdU, 0x99b8091328c21b02U,
  0xa209ee2b0be21be4U, 0xfe2408c409c02c04U, 0xdf40fd060703242aU, 0xf72723f205d7f43aU,
  0xdbead401f1f0d135U, 0x1802c8d6bd36e21eU, 0x1812cf12d30318f1U, 0xeac5121f085dad0bU,
  0x203e906f807db34U, 0x14ccf9ea10e130feU, 0x7c818f0033c310fU, 0xddb024f9ffbc1d09U,
  0x381f0e0fd41d0ed3U, 0xe60fd319f2e00efbU, 0x11d2fa36fd092304U, 0xb60cedf0db270905U,
  0x471de0d5cb08c905U, 0x33161713fef6eb45U, 0x1ea11f131e031813U, 0xecec0afd05ee1f2eU,
  0x1ebec0916190ffbU, 0xcb0ae239f14ecbcaU, 0xe2273adcdcf52ef5U, 0xdae854e1e8daf1e6U,
  0xbf928e2e9c6d1f8U, 0xe606dc0bcb381f21U, 0x18dbe3f626020615U, 0xe9c41e250bea1906U,
  0xdeeaed0a18e311b7U, 0xd53e5ee2c0c0811U, 0x1f10cdef2c23ffd8U, 0xf944050b19e42300U,
  0x4601c3e4dfec1a14U, 0x17eb1441171d0d13U, 0x282507cbd4012318U, 0x20ebc6e21603ff0eU,
  0xfff4e52b01e412f9U, 0x90b0cf30518ef06U, 0xbcf412f11010d105U, 0x22bb3710f8d4180cU,
  0x90b1af3e7f83937U, 0x41ac116c5f117fbU, 0xcff034b13fce81dU, 0xfcea2303f941f82cU,
  0x70707f302270cfdU, 0x293510edd0f6f620U, 0xfd06121e33c62310U, 0x562b37d5ea2efa12U,
  0x92d09f604271911U, 0xcbf22bf6ceffe1e7U, 0xe4ea03d2eb0f10c8U, 0xfc1cee2b0cf4b515U,
  0x8cd3713ebf400ddU, 0xdf16ed1f15cd0e1fU, 0xec23bbcecd0ff7f5U, 0x1f0d0104f32cf9dcU,
  0x8f2fd01d601f009U, 0x101adffb22f5dfd2U, 0xc5edd213071fc23eU, 0x191017d8ead321e5U,
  0x3fefadcfa05fdf1U, 0xc19b61208a7eaabU, 0x9f3f3e9fc06ed15U, 0xf2cd0502f30e15feU,
  0xff232cf42607e2faU, 0xcfff5210e1624cfU, 0xe01b13c70df425U, 0x30ec0cf2fcf21ddfU,
  0x21f61cf31d0ed8f3U, 0xf20e06fd1be3f9f5U, 0x10fbdffb30d32e0aU, 0xe6d9e2fe15f00414U,
  0xfaf80df7281efe0cU, 0xdf24eee309064f81U, 0x3c21e9ee1a2414efU, 0x1ed2103be00de5beU,
  0xe0f91d2c09131fecU, 0x300a0e05fd11132eU, 0x1d22f0fdf1e00eebU, 0x820d324e4dd0f1cU,
  0xddff5ea08e72941U, 0x8f3171925200401U, 0x1b56f3f544f5cf46U, 0x14ecfedcedddfe46U,
  0x24220dca15eaeef3U, 0xfbe527d9aedeeaf1U, 0x12f5301725ff2033U, 0xa40e7172d2616f2U,
  0x2eee0ebe15073ce3U, 0x4edc526fecf382eU, 0x1ed1ba49f6f206e3U, 0x3af2f0331928f629U,
  0xf01beee4a2feec07U, 0x4239fd110a0df31cU, 0xe2c3c42b1cf51609U, 0x1fd2f2f7f216d815U,
  0x72a3110fef429d6U, 0x304edcbdddc40fdU, 0x321d0e4ec46b100U, 0xe053e1430696e404U,
  0x49fc502409fb0f09U, 0xfb16d5ee29e52c11U, 0x361b3c1ae9cbd6ccU, 0xfb1ff5e6cde6e701U,
  0x15e6ac11e2170ef1U, 0xecfdebd8dddcf0f4U, 0x2ce7d91ffbcc00e6U, 0xbc31b0e41a291c4bU,
  0xe7f1151633b21ee6U, 0x2f20f51f5ae81a44U, 0xf32feaf9f91ee018U, 0xf71de3e92a251b02U,
  0x170439a901ebdafaU, 0xd203e587112c17e0U, 0xe2dfa412f9084cfbU, 0x2de3edc0d3320f13U,
  0xa9fef50bcd18072cU, 0xed71bf42b49fbf9U, 0x4aed09d604f10d01U, 0x169b24f917d1f5caU,
  0x1605c62b1f08cf1eU, 0x13d16ffe71bf6ffU, 0x320ad6e0f6f0df17U, 0xc9f29ef30a13bfedU,
  0xe620fe01edc80c1aU, 0xd0fa4481f3220900U, 0xfaccf6f61d173224U, 0x98ee10fd20f7110dU,
  0x42041d3528b4f228U, 0x24e8d7fc3411c5bfU, 0x712dda200ca4e2eU, 0x1aed05e402faeaf5U,
  0xc2f60d4fc00ffd3U, 0x2ebe90a9ecff10cU, 0xea39f310e1dbefd2U, 0xeff5d03e21d0718U,
  0x23e2cc419221ceeU, 0x20161614eb5f2ac5U, 0xd06ff26d9e903f6U, 0xf2dbf9050d35e20dU,
  0xf7f31bf018de23f1U, 0x2bf428000108ffcdU, 0xb2eb01f96601fc20U, 0xd4ed2c1e192f092fU,
  0x131d51d92500d120U, 0x72356db141028deU, 0xf017013215232601U, 0x1c01f312022219e9U,
  0xf5f438a620f5101fU, 0x332717f4fa4564d4U, 0x4121c6fc182122U, 0x6bf19b7e21e28fbU,
  0x141ae5f8dbb007e3U, 0x1af0050af0e7f323U, 0x191d251ca7d81b25U, 0x33193c361bf9a116U,
  0x16e23be71b382eecU, 0x190bb61bba2804faU, 0xdff3f9cd11b70bedU, 0xf381d3df73a03e4U,
  0x5eeeff6936a71905U, 0xeb1a0bd10845d1e4U, 0xf0bdb7ea206f4617U, 0xae24de08d4943cc4U,
  0xde31d413eef9021bU, 0xc644b6fa1314ced2U, 0x47e4dde6d0d01c18U, 0x1e34f2e416003808U,
  0x14a8b7fad5241469U, 0xf2e5fb24f0cd3c39U, 0xfad4cdd8f12c4448U, 0xe846e72b05ffb5e2U,
  0xc60f11170e48fb42U, 0xcabb0cd027023634U, 0xaff50f070dc8d7bdU, 0xe5f910023f5f42e7U,
  0x3737fcf3c1f23cd2U, 0xf7c935f802c6e5e5U, 0x44a915091626be21U, 0x2b54f444e8f0180aU,
  0x30d23b09bcd9d142U, 0xfe1004e80744f538U, 0xf272d9041ee05020U, 0xf8b835d80bd50f04U,
  0xe3af2cfbf42ae43dU, 0x1bdcc2fc1c4a1a5bU, 0xf106e3ee1ace0024U, 0x622fedd32f808e3U,
  0xf12b013343eb00e3U, 0x3acfd9fadceadbfdU, 0x10f51abacb071e3bU, 0x454ee798072bd2e8U,
  0xb59e6712ee16837U, 0xe3c0d5bd2255d729U, 0x12140d15d541c597U, 0xfa201948e6e2d425U,
  0xf0eb212214d62ad4U, 0x45f7a84415e53cd7U, 0xb9f228fff800144aU, 0x125fe224e1f72befU,
  0xe0291df6df240f1fU, 0x1f8fc8cf9ffbf655U, 0xdc1512d9f6672a03U, 0xeaf9ba1be21fecd9U,
  0x7fb8d1e7310a052fU, 0x2e2df2fbd742e6c5U, 0xdf19eb2fc2a4b63dU, 0x311eaa5d16190b4cU,
  0x52ddbdccd228c7d8U, 0x42262f06d6b8fa2bU, 0xbf2a0f0bc2eb346fU, 0xe91e1810f90ce744U,
  0x1e2310cf37eae8f8U, 0x3f40a1b272bd91dU, 0xaae0e8d31129070aU, 0x20ee2111e5c524d6U,
  0xf53606301eeef113U, 0xc69bc9192de80223U, 0x21ad2e34a0bf64ccU, 0xfc32a0df4addfecU,
  0xce8f6b6dcdbf3f9U, 0xfd2ffd0426f4e461U, 0x1ac5650523e7e90dU, 0xb72f1be5250afff3U,
  0xdf20ef6fa3e2b04U, 0x572cf7f6030cd805U, 0x1fde30c5e5ed1207U, 0xe404e6113628eef6U,
  0xf81707bb1514fcfcU, 0x1d2a2bd20c1ccff3U, 0x10f5edfe37ea11f5U, 0x330ae5ff0cd2fa46U,
  0xfdbec6ef1b474d00U, 0x1b12222dc0ecefcaU, 0xec0825f9ef08f927U, 0x3def9c4c52ed935U,
  0x4bfd0a1dff281fcaU, 0xf62eef41f8235649U, 0xe6281318fdf35c32U, 0x301ce22938e4c1eaU,
  0x131510e2fd0fdbf4U, 0x1c07dbe8c8db5229U, 0x22f7ead9f9f82dd4U, 0xb9f9e8ed0334fe31U,
  0xded432ff053fc3f3U, 0xc2331deb2104f9f5U, 0xe0a191236f10f3cU, 0x37581ce8e110ef1aU,
  0x813e1da114ce32fU, 0x10eb46fa20e51f28U, 0x42fed460ecb146dU, 0xd1192b40fbf22004U,
  0x1efe26060f04d100U, 0x1207df2b1b19e706U, 0x38101dc9e0bfc12eU, 0x32ed3a3805eaf6d1U,
  0xc3e8edfdf0d7f602U, 0x19fe20ff4cae3de9U, 0x3c09fafe0aeafc15U, 0xf5c4f2e501310d05U,
  0xf9ede7156e0ee403U, 0x63311431f5cface3U, 0xeb202aef211ae1fbU, 0x23cccec2d515121aU,
  0x1200c9f9f4260cc9U, 0xe8e5fdcba60e3601U, 0xd0c8b7e3513c23eaU, 0xe3e706f8ede2223aU,
  0xf830140cc60be224U, 0x2710dde224fc1259U, 0xdf36f812e201f9f3U, 0xd66b0016c61f4d0cU,
  0x3b2a460efaf0d3cfU, 0xf0fe0a31fd460499U, 0x2d09f73a00e0277fU, 0xf2ee6dc2a22ed09U,
  0xed25edfe0714070cU, 0x20f0f0d4fee101e8U, 0x36e206121d111922U, 0xfafc21ea01ec1cffU,
  0x4fbe4151b1707d5U, 0xbda19f521242d19U, 0xbad90108f60d1be7U, 0x40a0bff08e104fbU,
  0xf436e5f9eded22d7U, 0x110dea1cf319fcdbU, 0xfdd8fe39e7fde8fdU, 0x1a0431fe0bca3dedU,
  0x1afeec140d1000f7U, 0x38fc01e805e91beaU, 0x183c55f81207e314U, 0xf34e0a021012f20cU,
  0xec25f3da16f8f3f5U, 0x17ee19c01634e7f0U, 0xccfb401ce6257ff1U, 0xf0f3e0dbeb0fd414U,
  0x4803c209431cfcd9U, 0xbfdf0acfb03e900U, 0xff08f41032001cf1U, 0x10e7f70d29110efcU,
  0xe227071a0b0f1e3cU, 0xdce711de1c04071bU, 0xdb0dfaf04609af15U, 0x24e5dee60902fd20U,
  0xceee5ef042a02cdU, 0x2fd7e7f42c5836cbU, 0xe9f32002f10f0fdfU, 0xdde3f012f90204dfU,
  0xf8e50dbe00032f2bU, 0xffdd08e1e1020a1eU, 0x130629e6c9ffe5eaU, 0xf5f90c01dd1420U,
  0x11d108c701d0061fU, 0xae11be00efdbdaeU, 0xc1e6ef22e41e18f2U, 0xaf2a19e9dda8eeeaU,
  0xed050ae100e206d8U, 0xec03bdfadf1e0ee7U, 0x1fdee0252100bb16U, 0x34f416edfbe8f236U,
  0x19263aeb110aaccaU, 0x9e52507e4e909ebU, 0x3ff914e3ec18f0dfU, 0x30ff010bd1f31fe7U,
  0xf400c4e4d0074b10U, 0xdcf1ff332b060cd4U, 0xda263b2521eaf0ffU, 0x251c0d2efcf735f8U,
  0x2ff41dd5151701ffU, 0xfe09f4c214ff490eU, 0xc008db1ff603ee01U, 0x280bd2e1170202fdU,
  0xd3fee9f9df0f08ddU, 0x161021f901d71e3dU, 0x1f6eef314f9210dU, 0xca09e8f1fe10cd15U,
  0x9120f2421f6d0f5U, 0x1c0ff203d8e60fecU, 0xf7e4eff6e8221660U, 0xfaeb270ec7e913e8U,
  0x2706fced0eef24f5U, 0x35debd11cc2d2e41U, 0xe9deffed2a25e3U, 0xe513bd152fc120f5U,
  0xe00036eb06ce0d14U, 0xc8f3f42ad111e1feU, 0xf9f804f7002a0b21U, 0xede5e60bcadefacbU,
  0x37c946ea5019fb18U, 0x12fc04f226fb19d8U, 0xae508de03e1090dU, 0xd512e9e61bc6e508U,
  0xaf0316a81db0d4fcU, 0x10eee6d41810f006U, 0xf8f8df0ce4e7133bU, 0xfcd0e7fc02301bedU,
  0x2fdbf40e33fe2605U, 0xe11e0b2029382c29U, 0x2044f12445bfe913U, 0xf92510e6b9111f05U,
  0xf016feefdc21f8d0U, 0x2d35680c411dfebfU, 0x11db13eabe281212U, 0x2db60421b7203216U,
  0x1914d4fcf3f92ef9U, 0x1745db06db0bd51fU, 0xfdcc3ac3cc37fcf9U, 0xf1b2f6fd16361e19U,
  0x5101620d3c30d5f5U, 0xe17190fc9edfc1fU, 0xcae432ea36c02a0eU, 0x8f4f3bb09ddf466U,
  0x372fbdc01eb203d5U, 0xcd35f3e2fb46cdefU, 0xfa08ee14d32614edU, 0xdbf927df07072b49U,
  0xf5090008f316cff5U, 0xe6d20c2cdee0f235U, 0xf72bdfe3ec1607deU, 0x7fcadce43a0aeecaU,
  0x3f804030f3cfa03U, 0x29121839f43ef7c9U, 0xd70cd210e0f3f213U, 0xdd37fe13ded123cbU,
  0x300bccd11ffef2a3U, 0x1e4310b05c91ef2U, 0x1226c5e703dbf9e3U, 0x19e0ffd72156f407U,
  0x3e9aaf201eba816U, 0xbff81c30fdc5db04U, 0xc9fd20e5e308f10aU, 0x1b1713fa07fc2dddU,
  0x1bbb0e21befed604U, 0xf8dabd09d821e9f7U, 0xc80dfc24fc0ac7f8U, 0x350b1f1d4ad8ce12U,
  0x1902fa15f3e615c7U, 0xc5f10c19caf006e5U, 0x7dc07f21a223120U, 0x1d2048d745f3e7dcU,
  0xe1cd061421ed2f30U, 0xd823fcefe81f0409U, 0xd04ff3130ffe16d8U, 0xc4f9faf9eddef2c1U,
  0x131af3eed2de1cfcU, 0xea081fd2ebf23f0eU, 0x8121423011410ffU, 0xfcf8e90800d6f201U,
  0x43508faf403be0bU, 0x8d7f1ccd7ed0ec9U, 0x3e1d7e822f105d7U, 0xd41438eb15f2d2ecU,
  0xd1f9e703c52a00ebU, 0x16e91822ea1eed22U, 0xf14fec01d0b1705U, 0xf1fa19fdf9f5f6f0U,
  0xbef10c13e70ef1f0U, 0xd0da10e0e3d4041fU, 0xe5082e0cf50738c5U, 0x50bfc0802d40a42U,
  0x32bef1bd8f1f300U, 0x9fa3df9f0f206e1U, 0x4ffd12d11051bf1U, 0xdb812fddefd71bf6U,
  0x16ebc507150ce54dU, 0xeef0f33b00022313U, 0xff2309d6210114edU, 0xfaf6d03b0be4360cU,
  0xfcbbef0217de1010U, 0x36fa2816b0110826U, 0xfcbee116ed3ef819U, 0x1ee60f150b1400f0U,
  0x1dd900040cc80adeU, 0x1de10d18fde632e6U, 0xe3220c3109151c12U, 0xee5830fe12ebe1f4U,
  0xc21b2cfdcb1508eaU, 0xf40314f0220b2103U, 0xe172d3f0514cdfeU, 0x27f5e516d5dede23U,
  0x1c2e28ecf1020bf2U, 0xb29d9fcc2ebe51fU, 0x3bd9f3fc23fd0d1fU, 0xc335120d0c6a12efU,
  0xd8f7fc1a1cf213f8U, 0xd51929dafbcf0cU, 0x23f71918f316e509U, 0xb51b08fa22fb4328U,
  0x1827030bfdcd06efU, 0xf13205db0c2af90dU, 0xdf1311f912f5e718U, 0x2506d20bd7f2eae0U,
  0x13ffed031ed1e510U, 0x1501f0ff07d901fbU, 0xf8181e1cf4fabbd7U, 0x203080e24f9f7feU,
  0xf90f03e41948d912U, 0x606ca341bbffbf3U, 0x292a1503e700edfaU, 0xedbf1d014ee15c0U,
  0x18142f0dff0ffdeaU, 0x1cf50bff092e05e9U, 0xe304f1de2d14fbd2U, 0xcb825f6fde11002U,
  0xd90702ddf125440fU, 0x1e1312331014ebfcU, 0x172409031b001c1cU, 0x10ac51ff5313718U,
  0xdaf1e8fffe08fac2U, 0xf6fdff02d7130d1eU, 0x4624d1e501dcf33bU, 0x14eabc292cd8b621U,
  0x23e118eef92afdf5U, 0xefcaeadcb6de6d15U, 0x1221dd9731ec1b0eU, 0xf61ef2fb0ced15eeU,
  0xed51fe1af9f1fce6U, 0xc1f3f2d004fef610U, 0xc8fbdd57ce181109U, 0xe7d4c0d51ef5fae7U,
  0xdc4d00d018d90dd0U, 0xab020cb833cbf3d9U, 0x20b0521e6ebd5d8U, 0xd5172f3e24450003U,
  0x311717ebf4f6090fU, 0xc311f9d8071413e4U, 0x7e81648e80e0b0dU, 0x13ecff0212027f07U,
  0xf99d180fe709c168U, 0xfe2902270ee6f5ffU, 0xe608e42ee7ffea0eU, 0xd2cbce0acb2523ffU,
  0x10cb271c64dccffaU, 0x12fcfddb2de32cdeU, 0xf8ebfd19e539c710U, 0xcf2001700e228cfU,
  0x36eaecfb2a3cf81bU, 0x647f5381011e509U, 0x28fe2b0bfa061d03U, 0xc1f717da1cf907efU,
  0xee0eeb1f38d719faU, 0xf00feb2e09d622fdU, 0x3e3230e9f41b10fcU, 0x37290c2feef011e6U,
  0x60f2ced10f326e9U, 0xe2511133b21d09fbU, 0x461915ef0a5cf912U, 0x53f3f7efebd8c610U,
  0x190cf61be3f90038U, 0x3340b3853f70bf6U, 0xb1103209f907cccfU, 0x32ea1d54c207f725U,
  0xc01300d21e05d21aU, 0xfaf2f01516e51afcU, 0x4600f8b910fbeadaU, 0xd433ccecdb14ff25U,
  0xefd540ef513109b3U, 0xfad802153505e2a8U, 0x2d57eb0c0d31fe25U, 0x3101bfcdf05da0bU,
  0x21271922f8ae23e5U, 0xef11af3f90bddeeU, 0xfbd3ec25e31ff8e0U, 0xfb051bed5104fee3U,
  0xe703f2d3ea02dafbU, 0x24eef5cddc1ae8f7U, 0xcae508f70e1a2532U, 0xe7f536e04a100618U,
  0x21aee6d40dfe1714U, 0xf2c927e6e339efccU, 0x2ae0ce17f65cf402U, 0xec01f5e90cf727c1U,
  0x515c92f22101418U, 0x1cf803d502110e0aU, 0xe7f5e7fcf7db09f6U, 0xd309eb1e2403e318U,
  0x1eff0d31eaf8f110U, 0xdee42801ecdb1612U, 0xcb45cc157f1519f2U, 0x20e9e92822f4e630U,
  0xf32436d818273726U, 0xbe0b0bd8caecc232U, 0x20040c18021b0524U, 0xf207f239e10c10efU,
  0x4201408e5f2ddb3U, 0xe4d819bedbd70df1U, 0xe6fc280236e30503U, 0x121b35e3dcf306ddU,
  0xbe10c70f1f18e3d0U, 0x2a101eddf425e5ffU, 0xcd3837e2fec609b1U, 0x5e5fae736d92119U,
  0xcae6f721100b0dc6U, 0xe8e4101edfc8b9c4U, 0x1a0af0f513301902U, 0x10f6fcf8091e3b14U,
  0xff2bdce3f4ddd2eeU, 0x141513f8f7247c17U, 0xe8a3e1fdf8b3443eU, 0xcddbe2ffe9b0c504U,
  0x30f8f45fd4382f10U, 0xdec4e4023419ecfdU, 0xf21bf30028f202c2U, 0x14116e70819ed42U,
  0xe245a327f2f3e03dU, 0xfae8fffef73109c3U, 0x521fab6ebfe1411U, 0xf70b24cf2c0e14fcU,
  0xfec4c1d16b51f2fU, 0x1f55d1f35ebee35U, 0x2c00dc3911baf7fcU, 0x1aaa261be2feeef6U,
  0xeff9d9e9e7c2d420U, 0x42c9d1272cfc1be5U, 0x10b91549eddef8fbU, 0xe7c62bf4dde4ee1eU,
  0xa7130e12e2e5b4f9U, 0xfa100a0ce225d0fbU, 0xfae6d0cbda193edfU, 0xcb320bd016dfdcd4U,
  0x91b1637ef34e407U, 0x4cf32008f5fef19fU, 0xdebf4d8172af6e9U, 0xdff6f6dc1c38d5d5U,
  0x1cf5c8220e0cf6faU, 0xfe08d5fcbb07fbdfU, 0xb613e5e6ebcb34ffU, 0xdbf503f535fac521U,
  0xe6f9f2f4f605d602U, 0xe0e2020c1fe80922U, 0xf1d114c5191ed0d8U, 0xf907c44603e8120eU,
  0x5a09f71a032e3345U, 0x2a8bfc1f11c4200fU, 0xe420091de03ceeedU, 0xfeeac7f207041ffcU,
  0xb21404f1d0f6e251U, 0xf9a50cdf360c2e60U, 0xca5e04f20b25fefaU, 0xabd31dc02e3ff1d8U,
  0xd525dc306220f822U, 0x5fbdcb0c2ffca38U, 0xc97346a51ddef396U, 0xee51e261019113dU,
  0xb0220ec7ddbf616U, 0x332bcdd8070a1026U, 0x4af52624cdece8f0U, 0x30feeb95141d09faU,
  0x29e4c3163d0e08f5U, 0xdf4128d211c505fdU, 0xf624e61896d756e7U, 0x3818d406fb091c03U,
  0xc755cee7365beff3U, 0x1201eaf00bdafd36U, 0xc42728d6e41b30a0U, 0x7f245e306246f03U,
  0x25a5220d50d43a36U, 0x8024a313b0fe316U, 0x1c5fe00007da08fcU, 0x3d80913e45a0414U,
  0xc2ebfabedcdbf745U, 0xf9d408d3ee4fdfc7U, 0x1ff224e6d5bb5bf8U, 0x2ee70b2df3d5f9d9U,
  0xd2aff1d509e618fcU, 0x1edef8d91619e5d7U, 0xe5e256effa0922cfU, 0xfedbddf41ae7201eU,
  0xc307e3c11e9de8efU, 0x1307c61fcf2401bfU, 0x11a3c7e4bc0f248aU, 0x68ad2229d8e8042eU,
  0xf2f3db3ccfaa3afdU, 0x41e4f3162033d539U, 0xc4f9022cff292210U, 0xc72a1dc6be42dc32U,
  0xdf16e7e0231cecfbU, 0x48d6033cf89103fdU, 0x4edeff91e456dd7U, 0xeab903d50e34ea13U,
  0xdef5b9dc10fdb4cbU, 0x2d2cefb398f9450cU, 0x14fe358c6f182fd8U, 0x20e4e3b803f1fcf7U,
  0x4fd24eb181a3332U, 0x630a0d2330231fedU, 0xe8f8f1f41af4dd0bU, 0xd907292721841d18U,
  0xcfe5045ae5eee8c7U, 0xa71b30f50a160113U, 0x31ae95cbdbb30a07U, 0x23972ae32ee9a9fdU,
  0xfae6e125fbe33a15U, 0x24e602f1c516f706U, 0x15ec2bb7d26750faU, 0xdd1df1f3903004c8U,
  0x13c91205d411c63cU, 0xcae44b230a161dddU, 0x77de21e312f70b23U, 0x50bd37d62eed5081U,
  0xfaee1d69cee1f1ecU, 0xe4c90b0adcfecbe1U, 0xe7e5f0c5101f0125U, 0x1d05311417aa8e04U,
  0xf8e4e80522e98d29U, 0x2dee30e50237f2c8U, 0xb3e5eb1cdeedfc29U, 0xe92217da321a1e3bU,
  0xc200eb199320ff03U, 0x17e5ed25fadbed0fU, 0x25f1fcd9d4042be6U, 0x10471ce6df0dfc2cU,
  0x3d80003f2f5f6f2U, 0x9639ff7f15e600f5U, 0xfeb1031fce41ceaU, 0x2638ea1cf2f9f53dU,
  0x33d01f1626b6de02U, 0x30070967170fb41fU, 0x7c8fc2afeabe404U, 0xe10209d8c2372c0cU,
  0x55da121a3d3c35caU, 0x90a2521e52807bbU, 0xc10aee00e7c4f430U, 0x33ccf2ed0cef0421U,
  0x1e2919f50524d003U, 0x5e9ed1b30fe27cfU, 0x131ccb1a103adbe6U, 0xceeaadb81b0905cdU,
  0x17370af0034add08U, 0x29a3b824e201f0c6U, 0xf5f0e82bf225d93fU, 0x1ef2f60f1a1ff8bcU,
  0xd0e6fcf6fa23ebccU, 0xdcd7121f2aff03e8U, 0x4200d818f4ee0fd4U, 0x28144605011eef9dU,
  0x21050af122f0f0e6U, 0xffd113cc8ee300dU, 0xd3ecd0e5d6ee19f5U, 0x2008d5d9f1c7282bU,
  0x2028edf8020505b2U, 0xcad90de515f1f1f6U, 0x301435e71649c3f5U, 0xf72d2cefcfea2637U,
  0xbfe72ebf161220f4U, 0x1ad05b1405f22202U, 0xe5d6e7bbf4170a49U, 0xdcd51a2c2ad6bb02U,
  0x9c8111c3b03f5e7U, 0x2618c999f3ca24b8U, 0xfc5f9928342fa3d4U, 0x13f923bceaedea34U,
  0xe414000cea0d29beU, 0xc3e9010e1c0af54fU, 0x1bb53c1ffbf71f15U, 0xf2b1623c5133a33U,
  0xdf46bd15f9010cc1U, 0x3919f7ed3df9e3edU, 0x41e3c332000170dU, 0x231cc710e8eed10aU,
  0x24fce227d4ddadd2U, 0xec4edd08f10bf4e9U, 0xf124f0dff93e1a45U, 0xb109f234e0e327e5U,
  0xdcd4f52efee5c72cU, 0xf31dfc8221de445U, 0xea30ece1f0fbce1dU, 0x3cf409ebb7fb06feU,
  0xfdfc1ff32dfd13c1U, 0x55b5f00be5363e29U, 0x4f839241c112ee7U, 0x4db3139c21d3ac8U,
  0x1f0304ff0fad4436U, 0xc4cceeffd5ed3dc9U, 0xf0eee8e654e60513U, 0x3f6e25fef7ecb807U,
  0x3e431e0940ce2a0aU, 0x2ddcd3e0e7ce28edU, 0x120613abe535dccfU, 0xb706fe0bf64dc3d8U,
  0xebcce5070b1207e4U, 0x25e0fbba0fc2374cU, 0xf92047c3bebce808U, 0x3eab0327d4eb19c1U,
  0xd1edfefc0ebdd1cU, 0xd3ca0401c9413e0cU, 0xeae315eafc352ae1U, 0x1b27e2cdf0d919e8U,
  0xf1da1fef320115f5U, 0x26f9f535dffb0a00U, 0x21e390ad3f0b5f5U, 0x3a184f35f22800eeU,
  0xe545e4073e28e366U, 0x3261047f251fd41fU, 0xaedf70dd01d38ddU, 0xdfe0294226bdfde1U,
  0xf50c261c1ae70294U, 0x23e002bff4efd0d7U, 0x2e1ac72e0348d4fbU, 0x8f8ea12ebe3f71bU,
  0xdf09152bf407f21bU, 0xf4eab03a0cefc90bU, 0x16e1f0e701e01d2eU, 0xeaf4010c3212fc2aU,
  0xe7411b0f350e0c4fU, 0x1f1efe0ae3ea3216U, 0x2eed4fdcdfd21695U, 0x20f6fefefb092ae2U,
  0xf91beefbe8fa1826U, 0x411c09e1072a0a77U, 0x1a01dff7e5f308e6U, 0xf30b27401307f7c5U,
  0x135e6fe13d80ec0U, 0x101defd8ee001f03U, 0xa307f51a01d9e52cU, 0xf91a3bfbeee303f5U,
  0xe1c5211cd7fbf2f0U, 0xba1128331a12df1fU, 0xed542aeb121ec41dU, 0xfd2a21eb03c92208U,
  0x6ed1e24fe121028U, 0x50f93f23c30e0c4aU, 0xe6a1e305eefb05e7U, 0xf73ac8f5381c0e16U,
  0x1fe1e8fef9c204daU, 0x24e6d0c8fae4c810U, 0xedbbfcfbe02418ecU, 0xc6f939d30e11ec11U,
  0x18e2fcf8fa51fcf0U, 0xf82214ede9d80efdU, 0xf310ed5b0ed70ad1U, 0xbec5d2330a25ff15U,
  0xdca20cddf5f0c723U, 0x2629ed33eaba5726U, 0xbdec2a113204ef1cU, 0x1b0cf72b002b19d2U,
  0x90308eefd210adcU, 0x241cf716fbb82ef5U, 0xfae258bdd3421d1aU, 0xf6330e47f30ba0fcU,
  0x1d03174a1c0544e6U, 0xe0e3e800d813d9feU, 0xf62806e2d53bf730U, 0x162ae3ffecbef316U,
  0xd4d0d808cf22d33cU, 0xbf821d8fd154b28U, 0xdf8f9171624c9e7U, 0x1129c9e8f502fffaU,
  0x2e1aa032afbc1d9U, 0xf64230ff12081eedU, 0x336b1e7e7450efdU, 0x112be5cafa1527a3U,
  0x1ece271af2bc4519U, 0x4ae0fbec18dc951aU, 0x3fad51f31f50247U, 0xeed6b606ec2604ecU,
  0xe41208f21a2aca29U, 0xcdfafdf60de11134U, 0x23e8efdc1e1619f3U, 0x1c0ff010f31bcb12U,
  0x10f4fed72be2bdfdU, 0x3ef822ccee0cd4b8U, 0xf3caf7fad40c1a35U, 0x32081e07201e09fbU,
  0x1de916f5021dfaffU, 0xdadaf2eb43c13219U, 0xca0004f0eccbca37U, 0xeef0cc0dfba3d1faU,
  0x180af4c9f0fae1caU, 0x3cb99fc17b0b958U, 0xfff6ae27180617c4U, 0x1b17e704da24ff25U,
  0x4b014809c70f3416U, 0xf3051b201cf0063aU, 0x37ef39eeedde2133U, 0x17f8270ff724e840U,
  0x505fdcef3ba09ddU, 0xd142311f11edd2c5U, 0x21e4efc1e3eb17f9U, 0x601e1f9f6ebd524U,
  0xaf04e0e191ed002U, 0xaf2c9192889bbf9U, 0xd35d293cd01fba1bU, 0xeaf9e5f8fb1503d1U,
  0xdbf1390028c4f03dU, 0x1c1008dde1f80122U, 0x1437e8e4117fd413U, 0x6233def36d66ff7U,
  0x175112e309e7ee0bU, 0x1525c4f61b3ee410U, 0xd4d72903f55ec532U, 0xebe7d40b10d4dbeaU,
  0xdd17f5ede704fadeU, 0xf3eb3c8f1d32fe1eU, 0xe30413fd3e31fb2aU, 0xf5fdd6d8d9ce1406U,
  0xe9d706e303412edeU, 0xe412d28dd706fe18U, 0x2928284eefcec9efU, 0xf13c0cea19da2f0dU,
  0x2be438e1d4bdf3feU, 0x3913e9110bf5cc29U, 0xd1300d5aea16fadfU, 0xdf390f08ebfffc47U,
  0xf1f6dc0ce4241f0aU, 0x472629e4f40df224U, 0xf2baee0bbbeaa863U, 0x185212c9e524d2f7U,
  0x263ad2db0b02de0fU, 0xde9321ca2fc3cffU, 0x16f12d2d550f12efU, 0xd06170ae9efe436U,
  0x4f560215ec291e18U, 0x1f11d32b16e64306U, 0xe3ddecf4e5ffdf04U, 0xe3121afdfd1f1109U,
  0xa905f10355fe1e05U, 0xcbd208152908b4efU, 0x1913b917eb2909f5U, 0x90a1110fd3e0609U,
  0x1bb28f51fe3ffe6U, 0xf333cce725321137U, 0x7fd5020af9e4d302U, 0xf472d0f253a0242U,
  0xd3f00ffed80502f0U, 0x491f11dbcdc6e3e9U, 0xe1cbd6fae550d8edU, 0xc6ddfa14e6fe16ebU,
  0xdadc2dd73dff3be0U, 0xd5fc1c18f2cee43eU, 0xc34f6132efaebc4U, 0x6b00ce90ad4ccffU,
  0x32f91acd03f9ed0aU, 0xa9e7f932ddfbe8f8U, 0xe4fc1c0fdd1b0ad0U, 0xea10ef31f4d2032aU,
  0xccfeb5402f301c2U, 0xbfef5eafee11a09U, 0xcb061aedb0f32125U, 0xc0cd0bdfbfacec38U,
  0x8f101fbf8fad004U, 0x2c2e17e3fcc714d9U, 0xe5ec02fb1a0db9f0U, 0x170dff1927fbf0e2U,
  0xee2fffe513ecdd1eU, 0xbd92219c12a28f6U, 0xfb0621da10bef3b9U, 0xd50613d6fdc7dc07U,
  0xf00d08fb0814d441U, 0xe82238da1cb520e5U, 0x221b268ee80b2df9U, 0xd6cf23f550dcd5e6U,
  0x3227323c0a012a21U, 0x624d101fce3b06eaU, 0xcf0dadfe5cddee1cU, 0xaf11efaf20b0926U,
  0x131fe81b23dc15d2U, 0x20eff60b3ae423a8U, 0x82c13ebab2d1105U, 0xefcfdafa0c2ee3U,
  0xe910f1f2d4cde63aU, 0xbc3116310df741cbU, 0xe9f0c0d516fd26dcU, 0x1024f10bdf280bfaU,
  0x4f37ec542bfe1d21U, 0xfdee0419ff0102feU, 0xe2ff382f0ac4d323U, 0xd9130cfbea0b2d1bU,
  0x213fd7f709da310fU, 0xf8fdca131bd6bcddU, 0xad0fef42a13fad0U, 0x20e9aa0844ea02acU,
  0xf60debfd291ee6f8U, 0xff0fff5ea16c4a9U, 0x7ceefe1d3fddc803U, 0x31303f1ce9ebeeecU,
  0xf4a6d7d215d802deU, 0xdcfe18f1f806537fU, 0xe4f5e15a012025f0U, 0x1c3006121c39e6f5U,
  0x1114141ae007cb0aU, 0x243a0c37100227e2U, 0x3d9e21ff90a0f1dU, 0xc0cf0633def0e2fbU,
  0xd8d902230dc8be31U, 0x310dc10d07e00819U, 0x22ff9d2032e78bd3U, 0xf84e1c0d1db5ddf3U,
  0x150120d54d082948U, 0xe3bafaefcffe00f5U, 0x14dda645defeddf0U, 0x892a010540e131f8U,
  0x10bb79936eb0b1aU, 0xd5009ecc7ead621U, 0xe510d841051308faU, 0x10fff2a8d5ea1433U,
  0x1ef22dfefcdd1ecU, 0x1216bfe71616cd4bU, 0x7d035c0f00bdefeU, 0xbd0f1e615160629U,
  0xd0f92717eb0ce507U, 0x10f806e32ef8f23bU, 0xe4d2d7efec08f61aU, 0x110fec4d04f7fe06U,
  0xec14b9f0e4e75c31U, 0xbfe128170ff91623U, 0xfd00f71111f309fbU, 0x111eb5411a17d9faU,
  0x300c12e0e0fad310U, 0xf4f615e82b0132f9U, 0x1d3d0a1604193515U, 0x932000a23fd393aU,
  0xf4f7c0e7f71dfad3U, 0xf50d370af245a5e9U, 0xe8fbe11903fa00dbU, 0x9050af6fc0cf9f6U,
  0x35dded3701cb4919U, 0xe2dfc2134dbfaeeU, 0xdc0e21ea1424bf40U, 0xe4fa22d6d3ecd7e0U,
  0x50feff720c70000U, 0x1705b6f10530e513U, 0xcb3ae7c8f8e900ceU, 0xb6f9dbb8e1100ce4U,
  0x260ac1f813e10eU, 0x32360bde34cc0719U, 0x2cfc014319f7eeffU, 0x3a0c2809ddf7230dU,
  0xce16f31e103e52c3U, 0xfd1202dd1ed1ff05U, 0x1123cce2e0e9fe3cU, 0xeafafb2b12f253d6U,
  0xe0fccf0ef4efb6cbU, 0xc5f90f0b03ea1f0eU, 0xca2ec800e63e2fd6U, 0xfaeee414d0e924fcU,
  0xdc5f2027fa2100d1U, 0x72f2fdf23c1db503U, 0xffd219e10d15e804U, 0x312cbbe6fdeaf208U,
  0x7e5b6043f34e42aU, 0x1cf6edffffee11dfU, 0x1ef50b0224c6c809U, 0xdebce8e8ef0507daU,
  0xed00071cf807fdd7U, 0xf14c1bf33b2ba104U, 0xe5e2bdf6bd34110cU, 0x29e42c2bf8eaec0fU,
  0xf3d627001fbe231bU, 0xd312b8d22613fcf8U, 0x76d031b001401e7U, 0xfc1328d513012bdbU,
  0xeef52720f2dce835U, 0x2921d0e51a391e05U, 0x47ebf8ecf4fbe808U, 0x6b1de3f5b3ef131fU,
  0xf6251efaee0ef306U, 0xf4d907c119eb11a2U, 0xed04b81c060a4b0eU, 0xe7e45dda35c9fd14U,
  0x31a3e12b1230287fU, 0x3dfc041403eddc3aU, 0x36262d05ee040ef3U, 0xe7e71d1123090ee1U,
  0xbef1e2f10a1d0af8U, 0xfbbd0ae0fc150effU, 0x2a1b38101954f1e5U, 0x2424db1b06a11b1bU,
  0xfbf90a190b2afbd6U, 0xc6ee4f3bf7d2dc1cU, 0xef1d14342402daeaU, 0x35f110151f20cc16U,
  0x9ecfc09fedbc732U, 0x10f6d53ade3aeab9U, 0x4e4152ae02606d2U, 0xecf4d4f8051bf16cU,
  0x5f50a07df2f0d2cU, 0xdf1cfa250c081231U, 0xe1e607e5160316fcU, 0x2622f50adf1b031bU,
  0xfe1816e5eb0505ecU, 0x7eefaed0e140beaU, 0x2c1bef430834dc16U, 0xf60030f1f5163143U,
  0xf9ede8fe1bc3feadU, 0xe3e0014e9e4aea31U, 0x7281ad1fb04eb09U, 0xd6f7f1d5f82902cbU,
  0xcb2406f635e30715U, 0xcdfcf9b04fc0f15U, 0xfad3fed5a200aad9U, 0xfe381505220ee7ecU,
  0x3aee13736e9f500U, 0x44f9e5ce45294051U, 0xd3ea53c9394e2253U, 0xca91a0e10acf427U,
  0x3a166ff7d6dfda19U, 0x113f30ddfbefcf0eU, 0x8f3fff1c6df2a40U, 0xf9ed16f100bf1be4U,
  0xf6faddeaf2f2d31eU, 0xe937df14f5fbf2fbU, 0xcde5dd0f19f0e0c5U, 0xe5e7f72a03e400c0U,
  0xff631da28cca6deU, 0xedb0c40fce0af951U, 0xe3cd0413fee3f86fU, 0xdfe620f6cbee071aU,
  0xfdcdb080f24f103U, 0xa26161b24edd4edU, 0xbf4c3bc46bcdf51U, 0x2fe16ef0915222eU,
  0xe42306f42b11161aU, 0xcd3f5beb15e0e5dbU, 0x40050a02f51d0108U, 0x3d2bd2de27bb7dffU,
  0xe5030219dae9d10eU, 0x192bdcf1f240bae7U, 0x5510108d2823efe3U, 0x3a4be70f1cec100fU,
  0x27edee0fe1e41207U, 0xf025e9da4e2e2cebU, 0xd73cdafcff0207f0U, 0xf8320c01fefa5fdeU,
  0x2209fdf61ad5041fU, 0xfbee2ce5e2fcce04U, 0x3a0af50d23ffe5beU, 0xc105e7ef063713f7U,
  0x1734f5cd451b15f6U, 0xd5f652db1dd40837U, 0x19ed25041f0ff10dU, 0xd33dc063c2afcdfU,
  0xf13c829db7f03ddU, 0xeb39f202e5fdfac3U, 0xe42a18da0b1febf9U, 0x1a17c9fdba2b0ffaU,
  0xf0ddd34d2dcb041fU, 0x61f1f1ca05db1343U, 0xfa01df0e0e43f126U, 0xfed1dff30d2ef82cU,
  0x1214e511a2d8f1ecU, 0xdc0fe91c1be0eb29U, 0xfcca0ad216fc160fU, 0x15401af62ffb0aefU,
  0x3805fa4a00281d31U, 0xedff3feebfe12d1U, 0xfcf81142061fc2e5U, 0x22f60407ffe83516U,
  0xc9310b25130e1f24U, 0x23fae43010dd28d2U, 0xd91ef4ee210bf8fdU, 0x2317c021c4e8210fU,
  0xde172a08b2eb1dfeU, 0xeadff825f61c42e1U, 0xf5dd22e709f8d7c1U, 0xf4341fdf08af1630U,
  0xeed7ef1d3c041bf0U, 0xf7e2deed0f282700U, 0xeae9fda817f242bbU, 0x16140e2d5cccb313U,
  0x2d20fe01ef20113U, 0x6252cd0e9ea1a08U, 0xbbcf7f6383b04fdU, 0x1df4ea2608002ef8U,
  0xbdf82318fbf23720U, 0x45281732d82bf3deU, 0xfb031801f8bdd5d4U, 0x38ed4ffee0c20e44U,
  0xa6d4ad3804ee0ff1U, 0xf3ece6e3eb362bc8U, 0x4a2fc8004d20f325U, 0x11f0ecfc09d60b13U,
  0xf715d10424fff817U, 0xf60d0f2b1b0ee1ceU, 0xecdf00e5f0f3fad4U, 0x3fbe08e70ffde10aU,
  0x14313937d6e0170eU, 0x233ebe8f3d9f3d8U, 0xaef44fcd0d04f0e8U, 0xb10d11dd00000d0cU,
  0x12e436dfee05f0fcU, 0x7d0e1c05d8303328U, 0xccb2dc3104b1434U, 0x44413644e931f623U,
  0xde232b00d3e3eb27U, 0x3343d002ffceb07U, 0x1deedf2b071428deU, 0xfa28142befeadddaU,
  0xf40fe6dd19fe0458U, 0xd81f0e05f00f2bc9U, 0x619d74be335ecf2U, 0x160001f02a0e19d1U,
  0xee5bf4fb1af40d65U, 0x12db0afd321a8118U, 0x1fe01f29011f0aaaU, 0xf8fc04fa2615060dU,
  0x7e6d45e5b5020feU, 0xbdebd6ddb4fbf998U, 0xf9cf211701dde9e2U, 0xf5f7dd0f30d24a19U,
  0xfbf3dae124eb1e0aU, 0x1b3faa0000dadbc1U, 0xcfd71eba29f88dfaU, 0xebefe6bef5c5ee17U,
  0xf0173c0bd1190500U, 0xfd1604270d93041eU, 0xfedacbbfd324dc06U, 0x9eaf90520d7f5f3U,
  0xe712bf2fdb18e0f3U, 0xe41b080e09f304cfU, 0x8d9f41623ebfc08U, 0xb419ce1606ef12d8U,
  0xecd4d9f1990727fdU, 0xcbe4ada40d4453eaU, 0x983229361d4cffe7U, 0x3c18ff30424ad501U,
  0x16c2249de5e0e119U, 0x2a20f71014bf1241U, 0xc1030bd31fe6bee0U, 0xba39c8f20406d6d2U,
  0xdf205f30d882235U, 0xf7ed22c2dcd24023U, 0x240c3c191dd1e251U, 0x1ffab8cd22d1c8f9U,
  0x480fd722f862f400U, 0xb807e30abf28fd2fU, 0x63a2cc03c42f9ceU, 0xd815f35cf10dab29U,
  0xcb6a11fe02da01ecU, 0xf1aa24337f03d4ccU, 0xb2f5e40627070ff4U, 0x4ed30eea2a0bdafbU,
  0x4af11efbb45126f3U, 0x17e600c1f312ce83U, 0x80206fb081119e6U, 0x4dfacce6ea080adeU,
  0x70d06b2ec2bcbd1U, 0xaf70a2ace3b28c0U, 0xeaba0302b5f0f468U, 0x1dad819ffb9a7f7U,
  0x21efee0b26f81413U, 0xbc2120e9ff2f1aacU, 0xcaf200fe8e5d1dbU, 0xf8b7599e0cd2d49eU,
  0xd216ec0f122ce71dU, 0xb2112f8defce20cU, 0x13113906cdd4a6d2U, 0xd5ca27cffdfde0b9U,
  0xa2e06c8fbeed431U, 0xf5e09fc29e301c8U, 0x5e9f7cb352ff2d3U, 0xf6540bdffaa540e8U,
  0x1bd3e52ff306d117U, 0xc9f12eeb50de06cfU, 0xd011363a13fb1418U, 0xd514e20dde1e0ad8U,
  0xf1c5ff25f91f029bU, 0xd128335addf2e3d5U, 0x1b5eb92db1d0063cU, 0xac1434ef0df34f1fU,
  0x11191ddfe524d420U, 0x3716df14a74655eeU, 0x46ba4ad4f8ae070aU, 0xe3da3ae4f1e5e126U,
  0xe4f01d35f13dfdd0U, 0xf90ab227e129c7e3U, 0xd6613db6eed7f74fU, 0xdb2ded2250f5f2ebU,
  0x44ea4dd500ffce17U, 0x17cb002bd9a14b3aU, 0x2950e4d5d4ff32e5U, 0x547e6feb7cf1822U,
  0xbe68fc0b0410d3e0U, 0x1adb22d3cf92c204U, 0x5038e7a8d3dd01d1U, 0xc5d108109d27eaecU,
  0xda4907084fc83301U, 0x816f423cc06f52dU, 0xf5c418b51c3ef7feU, 0xbc2316faf5e5fc0fU,
  0xe93c02ac272fdbfaU, 0x15c73aee302cdffcU, 0x1e48b549423cf8ebU, 0xcbd2a501dcd9070eU,
  0xe62753e1f411e110U, 0xcbd2f7e5e936ba19U, 0xf45adde658e60105U, 0xd100130eecd108f2U,
  0x8093f042736bc09U, 0x480fe62512cbfab2U, 0x25151e3506e307fbU, 0x60100df8213804ceU,
  0xe8e234d01dfe00ffU, 0xdef5dc13fccc3246U, 0xb01e2b040bcd29ecU, 0xe7e24aded3f7f105U,
  0xda53db0223291a22U, 0x6dc5f1d30d1ca38U, 0xedf50912b6284805U, 0xf0a60e233b2fee2eU,
  0xfd1fdad0eee3f92fU, 0xf418eef14a022301U, 0x42dcffec39f931edU, 0xc3e215ccff2d1747U,
  0x100bf392b8253ecU, 0x3112181ad4290ee6U, 0x1f0f39f80115e3d8U, 0x1cf30f0fda0b2628U,
  0xf221edb3eefa0cf0U, 0xdc0c90cf711fc99U, 0x1a3a81bdb60af8ebU, 0xf92b0410b3300e25U,
  0x24cc2aa4310ac7ebU, 0xadef17dde4e623eaU, 0x1c27f10acd28eafcU, 0xb04f274719e127c7U,
  0xea2034f5002207f5U, 0x23d3010ce904f232U, 0x2126b9fe36212afdU, 0xcef91c1be14bfb06U,
  0x31f628fa0fe4ccd4U, 0x19eefbdfe9e2f434U, 0x41f200d11bf3f9afU, 0x47792a19c1020ab8U,
  0xc7c89b2b394e0f10U, 0xf0f297ce21e001e2U, 0x16cbc4fa0d053964U, 0xbfbe29c6cffd242dU,
  0xf6ebc704c6130e29U, 0x162133418c01bad6U, 0xb99601dc10c33602U, 0xf6180f0e30382f31U,
  0xf3074be1261b2808U, 0xd6d6172d53dcfb02U, 0x1d4cb4ffe61ec6c4U, 0xe4c9d7195e33d301U,
  0x40d6ccfc05f836a2U, 0xcee0b5df08ef370cU, 0xb64d2aee206ed01dU, 0xcc0a49052720f3d6U,
  0x10e5b9f5f912f20fU, 0xe516eff4e112e7fcU, 0x38250df0e41c1806U, 0xff18b5ffe6fd14f7U,
  0xf3e16522dae598faU, 0x7d8dd41c80d4203U, 0xe60305ea0c2e1535U, 0x40e5bfd092fb3dbU,
  0x2743062be51ff4eaU, 0xf7d5fa14dd1ce9f5U, 0xd913f0b82fe8e00cU, 0xf52bf23617ebf1ccU,
  0xe6fdef142b5f0b05U, 0xd8dd0a180f08c802U, 0xf8dec121210182fU, 0xf13c192b2af9f921U,
  0xdde326ddd3f339U, 0xd2d3f40feccbf22bU, 0xdf27bf1609cf34e3U, 0x2201a25ec0d4adbU,
  0x312b211802acd614U, 0xf702cfafe255f939U, 0x2cfcde26d808fcfeU, 0xf20d3ef7bad8feebU,
  0xd3482513ddc934e6U, 0x17dc00dccde1dadeU, 0x341b081f26453720U, 0xa40620e8282eeb35U,
  0x2fbe128d4ef25ecU, 0x5d4ebdef12220ebU, 0x54fddd00f4ed3cf9U, 0x41eff911e9cde6f6U,
  0x3838c6ec121ffed0U, 0xe01d9c9ea1713efU, 0xfefafd02c01e08edU, 0x3ad2172fd2251d12U,
  0x2254ad5eb27fbc9U, 0x45b2f8f3083900daU, 0x10eddcf9de142005U, 0xcba5ff1ad3fdf7d9U,
  0xfbcf3602de16e6d4U, 0xe836e41826ff3e28U, 0xd8bb232804eccc0cU, 0xee1beb023608f104U,
  0xe4eedbe10d0bfd27U, 0x2406ede1ac00162fU, 0x1747270c21c3e3ffU, 0xcbd4e9dff5dc22f5U,
  0x200060f3ceeecbaU, 0x1a2af9e8bb0d1a24U, 0x13ddec23eaf3e9f0U, 0x34c2fa00ee19f4efU,
  0xc6181ef9ea1a29fbU, 0x1504b3eedf242719U, 0xfdce09f5212ada2bU, 0x2219ee0c111f6906U,
  0x2d14f8f6ffe33be6U, 0xf098f3a5330a3349U, 0xed04ee1a0b1e2de4U, 0xe126e5e30a3d05e6U,
  0x16f3f6decc1a1625U, 0xe2f8d0caf9f4f1ffU, 0xc425f61cf412fd09U, 0x17810fb5e7ecd9U,
  0x17e4f47feed21a00U, 0x5ab5319bc24ee36U, 0x1d0ac81ab4f92cc0U, 0x3e481307ef0e082aU,
  0xd6ff1147f3b11830U, 0x3b2d2be0912dbc2cU, 0xdbf6123b0eb91b3fU, 0xe4fa1a31300fae3eU,
  0xe0fede21bb11ff0fU, 0xf5e3f818acf721U, 0x5bbf735240fd410U, 0xe731e40019f4ff46U,
  0x24b229ea122d3312U, 0x2a11fde6f127b302U, 0xcb3201ddd5171411U, 0xc7d0efb09420c2aU,
  0xf4152aed010e8d33U, 0xc831edbcb606e62fU, 0x4ff9e1f2230f1b13U, 0xf7112001f3e0e2e0U,
  0x10ecbfe8befa1742U, 0x4f2320e70a3cffe8U, 0xd5e208064844332eU, 0xafafb2a2cb40bd6U,
  0xfff8ca52cc13fbdbU, 0xf5fdf4efdc042cc3U, 0xd8290a0320b9551bU, 0x131af533f119fe4dU,
  0xfb2d180de2081e01U, 0xde53e9d82230fa2fU, 0x4ef5d92a2ffff408U, 0xe5d1e02bee02f53aU,
  0x28afa21e09302130U, 0x135f9e808eff01aU, 0xad1cf000f25c0daU, 0x9fc062123e3ebU,
  0xfe06be24de040211U, 0xb8ebd9f31c0feef0U, 0xf5161ff520b92d14U, 0x1736180609bf1e1eU,
  0x30ad2230957e2f7U, 0x3535f30f2e11e427U, 0x3a25d02cf1be6f18U, 0x16c400c02d410bf2U,
  0x344dbf30c1f193aU, 0x165f1100111bf0b7U, 0xfcd8d409ee22e618U, 0x41fdf5af03d4fbe3U,
  0xe2a12e1f83cae28U, 0x29e4d61c0f39bfafU, 0x2234e332fafa0618U, 0xc8d95f04fcef10d3U,
  0xc8edf23814cadcf5U, 0xd802dcf6af0a1005U, 0xfe07cefd31a8062fU, 0xcff4341cfe251ff0U,
  0x5d8c7e8e4120c01U, 0xf546f8d213c0ec28U, 0x2329024cb8d11b33U, 0xebf5f909a44adaf8U,
  0xf71fe4f60d02fd1dU, 0x223026d9224d0c01U, 0x1605edfedcd417ffU, 0x22322d9fffe11eaU,
  0x7ffc0bca45f9db18U, 0xb2f95d011ae7f52fU, 0xcf29f3e044f89a1aU, 0x17f3e148f90525f0U,
  0xedaef0459f03002U, 0xea1ce833f5260f06U, 0x1ed90ec6c0d62a0aU, 0xc4e9a7e6261e1e14U,
  0x4b1280b1f0f2510U, 0xadfa0b02e765e6e4U, 0xe221ced6e44b1ebcU, 0xdc0c0a57c224c6e3U,
  0x16f9332e96131515U, 0xb807033dd918b43dU, 0x13ee1cf4c2d2f42dU, 0x2ac5dee90c653735U,
  0xda7301e52e0d0427U, 0xeb12c4f618ed2609U, 0xe2ecf31a23bcf2f6U, 0xd1f21aeff41bab15U,
  0x2a421bc8fe1cfc12U, 0x2409b20f100b05b9U, 0xe50206f3dfe503d6U, 0xf051130a362a1ab4U,
  0x2007f4d6d7deedb6U, 0xdd9ddf2041efb43U, 0x27dc5f5fc837d614U, 0x4618b2da20ab7fe2U,
  0xc80a32410d25172cU, 0xb053efbe03b8b02U, 0xc0ed01ba06d8fce2U, 0x1bfad40f6fe99c8eU,
  0x22e23cf31d30fb0aU, 0x45c94225cf28cedfU, 0xeeeb01d93cf60455U, 0xbdcfbe0e30feeddU,
  0x8e3fc41c252cb800U, 0xcde0f6c211000625U, 0xe0fd18c3dd0fc7d4U, 0x51d30a13351f01e4U,
  0x270ce1ef3a2211acU, 0xcf0131e775cbbf0dU, 0x52c062020e6dab5U, 0xc0cee6491e2c252cU,
  0xebd8adafec323146U, 0xfce7380c32e7def4U, 0xdcf9d413f0f83fe4U, 0x670a381a170f5a2cU,
  0xaaf7a52e4d21dbe2U, 0xe046c1ffaf19d3fcU, 0x2f0deff530cc0aeaU, 0xee1fecdde4e7b51aU,
  0xb5abc0e3fd100028U, 0xd4e1f900e7fbf3f4U, 0x1be6d7e432553bf8U, 0x17e509fcf42548c0U,
  0xef14e5f90be61439U, 0xb913200c041bd0bbU, 0xf918bdbf53e51c11U, 0xfd0ef3e2d4e9ea13U,
  0x232f03bbbb10ab3fU, 0x47411bb1008e5d1U, 0x4c1c0519fadfe5d2U, 0x57ff0313090b4026U,
  0xe20fccf92ef91df6U, 0x29f72ee1d8fdf117U, 0xecdaf2dafbf61b10U, 0x220d18dd12e4bd03U,
  0x706f281f6e06035U, 0x9bed6fba530f416U, 0xe50eccfec43aefd7U, 0xc4ebe5dffb0ac705U,
  0x2acde02260a12c1U, 0xeeeb0527e624ea0cU, 0xedd334c30a8fb02U, 0xdc1409e90efcdd31U,
  0x12092236c1d3e635U, 0xf5050f04e0f9f0caU, 0x33eb32631efceaf1U, 0xf7f0ecdd0a074321U,
  0xad502131d160cd0U, 0x110d1700e41a0d07U, 0xc2f71a201cdf0ff2U, 0xfdfc3318bdefeb1dU,
  0xf70aecf80b2ef60dU, 0x507d136d2eb04f7U, 0xebf30a24126201eaU, 0x8c31e083d2705f7U,
  0x100e0906e2ebf20bU, 0xa13fd4618f30d0dU, 0xd2a33fd1430f307U, 0x1cff1b4d04fb1d1aU,
  0xfaf062041d1d17fcU, 0xf7f52606ea0f0f0fU, 0xfdf0621d1ef20ef1U, 0xff1913da160e0f09U,
  0xdcf0f6c10af934d2U, 0x1aea4e19d2181e2cU, 0x1b430dde0a10e7e8U, 0xf60f2af385e52703U,
  0xe0f0caf32fd8e900U, 0xeeea3c060919d324U, 0xde8fe29f1163230U, 0x7f8cd24271844e7U,
  0x140e13472de307efU, 0x121cfa05000fd2f9U, 0xabdaf93aebfd00f1U, 0x3010101f0d1e302U,
  0x3a263a2110e33020U, 0xf0f62f091ff63ff7U, 0x3736edfee735c7d1U, 0xa06f0bbe5e31cccU,
  0x904e4f71d38ee07U, 0xb8d024352a0e3ad1U, 0x3d0ae3d9e4cc65ffU, 0xf1a0522faedc41cU,
  0x262f24e1e4152906U, 0xfe1cda63271700edU, 0xf0d726cf0fffff43U, 0xfb0bc31417f1e2cbU,
  0x141017d9f20d2ffcU, 0xc7161ffd38481beaU, 0x808cff12012f123U, 0x13db0931effb0508U,
  0xf428181d140e27feU, 0xf707e22f12cbe015U, 0xc9cfe73c13ea27f9U, 0x4bfab7d9e72d22bdU,
  0x6e5f1eabfd618efU, 0xda24e62aebfd2edfU, 0xe5da1605b7ffb907U, 0xee0d7f802f915faU,
  0xf909050dfc1bf808U, 0x26bfda3bfcf8a7e7U, 0x2adad10411f1b8dbU, 0xe317f1d0cb0412e0U,
  0xcaed0dfd100fd515U, 0xeeae4dd07d7211dU, 0xd4e6e842ed0b2b02U, 0xec03f413e6221025U,
  0xf2f2f72710fe3de8U, 0xec0323f7093e0af6U, 0x1225e12c0bf10117U, 0x29e41c1824d4d924U,
  0x25e8ffe8e4cdfd07U, 0xcc29e612d021f0edU, 0x3af0f626b43a1b1eU, 0xffe2e3d062c24eaU,
  0xf2032400fbf5eee7U, 0xea32faeb031af7e8U, 0xe9e6ebbbd90afee4U, 0x2a1d120f11170b0bU,
  0xf7f8f7e01a10d5eeU, 0xec3fe6ed2ff0f225U, 0xfef31cf0170522e2U, 0x320304122ee014deU,
  0x19fbf7e0d63b01feU, 0x90d2ff50cf1deedU, 0x28d61b2be2f80932U, 0x3e70f1fe8e8ffU,
  0x102716c0f722ddceU, 0xfe0edf02e101f5d9U, 0x14271edadec2fcf8U, 0x7d00b2a3f06d510U,
  0x13eb0bd5eaea0d04U, 0xa516130841e2f9feU, 0x14ede4b91dc90d0eU, 0x133cfe1411dfedf0U,
  0x8f60f150df138U, 0x210019e99d0a10feU, 0xc33c263efaf1df1bU, 0x241c04efe3eef725U,
  0x308ecf4ef011506U, 0xefba29152424ee33U, 0xe70f19de1c01f007U, 0xaeea07e400d91919U,
  0xbf9fed8d533fcd3U, 0xea29f917fe0103c2U, 0xc6e7f1eccf22f7e4U, 0xeaf807d4f34713c9U,
  0xd7caece7eab6f103U, 0x150bd15a325a1c20U, 0xdb1140539f2d621U, 0x2309d4f20cfbee11U,
  0x1e0431ea17c20d0aU, 0x4408f31a00fa11efU, 0x3fdeae4fcfdc7efU, 0x2303edf01cd8de13U,
  0xd7d6f1f8dd22180aU, 0xf3ffdeeffe1fb333U, 0x7f121404f9fcdafcU, 0xd50c17d42234e521U,
  0xaeb20cbae19ec12U, 0x1bea011fe415fbdfU, 0xfbe90de0250df8eaU, 0xf02f3fa5d04f5f0U,
  0xdfc8cdea3efd2737U, 0xf8f939d4e1f4f8ebU, 0xd0d7ce02dbeff306U, 0xdebe726fd24c00eU,
  0xe9d5da0ef3d13e07U, 0x40bfcf238031839U, 0xbfd5ec29dff543f5U, 0x300612dc1301c348U,
  0x8e2cb1a1b2fdbfaU, 0xea00ea2d22dcf1dbU, 0x4bfd2dd5b9baf3d7U, 0xebdf67aaf83316f8U,
  0xf9f7a41cef0aca02U, 0xf9e6f4d817fa22fbU, 0x4ebc39ffe76ad809U, 0x230e1cbecf176002U,
  0xad0ccb04e21531d1U, 0xd1cc2408fe15c2b9U, 0x15130a24f0d1e800U, 0xd31d381601041ce8U,
  0xd00ae8f6b8040219U, 0xcce5221bcddb00d7U, 0xf30043c2f015acf2U, 0xb50bd8e800aaa220U,
  0xcd0bfe1e3dd20624U, 0x905c925e5813451U, 0x1d05eafd32e8e9cdU, 0xf8042ac9fbf4f9e7U,
  0xe9f500ce315017d9U, 0xe31e070e2410f119U, 0xe9cae500d9e20001U, 0x402247ffef20f0efU,
  0x2fe20afc03e3ebffU, 0xfef6031a4b0b53f9U, 0xef38fa0130bb12ccU, 0x2be51f5d10e608f2U,
  0x14cfc42dd522149dU, 0xecd8fb07462af8ffU, 0x718def3e2f031ecU, 0xd70c1229263d0df5U,
  0xdf11e32b222adedeU, 0xd21b280b3a91d21aU, 0xe3fcd2d8c7f6f7U, 0x2d1cf6bed6f621f8U,
  0xf8fad334e804c09eU, 0xf9f9d6490ba12badU, 0xe8cb600530c62100U, 0x8ed2819ec1b06ebU,
  0xf3141fdd1706dc01U, 0xf403de4b152112bbU, 0x10efce210f101dcU, 0x30fb11ede2fb729eU,
  0x11de18d1f4142328U, 0x2fce8cf241bfc09U, 0xee9fea36c9edfe0bU, 0x22eef6e258fbb4d3U,
  0x1a04ca0d0a194ecdU, 0x32e91a20d802c319U, 0x1af8cf1fe3f40d0cU, 0x1e1ba415db62eea7U,
  0xdb0845f9fae2da03U, 0xf0248c042de3fd01U, 0xed1a0edf1ae11cdcU, 0xde061147ebcd28feU,
  0xef10060208502805U, 0x20d22d2bf60e3476U, 0x2cf722fdb421f5efU, 0xb40c00fdd1f2e4efU,
  0xded3aa140a3c0efbU, 0xeedde8d205eae00eU, 0x4d25dfce252825cbU, 0x1433242edcc6e618U,
  0x33b523f319c80a31U, 0xe7e1c30524441cc7U, 0x3b41e9e302fd052eU, 0xde0a1cea2c2de90fU,
  0xec121e0476ed6415U, 0xe0c4ecd8e32fcc28U, 0xaf212449f8dac20cU, 0xa2c6315f0f70000U,
  0x3bca1ffec71fc10cU, 0xf0acfbdd161b2c05U, 0xd824dfc4d9e91c17U, 0xd3deee8df20e50aU,
  0xb14701fae5039bdaU, 0xde3fb1306274e32U, 0xe1340b5253230a11U, 0x103ed049d6300dd3U,
  0x41c5159d16fc393aU, 0x320b31cf42e6ef25U, 0xc0cf141a36ef1506U, 0x13e9ccecd2ff091dU,
  0xf1d067d4b71e0e00U, 0xfaf8a9dfc8e7d41cU, 0x32e6ccdc2dc617f8U, 0xbf702f1cc31cf2dbU,
  0xf430f9f5f7e7dfd1U, 0x42222f9214462f1U, 0xcaeef69efd1418ebU, 0xf877f2f20f931ef7U,
  0x10e9e8cd013a2f04U, 0xd301ce1ce5204911U, 0x284c65e4cca4e0c6U, 0x1cdce3e3d0fe0cfcU,
  0x1f18fcd142db23edU, 0xde180b0b37f338f8U, 0xe71d46370c12e86aU, 0x160be94b04300123U,
  0x2d2fe01220906f0U, 0x3821c4049b2d15U, 0xfd2623fc06260b01U, 0x73c71f49392d0a12U,
  0x802fcdcf7fd9de6U, 0x1100191d07031b45U, 0x4d226e225f3de08U, 0x16faf51393580cf6U,
  0x2236dd261b2ee6feU, 0x1541dce8c80af408U, 0x2d520881e4e3010aU, 0x4295fe22eed2d04U,
  0x2a61bbf9f7dfcff2U, 0xe0f7dc2100f82053U, 0xd722c5fcf9ebe73cU, 0xe3db4ed705dd05d6U,
  0xd3f6163d18c4fc51U, 0xffc8ee1d0cf10bf9U, 0x5f01336f1c80021U, 0x14e0ca2d2665f014U,
  0x2436e7bde10434eaU, 0x4d2c3840ee010e0bU, 0xfb2828d1fd1d33e8U, 0x39d5f20600eee80aU,
  0x10defbe41d1cf005U, 0x1e80cf406331027U, 0xfec7e306cbd2f8d2U, 0x9fa0f5cf0c02f924U,
  0xcf307c6d4f5cf12U, 0x10f12494fc46e4fdU, 0x33b8d8fec731aef3U, 0xd10af699f815d3U,
  0xebe2aafa140ae608U, 0xaf9f09dabed10d20U, 0x1d081617eaecfe0bU, 0x15211b0803da0fecU,
  0x75fafe2ee521f72aU, 0xb6e5a3f6dbf82a5dU, 0x101b0f63edfd23daU, 0xdb228ff8f22d2108U,
  0x35f0f428eebfd5ffU, 0x24e40a0a60f72e4aU, 0x60ae316da0fd91cU, 0x82f6028d1444ef6U,
  0x4cff083dc901beb6U, 0xc0e6330ad9f51ce4U, 0x5a04d81150fc5e0eU, 0xf7e312f71dd3ee1fU,
  0xfe4ac64adefd2dc7U, 0xdceb1601f9235126U, 0xec16fbc51f36e3d6U, 0xfad3ed28ccaf3ef4U,
  0xffd066c2f9ebe4deU, 0xffe27de113a2200U, 0xd2cc1531ff09f114U, 0xafbcedb141ffffaU,
  0xfae106131ef403f6U, 0xbe0124c74f1f1dceU, 0xecf6b50909b5e6d6U, 0x9853fdb803ebd5d8U,
  0xd4be3415e3ea4fc8U, 0x17d3f109cb1ee71bU, 0xab2009c312b5d4ccU, 0x10d40d100f370d14U,
  0x2b31bd0c3ae9e20cU, 0xfbf208060bf93c41U, 0xf6e0200a05eb0019U, 0xde59d63e00ce021cU,
  0xe6e9330f2cdc0afbU, 0xea08e1ba1d01def8U, 0x16e0d5ffdacce5fbU, 0xcbf426e910ec2b14U,
  0xf1d81fc1af221edU, 0xf5e7136216df0deeU, 0xf3e2e4ef231fe2deU, 0x3e23faf12d15d4dfU,
  0xf952160006fbe409U, 0x150937e60620f5faU, 0x59ee07f91cb0fee9U, 0xeef010094129df2aU,
  0x29e2f3ec3c5208f8U, 0xfe2b34031ff306d9U, 0x7cf330b0a28101aU, 0xf5f003b9f1e212f0U,
  0x124de71eeef6f625U, 0xefbced36a528fd4fU, 0xf5f21c2928241af9U, 0xc634f805e8480902U,
  0xced33ce5fdfcfb0cU, 0xafe71ef11b081d19U, 0x16e5ff1427fb11b8U, 0xe234e6edf96cc7fdU,
  0x2ddcfdd0edc31120U, 0x2af0dff647261d0fU, 0xe129e21128eb1829U, 0xd2cf15f8a6340adaU,
  0x2425090d17fac2f4U, 0xdf17faf52c0a06b4U, 0x3001109dd1b2346U, 0xe6023b04bef50e3bU,
  0xe8152fe3390edd1eU, 0xf99fe64a05dbe418U, 0x10fec424fb4019dbU, 0xd2afef52aee12f1U,
  0xd722e848d0244445U, 0x2203e90c03f5f1f4U, 0x1bd7a2ed05e8f4f3U, 0xf8fa02fc02ed1009U,
  0x33e9db1dd0fe250dU, 0xf2c7d9b6a4dd33ecU, 0xe93647fceacec401U, 0xe11f1ff120ccc04U,
  0x1d1414d25165351dU, 0xe6fd14e83aec330dU, 0xdbee08d307e90efcU, 0x1fea2d0a11d716b8U,
  0x3411db40022244e9U, 0xfbc218d819b6da4cU, 0x17fb12000ae9b3b7U, 0x321b7f506252202U,
  0xb12e9cce9e8e6fcU, 0x34804ed04ef2f04U, 0x2e323f6d91a1df4U, 0x25e3f1f4e404eff6U,
  0x39f3fc0010fff3e6U, 0x5fffe370df6bcdfU, 0xdbe11a0d07274110U, 0x1735c3e0dc01c5e6U,
  0x1af4e10bdeccd0d0U, 0xaad8fec8fefc0d20U, 0x2e0ef6080907e726U, 0xce1112d56ebef03U,
  0x11ce34b3d2de05caU, 0xc603f5edd83641cbU, 0x42f62ba2eff6ef13U, 0x1ae64b2127ddc107U,
  0xf3e7d7271907d90aU, 0xee270ffcb9cf2337U, 0xf720f2150016ce19U, 0x2345f6b3d1cdeeddU,
  0x30a5de0c0b1024ebU, 0xfa3bd60316ee08fdU, 0x47fe2406ed7fee15U, 0x1bf9f1f1ecfd20fbU,
  0xd5e012fb1cf7d8f8U, 0xba1733d5020c2328U, 0x13c5a20719d5151aU, 0xe3ebc9041008fbf6U,
  0xd64ef7df33d1f9U, 0x5019f1270113e8f9U, 0x152bc7f4f402f081U, 0xc221f30be0d206d9U,
  0xfbe0e7edfba1182cU, 0xe069db2afb121a3fU, 0xf274fe08190129feU, 0x27e52ef329d702fbU,
  0xfdf1f7e5fff92211U, 0xbc04fc27b13ff8f8U, 0x132325fafcd5f062U, 0x225ad9b5fce40ddeU,
  0xf5d8fc13f2eb3c2aU, 0xf612f4003ce9b4e3U, 0x74ca080fe01aa011U, 0xc9e3df1644fc39deU,
  0xd08e7baeae9d1e6U, 0xd867dae1fd132504U, 0x41ffb080fc4fc00U, 0x18ae19f03fc91aecU,
  0x9dd721d0dad8e804U, 0x5bce0c0120e51a04U, 0x2cb8f0f9f6e403e0U, 0xf5ffbbc70cfafde9U,
  0xf9fd015318decb16U, 0xe1051a0405e3f407U, 0xef0d38090b03d1e7U, 0x1dde311c0bc1ddecU,
  0x29022b1bf62efcbeU, 0x4efa0cdb0ede46deU, 0xd3fee304c6fcb7dcU, 0xda1e302f040a0b42U,
  0x350d2e63da060de1U, 0xc7001b09131a5604U, 0xe6ec08f204201e00U, 0x1a2136f402fd1106U,
  0xee1f07a80ee5f6faU, 0xf9e60121010816d8U, 0xe448c3f9e9cfb0f8U, 0xecdd07de11fa0bfeU,
  0xc214314f05eefc06U, 0x60beb3e4cfa43ebU, 0x28e6d80c2b08f72dU, 0xfe131adf03e5da2cU,
  0x18f6200c23250205U, 0xfaf5fae0c3c137dcU, 0x50d000fdc01d813U, 0xf7e0120b28f1fd27U,
  0xd3ffec13d4e7cfbdU, 0xdac72e4224c24cd5U, 0xfc01d9f123f8d4f8U, 0xe15d73505181f15U,
  0xfaf80c2ed4fc1d0dU, 0x170c33e61df41bceU, 0xc7c22631440c1b0cU, 0xf11403f3eecd2e04U,
  0x1d1dea161cdf0e1eU, 0xf8fcfedcdbdeef14U, 0x131a17b6e3a5f317U, 0x21def9f044cbff09U,
  0x3609d100195807ecU, 0xeae7fb2ef52be5edU, 0xb380f0f08beebdcU, 0x6e500e849223bf4U,
  0x5ea0e0b041726deU, 0xcbf507f1fb13f9eeU, 0x17fdbeed1429092eU, 0xccf3fee2f6e3f6f5U,
  0x9bb0aecf50bfcf3U, 0xfadb12fe12f20ef3U, 0xe3db2af5013407efU, 0x820da0cf8facae7U,
  0xdec0e63018eecad7U, 0x111c07eccafbe62cU, 0xdb29fc4b0e0536d2U, 0x3225f5e5df0ae419U,
  0xfe14bceffef8c2e8U, 0xe8160f1a1d0e280fU, 0x81f11d410ef2df5U, 0x5cc1820e502edf7U,
  0x1ac5cee6f5f40bf4U, 0xa23d638e1e905f3U, 0xe211ce00fbf412f8U, 0x4b260efff50803f5U,
  0xd60bfdcbfa2df310U, 0xf7061113661caf17U, 0x4611f1f1e0c932ecU, 0xc529ed4deb29e714U,
  0xe5e509e3e2c6cad7U, 0x150504153ddb02e8U, 0x4ad204f4091829f3U, 0xff1debf5f6e0d40bU,
  0xcf0613200b1408e9U, 0x49f4fa35eed91230U, 0xe52d0be9bf01042cU, 0x230e293897321e14U,
  0x51f8dbfbffece6e9U, 0xe92b0a0709f8c6f5U, 0x2006392ee52fd5eeU, 0x716f70fe1e4ed38U,
  0x2ff1e7ec33101018U, 0xd6db0d108140dcf6U, 0xf519d0f2f6eaffebU, 0xd81308e5f8fd11d0U,
  0x41bfe7f43c10dd0aU, 0xe0e90816dfecf4f5U, 0x111fd0d917e9210cU, 0x10e512f02fe22b06U,
  0xe534e80b13fc0c2dU, 0x240e082f0cd89e0fU, 0xfcf3fbe32bc3f207U, 0xfb341ee709bd0cb5U,
  0xae8122d253b0005U, 0xebf4184e18e8081dU, 0x707ece5fdd621f6U, 0xfede2f13df07f70dU,
  0x1dfeffed1bec130bU, 0x31072e17102c16dbU, 0xe90d1e1006e90038U, 0xef710f30bf9eb01U,
  0xa81ae6d8290a0318U, 0xe717fef9efff03f9U, 0xf6e6cb06fce41610U, 0x291b29ffeb1cf807U,
  0xf124f01f572d18e7U, 0x67240517f617033fU, 0x608ff4530f90e31U, 0xbda355300301805U,
  0x73eee2fe036090cU, 0xed092ecdfe2e1540U, 0x322b2731d8eca5fdU, 0xd1f023e9330fe610U,
  0x2cf0f7ff3b0217a8U, 0x2659e0bc07ebdd32U, 0xa31f26fecc15fe1cU, 0x13bb4546e09d37e4U,
  0xe13beac817b70e2cU, 0xf8ef113b2ef40434U, 0xfbd9e41d182cff21U, 0x1926de0400d40915U,
  0xf61afde5e9f804c3U, 0x20ff93ce50cfe0aU, 0x2d361d1bd9ef622fU, 0x2fc5e192201ec08U,
  0xe2412b02dbf225f9U, 0x3cf3ee20c7d73e03U, 0x1fc6eee3dd2425d5U, 0x29f40802d7f00cfeU,
  0x391c05ed26e5fe07U, 0xff25e6aeb6c3e69aU, 0xf654d426a8f62542U, 0xce12fbd72e15f6d9U,
  0x2d24e6dc26fb2212U, 0x171ae3f5dcc032d8U, 0x72ef152320ff42dU, 0xf9110ad224401955U,
  0xf325e0d7b925e040U, 0xdfd0ebefd3c555eeU, 0x3ae8f1df2915361dU, 0xbb02faf50135d0dcU,
  0xc01c0156203918f9U, 0x145cd8d9db0b1befU, 0xe332e1fbea7fe35cU, 0x19b6dde4cc2a68e7U,
  0xf9e4e502f432f9ecU, 0xd9eee203d5c4e1f2U, 0x310daee2080bccdbU, 0x2a3cc4e33a10fcb3U,
  0x3c211006e8015232U, 0xdf4a0d2107ecb7ffU, 0xe23f7228f4d600b8U, 0xf8e308fd2122f5f4U,
  0x12f40e60ee283110U, 0xf20635edcfe705ffU, 0xf00df855120ff003U, 0x35d61eead9d81fd7U,
  0x3bd01d09fee0c212U, 0x11dea11af302e730U, 0xb55e3172bf4e9c2U, 0xf7f11dce16b60fdaU,
  0x143691e312ddcec2U, 0x17d4ec271d19f418U, 0x1a1406eb321a0e0aU, 0x1627f0eae9b4db10U,
  0x151207d1d521ad21U, 0xdea6e536fd420753U, 0xe41318044d2b0100U, 0xe9b5cde4ced9f0cfU,
  0x7e111da08c7dafeU, 0x2830e34ec909e69dU, 0x43d3e63f242edf05U, 0x3dee3728faf64024U,
  0x30edef3dce76e14U, 0xf614d7201d02ca3dU, 0xf552e42e00f1fbfaU, 0xfd28c3911e2518e5U,
  0xffc0501d9f4beeeU, 0xd8421906f5ff1503U, 0xe0d5f4d2fbef0a37U, 0xfab407cfebee0402U,
  0xff52c9fa1ef2d71aU, 0x1f3418df10cf0418U, 0xdf50b3119cfa9caU, 0xf80e2d070bbb23U,
  0x2af2ec163c20f539U, 0xf2b904d34f170412U, 0xe0f34f9f009082dU, 0x2c2f11002041e8e3U,
  0xcd09c9f13518004eU, 0xf502b2f5ec272424U, 0x2bf9d114f8f1ed29U, 0x64ce718f8134af8U,
  0xcf7ffde60e04fffaU, 0x1b0c08fddff0110eU, 0x2bf10bd692f8befdU, 0x3c001fd3eadd5e15U,
  0x461cd035011c5602U, 0x1d3c0a3c15f40b12U, 0xe3f81a1118c4f9U, 0x2ad8f6d3fff4de4eU,
  0x181a31de220ae90bU, 0x36eff1051ad5da06U, 0xd02bae030edf4ae9U, 0xb7fb250ee6d8e913U,
  0xeaea55f8180507eaU, 0xb8faf4e5d1e9c801U, 0xf0f435d81c210943U, 0xea0f3a41d3f1fa05U,
  0xc12a0bfcff1ae7daU, 0x1cdc010a0954e2f0U, 0xf8100bf20dcbf20bU, 0xf2370100d8f7371eU,
  0xca31caef0926dc05U, 0xd246e616de1e14f1U, 0x160ee7121905f723U, 0xe0fe25cbb4d5e9e0U,
  0xd1ad20113f81b28U, 0xc10600f1ed0d042aU, 0xcff03310f71ada15U, 0xf8d311f0d3e1f0f0U,
  0xcceef4ef212d3e08U, 0xd8d2f9212728e3f1U, 0x24060d2a09f10703U, 0x407e53718eedb00U,
  0x9d8350df2d702e3U, 0xd0d0ff1e9cddd39U, 0x3dd8dad2e6f41b3eU, 0x1213f3691dcf27efU,
  0x9ca13461cf4de36U, 0xfe10f5273cdff03fU, 0x2cea0036e9121cd6U, 0x232a0704eebcf9d7U,
  0xd7dfbff2273f072eU, 0x30fe11e27fd0400U, 0x40be0a1202e902ccU, 0xe019c32bfef537feU,
  0x29ccfa0eec24e5f1U, 0x3301bc28070604c2U, 0xcbbc08061e19db07U, 0xe9f006160823cdf8U,
  0xa192fe7f202ee1dU, 0xf4020ba3dcd03809U, 0x2f0b02372aeee2b5U, 0x347fdd0d8dc0af2U,
  0xe4cde0f3ec1dfb11U, 0x2017ea3ed1b7fb09U, 0x3539f8310e450511U, 0xd0440002c82b2cf9U,
  0x70af612e2fdc6d6U, 0xd4eaea29fad8de48U, 0xf405f3cfe2002f35U, 0xf12704e70ffd24ecU,
  0x902bd0a12e8e912U, 0x502ef00d4daf601U, 0x30519e4e70ffd17U, 0xfc160b1cd7dcfb04U,
  0x1c1cf554e009eaebU, 0x4f2821f906041a76U, 0xcf51f8091111d6f1U, 0x30014bad9110c09U,
  0x520ecd209220bf1U, 0x1ab2f5fe2507f603U, 0xccbdc4dcfcfbebf7U, 0xdb0c2107e6e5120eU,
  0xc1fe151f2a27cbcbU, 0x1dfc13bcf32bfdfaU, 0x23121504a412dfe6U, 0x12290714f6f0200eU,
  0xf90e1b05db2a07dfU, 0x1e0ad034ea51e53bU, 0x4d17f6181f22e0bdU, 0xeef74b210fd83bf9U,
  0x6df0afae3f314faU, 0x33e219dcd020efd8U, 0x6c71604e81d03b6U, 0x240cd0f0fe15190fU,
  0x1418ebf5d7e915f7U, 0x2821f22aeee581f2U, 0x1a1c2ae9f6fdfbf1U, 0x173f0e1ec516b10dU,
  0xcde618140600d337U, 0x1bf7ee1cba16341bU, 0xe0fbeb16f9f5e50cU, 0xeb1705f1e5d20ff3U,
  0xee05d1ebd2c5c0eaU, 0x2229f8e9ebd9e3fcU, 0xab27d705e3dfe420U, 0x5d271ae41b0126c5U,
  0x36cc27151deaeb16U, 0xd8ccdd110ef303f8U, 0x34d00dbc0023d4efU, 0xf7d30a58251211dcU,
  0xce0ffff908f7012eU, 0xd20d04bbc2210f07U, 0x2207b9f0da03021aU, 0x9fedc1bfaedcd16U,
  0xebd203f817eadcbbU, 0xb4cdff05e3261106U, 0xff61814ee19fd19U, 0x34e663f70831d416U,
  0xdee115d50acc141eU, 0x243b09000b11d6acU, 0x173623b603e33025U, 0xf9f6f822dcd8cae5U,
  0x2e0fff548bdb827U, 0xf636fa26d6fef3efU, 0xe4261d5701ffe9f6U, 0xff06bf700bd620dcU,
  0xf5100900eb24ddc9U, 0x333f4dc0827290aU, 0x11d8f523d7160c30U, 0xf01d4af0660c08d3U,
  0x16ba1b0eb6d2fe3fU, 0xe6fd0c4410c5e10bU, 0x3de6e5f21333d50eU, 0x110a631bd43d04e3U,
  0xc8eec20a1d0b1cd7U, 0x10060c9def0c16d6U, 0xa14d7f1f5edd4d7U, 0x1d3221023bd5e939U,
  0xc4f6fae2754301eaU, 0xe5d6ed02ccf80fe9U, 0x18c411e102fbe6c5U, 0x190842ff16e106fcU,
  0x25f7bef9af33f121U, 0xcb0ad5eff509da06U, 0xf52fb1c4e711e9dcU, 0x7d808f8f60ffd0cU,
  0xff0b014148dbf319U, 0x450de8262dd2f726U, 0xf22246090431fdf1U, 0x231ee81d0a21f905U,
  0x24dc1cecfb1d2408U, 0x160cee046c893f03U, 0xca3a10f1321e14e8U, 0xef0a3de3f9a4efc8U,
  0xfde8fa20ffa90faeU, 0xf724091ec513e020U, 0xd1fc6e413097b1aU, 0xd615b41c110a093aU,
  0x3831aee3ed080d24U, 0xd061fd3687dee12aU, 0xd1f9052d140f0040U, 0x23123d20f90b12ecU,
  0xfffcd71d274e26fdU, 0x3ef944d20fd33f11U, 0xf6ea1023f5020417U, 0x1e04f6dc27dc2bb1U,
  0xf5ec0d4d21fefee4U, 0x39082e28fa10f807U, 0xc08120ff11ff0bdeU, 0xe1d5e30ea4edab7U,
  0x35cce93f26f03029U, 0xed0031312cb7250cU, 0x6c11239f7dd0330U, 0xf12100062fe250e2U,
  0x26db0aeee9f31565U, 0xca0ec32dec4f0cfaU, 0xf3e22ff74607371fU, 0x120149cbda102058U,
  0xf1c9630ff834e61dU, 0x5c091d10ebc23e0bU, 0xe3dc3becf81bd8dcU, 0xcdeeb6ba0836fef8U,
  0x52c221c051a15edU, 0xea13bffc3d0cf334U, 0x1cdaea130914f400U, 0xe42ef2e56d36ed12U,
  0xfde7ec13cf02a5ebU, 0x6f70c01f7112afdU, 0xbe15aafa58f73aaeU, 0x33f907fdbd33fdefU,
  0x6e2621ee0308f801U, 0xeed23be5ee2109f1U, 0x47c21106e3a7d033U, 0xec54f1e5e6222bfaU,
  0xfbfef3e30af727e4U, 0xb80da912280e25e9U, 0xa9fada2e39ffd134U, 0x41b5fdf897cc0f00U,
  0xf21f0a2de2d71bddU, 0xe5ed3ef0e246e1e0U, 0x3f9cf190f9dbaf0U, 0xddb906b8cac1e421U,
  0xd4ce13f728fffcddU, 0xe477eb0b06f0f823U, 0xcded8b9cf09eef4U, 0x4f48bc20e75714beU,
  0x1d29fa0af714e5eeU, 0x1914150900f6eb0dU, 0x1a0409cbf62f0af7U, 0xa4cef7f9333d014bU,
  0xe3b804d8d1ebe4fdU, 0x6c29aa1614e88c21U, 0xf8cbe91ba4ef1f19U, 0x16f02f1b282cffefU,
  0x64e613b6e51e2edeU, 0x7d7ca65551e542cU, 0xdbfe411e003cfc03U, 0xdf023238d7c2110cU,
  0x3248de14d4de24e9U, 0x15fbffc010eafbefU, 0x200cd172ef22816U, 0xdce702ce0efed0f7U,
  0x11faf3eae6e9e6U, 0xfe9010618ca6e47U, 0x5799f4812e34322fU, 0xe9e80820ea15e1fcU,
  0xf52d2ed92e3be1e6U, 0xe5071c0fdf12b6feU, 0x8532bf61d2ae5efU, 0x1872f6ba4f2ff004U,
  0x301e80102c122f7U, 0xd0e52422e718c400U, 0x10ca20ce1d1fe2d7U, 0x2df4e5ccfaf54118U,
  0x7d6dbd80fc2f3ddU, 0xdbe70ee1f905baecU, 0x16afed40eddc1514U, 0xb5f31a334707dcd6U,
  0xa2aed311ecde8f7U, 0x4f001326f3e7e703U, 0xd8f331fdfe0910f5U, 0x2034dcfe3df0526U,
  0xe6f9f5f0bb03faedU, 0xdf3904cd322635U, 0x12b32ae50206c6a8U, 0x5e91ccb1aa702f9U,
  0xf55221ba02052016U, 0x95c9eb0c21005d0dU, 0xb508e035ef1946e9U, 0x7c9061cd808f820U,
  0xdfe102f3202dc73cU, 0xf9dd4326f6f6ddceU, 0xe5171ee2140413edU, 0x16f6fc17fa19c700U,
  0x713040bd1f50f1fU, 0x2ffb0f0c624e400U, 0xdbf7191f1406e01bU, 0x23e80af5142317f2U,
  0xbef3052b4023b803U, 0xe10febf537d21bddU, 0xedf1270835035bf4U, 0x22d8fb3d12de45c7U,
  0x130f312f072dea21U, 0x18ec0218f1fd19fcU, 0xef03e209e31002e5U, 0x2514e0dfdaf907e3U,
  0xe9020b28fc3728ffU, 0x1f071326aa0947e9U, 0xb12f0de3ddbefe6U, 0xeb1a4100ff191216U,
  0x59d9f6185a22e745U, 0xc1cfe8c23edf16e0U, 0xdaaadb0004e5efe0U, 0x6250132f5d51f0dU,
  0x11cbd3eb1a11d7d8U, 0xedd1ef36e6f60bf5U, 0x23e9c2c4b1e0d8f3U, 0x2df328f8f613e312U,
  0x20f8f3fadff12fdbU, 0x214639d2d7cf26e5U, 0xe70403fbdae726faU, 0x1eb93f0001ff3ee1U,
  0x5b262816f01904c6U, 0x18fdf6c65a2a23f6U, 0xcefdf42e3b17e3fbU, 0xef511106f0043fedU,
  0xfdb5e72833430f2bU, 0x10dcfaf12ec821b5U, 0x23e00ced2108f8f9U, 0x2920f9182811e312U,
  0xdf09e5dbc510d22dU, 0x1515df41b415fe26U, 0x2c1dfffd29e81f2aU, 0x4321718ea613533U,
  0xfff31d2ac6f5ed07U, 0xe45127e0e5fdeb0cU, 0xec10d366271eed09U, 0xff12f6fd7f08fd24U,
  0xed0f3026e40bf62aU, 0xe24507170428050fU, 0x1b15e0d10728c929U, 0x1fd2e0f71f373cebU,
  0xd00c322202ddfae0U, 0x652c67b15116dbd3U, 0xdaeee41cf2c017d7U, 0xfb1c2dff38d9bee5U,
  0xecde29cd0aea02f2U, 0x2ff2112d2e0e6102U, 0x101914e7260308e5U, 0x16e30424ea32fbf9U,
  0x22a9f543191afb0bU, 0x1e5e329328d22c19U, 0x1923f0081ff7020dU, 0xd0e7c9e805edfabdU,
  0xe006cfda27019cd7U, 0x1b1d1b11ca36d804U, 0xe0cd51c092af007U, 0x2837ea47c647d7f5U,
  0x1de6a3fcc9fddbe6U, 0xf811110dffe61dfeU, 0xf7243d2d9af6fe10U, 0x15f41a26effbf204U,
  0xe614ca19fbd404e5U, 0x82105e632fd1813U, 0x6ea0ffbe5241b40U, 0x32131937db2b01d8U,
  0xf7e46c0c81b109faU, 0xd808d1dc0b063620U, 0x291031f31cf1e0ffU, 0x29f81dc8ff3716f5U,
  0xd00628db0d15fce5U, 0xbeb02131717d53bU, 0xce023913e0fb25e1U, 0xeef4ea95186031e7U,
  0x1d1b07f50703d3e1U, 0xfced04a4003813eeU, 0xc13ac6e1ff2af0daU, 0xf21afae5f412f32dU,
  0x2519d6da10c2dfd0U, 0xe8e1041af5dd0fdeU, 0x1804edd444f320e7U, 0x1614f3f251040e2dU,
  0xd16cdf128e25b06U, 0xe40af7e32ef207dcU, 0xb71fede50131e617U, 0xa60408f1f4b053f7U,
  0xe014d902f40b0302U, 0xc8e0ebd2d5e412e3U, 0xd1c8f90ef3ed38a2U, 0x2c1603a4f50befd5U,
  0x33ef1d0415fc18f7U, 0xf5d8322310cf0136U, 0x1019361b08c9050fU, 0x40efff421a360dd8U,
  0x2a1707ea3a10dee6U, 0x106925bf421f73dU, 0x1e04090805c8f302U, 0xe0c6eef4f1c1dde2U,
  0xd821fad0ecead94bU, 0xc421083019e0dc0fU, 0x108e0f1218f31422U, 0xf9f6d9ff0fdb1517U,
  0xfc035a2224e018f4U, 0x1ccfe701f5151811U, 0x7132916d22ffbe1U, 0xeb2a1715cb15e1e5U,
  0x238294ce5f961f4U, 0xbf6e4c1eeb9cbe5U, 0xe91ce6fb50bbefdeU, 0xf811150c0f1c16c8U,
  0xeb60122ffe2b0e3aU, 0x1310cad0471ac2e5U, 0x2afe06feed4310d5U, 0x1dfc11fb093c1cbeU,
  0xd430f14c911fdd7U, 0xf010f3fbf01bee06U, 0xc4ec39c3cad8cc10U, 0x2748f6d810ebf226U,
  0xd0eef311d55e0f8U, 0x25310ab1506e0ffU, 0x431fd511def618d4U, 0xe7bff9bfdd1622aaU,
  0x201171060c0cf308U, 0x31728fafae92815U, 0xd2f9e0c5f304f428U, 0x2ccd0f39052263fdU,
  0x34271318fe03ccf0U, 0x9322ef2b04f24cdU, 0xa50db18000fd9f8U, 0x4d1160167f31845U,
  0x2adbdafaf6fb27c5U, 0x534d1ff31e3d6cfU, 0xfaeed9282ce40a1eU, 0x42c1f09e133122eU,
  0x18d101e72b08d2b6U, 0x1fe61c0ee004c65aU, 0x3affe308dde161ebU, 0xd2ed43141219ebe3U,
  0xfce9e2a6f5c952c8U, 0x1916f5cb10fb060bU, 0x6f2f204c8dfcef7U, 0x1430e5ef0b1a2015U,
  0xee3a06e5f9101401U, 0x171a25584ee81044U, 0x32fdecfd08f6fffbU, 0xdf6cd0f11f3bf73bU,
  0xd7ad31e3faf72e21U, 0xeed231f60a180ff8U, 0x1f3dbe712e02806U, 0x9a0effee0f483031U,
  0x3004d40ca6fa023aU, 0x113df2f51bf0e8fcU, 0xe9dd16ecd40b14c5U, 0xf603d61811451117U,
  0x4529ff0104170125U, 0xc53731e94b0e1ffeU, 0xe8232c24c01c0325U, 0xc9f5ef5cee36dfcaU,
  0x40e36d1be49e615U, 0xf00115da2a1419eeU, 0x35015e1fa13d72cU, 0xdff4ca14f7e9f611U,
  0x1024ffb700df1d18U, 0x2b8e805e112f852U, 0x27ed33ba21140e01U, 0xc1f5e0ec05352ac5U,
  0xe2df02d7fa00a97fU, 0x2442e340390ac01fU, 0x37d1f10440dd7705U, 0xb0203d22b08ce2bU,
  0xe6e8d81c7117f4faU, 0x160fef0aebd105ccU, 0x1108e0fe644be162U, 0xcb01081b05c803ddU,
  0x240ef4e260270caaU, 0xbef1cc0c3ae9ef12U, 0x4013f4eed9120c3fU, 0xef0414e9d06510e7U,
  0x9ddee31f017e220U, 0xc8d56419f6070e2aU, 0xb0a907002129f5fbU, 0x4e0ef0b1fbf528e6U,
  0xe1ec000730e3c520U, 0x4306063b30ede11aU, 0xd120eed5fda8d93fU, 0x26e0e4411c14f1f8U,
  0xc14dee8000a0c07U, 0xfabe27e2e91ff6f3U, 0x430ec4501ee853dfU, 0x43cae6df0e13d3c0U,
  0xbfc5c5bd0b2fe3f3U, 0x390f41102d04ed32U, 0x44f5d3cbf7d84fe4U, 0xffe8e5163908225aU,
  0xcf53dce8322fd37cU, 0xd8cf10ec32d2db12U, 0x89de6230d40a34fcU, 0xed01eac3fcde1429U,
  0x41f1f63aeeeb05fdU, 0x300ffb24dbfaec06U, 0xd212ff94f8d7f0d4U, 0x594908430460f8e1U,
  0x1bbbe0e2e3b111f8U, 0xf37b32f20a7f68dbU, 0xf5e5c7bbf90d201eU, 0xe4d7eaef09fb130bU,
  0xd94121051b01f6c4U, 0xde6182ac5facd1bU, 0x9dae6fd2a0e18U, 0x3723f8ecd51108d4U,
  0xfadbf5a5ebcdf1e3U, 0x2bce1738f7061debU, 0xb30410200025acc8U, 0x14141315314ace1cU,
  0xec9c6ed22da1039U, 0xd31e1a042de7ccd5U, 0xf4c5d82137a9f12bU, 0x182e1708280d3c17U,
  0x3a19f4b4201bea8eU, 0x321f0c2f0513c6f4U, 0x3d060a0511df1f01U, 0xa8e9eaa708270815U,
  0x32f95bfdd7fcd3cfU, 0x41cbb1e2f3d9e023U, 0xf3b6fa0010dd0de8U, 0xd2f0dcf2f6d6effeU,
  0xeaf91ffd1b0de9c3U, 0xc7ff46f2f3031017U, 0xdee20bedc3ffe2e7U, 0x22dc111df7fc200bU,
  0x3c34dc2130f1d41cU, 0x34f11912203c061cU, 0xd12fe51f096bceeeU, 0xf1e4310939e4031cU,
  0xe32205cf29eed0f2U, 0xff130ef1addfbfbU, 0xe8ff08d0d312e5e4U, 0xb350217f110d26fU,
  0x12331a21f99ff709U, 0xf7030d1079100107U, 0x1eeeefe0d14ddf8U, 0x7eeda16ddfa26cbU,
  0xc91510eb38f01309U, 0xecaced0b01e21914U, 0x29002800e90e14e1U, 0x11cf07a2300b2a35U,
  0x1316df16cd17180fU, 0x9f200ccf4e2ed40U, 0x14d0eee51532f7acU, 0xca03fbefa1d4db13U,
  0x10040304fa4a521cU, 0xc2c9dc1c21f7fbf2U, 0xeee4cf0bb7cefeedU, 0x28e5e81c30fdc6dbU,
  0xf0d5eae0381c21d8U, 0xe4ebd737d42bf5ebU, 0x3a0f3a10f63531fcU, 0xca3b0eeac9f508f2U,
  0xa9dfe032100b26daU, 0x2e2602e8e5f41027U, 0xdc0a210d191a2448U, 0x37d73ae934e8f327U,
  0x40d08d32e0d20f2U, 0x1b0ae431fef848f9U, 0xd813dcf6e027e50eU, 0x31f0fa42fc24eefeU,
  0x81e422d5f9c20bfbU, 0xa4ecdd0f0b09eed7U, 0x1cf302fc2914cef0U, 0x1febd20e05b900cfU,
  0x5daf7f7ba460703U, 0x180935f4eece0217U, 0xfc5403d5ff1f0fdbU, 0xd1d5d6ffdd051505U,
  0x5dffbf409e0d400U, 0x3504150838fac007U, 0xc8dc1433f309d7b5U, 0xf4eadbf6d0e21a30U,
  0x2f0b08ec0ef425c6U, 0x2abfe8c3eec405f4U, 0x63caee15051719b8U, 0x1b1117bbc9003ee2U,
  0x2d1cf10c3f3cefe3U, 0xddf070849d0df1eU, 0x9ddd0fbd3f50303U, 0xef28cf00fe51f2dfU,
  0x1d22e9f7bb31e915U, 0xf30df21a230a102bU, 0x4907fbebeaf1dadeU, 0xd9fb9efa220f3ed7U,
  0xd0edd6f44922f7e8U, 0xf2d4e20ee40a2d21U, 0x1bcfefc12547e5eeU, 0xf6f5e815e012a9edU,
  0xef2cee16f9f5e9c6U, 0xf329e41a0efbd1eeU, 0xdab30b1619d71117U, 0xe9d0da24cbf302c7U,
  0xbf023cc22f9e9dfU, 0xf015e33527302827U, 0x40724fcb71cd0d7U, 0x1907c72828f710faU,
  0xffb65cc1cc91a33U, 0xa3ad50716e1d3fcU, 0x5636a71a0bf8afe1U, 0x18f942d7c6ebe7e0U,
  0x1c2b5bf101e1adf0U, 0xe2fabad942f6d2e0U, 0x24f70ac61c1f0c20U, 0xedd6fdad4edbb126U,
  0xdd19f80523400f01U, 0xc50921f5db575f31U, 0xe8eef206f6e105c7U, 0xcb0c2336fc68af55U,
  0xe1f64714224bf4f2U, 0xba22e0be00e6cb31U, 0x38e2e30014ef25f9U, 0xbfbe4d9e733f3e4U,
  0xdc25f80afd0abe34U, 0xf50c0de722062014U, 0xe70e1c9afccaff12U, 0x37f4ffd3eb03ef56U,
  0xe9e8432300063bd3U, 0xdddc0035ed45fc39U, 0xc4e220df07c8caf9U, 0x4f0c60513bbdbe4U,
  0xf337f52628dfc70dU, 0xec1fe5d304dc02ceU, 0xfdb11507d54012faU, 0x335f19012ede0beeU,
  0xf2ceef1232e120ffU, 0xd7d8edf8e3d9a802U, 0xe7a8e953f7211903U, 0xdcfd4749d8e2164aU,
  0xce13e9eb34eeb156U, 0xb598f8f4d740c921U, 0xee2228e0fedfbf72U, 0x81e509f73d0be9bfU,
  0x282bd7d6fae30a03U, 0x260557201f2a9e1bU, 0x15f907f8e62cfe2cU, 0xe303f129046240fbU,
  0x606332ff5fef535U, 0xc3defa040520d90cU, 0xf08033030020eddU, 0xf8385aecfb180ce0U,
  0x2ce6e6fee807ebfeU, 0xf916ed01f3cb0924U, 0x1d305384701f940U, 0xfcddeccce8252b3fU,
  0xece31ae82bdeadf6U, 0xeac7ee60e01209e0U, 0x404d92cf3d10e0aU, 0xcf5a095b113a34f4U,
  0x8817ef112808e9abU, 0xf0cce8084e31dfc2U, 0xbb5de810fe07e725U, 0x6d70d3ee513b015U,
  0xf2eb1238ebc5c027U, 0xcc2af8da2dbcfd26U, 0xfd3bf9e5e20cfee7U, 0xce657049ffff2e0bU,
  0xf3e4c8e5f2fcf427U, 0x862c0c017171404U, 0x24db19dd301739dbU, 0x2b0fbf049d23af4cU,
  0xe71cef14ffe700f3U, 0xfce50740421d19daU, 0xf000c7c1cbef04c5U, 0x2d17d40cc41fdce2U,
  0xfdad0d22ea36ebbeU, 0xd2c6f749e13cea33U, 0x30512e0f0f0f5557U, 0x1f2d0fd8e1afcdeaU,
  0x9fe4b582a2338f8U, 0x472d71d0925f731U, 0x3acf0ff4c5faf067U, 0xe166d9074115d81dU,
  0x4fc5f2fb06efbde0U, 0xfddc20bf3fe809f4U, 0x9ee2d2533a1ccc20U, 0x39c9ec3ff53dc3e4U,
  0xfaeab6fe1c1bfcc1U, 0xe1d0e2f3e81862dcU, 0x2d189c0ff0081e50U, 0xa0218d20539cc13U,
  0xf4090bede399f738U, 0xbafb99033ef61345U, 0x2b1a1f2515fb3215U, 0x2fe324ca4b19f6f2U,
  0x16d10a3df101cbd6U, 0x10a7eef108f03831U, 0xefb5221f0ad1db27U, 0xf2cd08e34b630326U,
  0x27f2100df628d8b0U, 0xd434042424ed46f6U, 0x66d4ffd806cd1911U, 0xd4f2103ce319c9d7U,
  0x11be0314decdea4bU, 0xf7222a2bb2eaf136U, 0x27bf0fea4514f90dU, 0x3b19f0099ccb11d1U,
  0x33fdcdd6f60a3f01U, 0xe528dd0acf970ff4U, 0x10b3c40f8fcc4f6U, 0xfcdef0cbee4e19eeU,
  0x3601f0f60abb189aU, 0x12b8dfa0ed2debU, 0xaefa0e10f63e1111U, 0xeeb4f1d51317e010U,
  0x2f9a231ff456381fU, 0xd60300063e061d23U, 0x44110416f1472950U, 0x23291f0e051b2201U,
  0x2124d6c8eff2d2f4U, 0xe014e5d1923af35aU, 0x3066cbf412e928e0U, 0x12e91033ebcb0c2aU,
  0x1705f31416d6d515U, 0x3e4554b21d0cf423U, 0xcce4d6e2dc25ad48U, 0xfcfdf11709d61ffdU,
  0x35ece73bd22e2312U, 0x94ef044339ec05faU, 0x2326fd37aa07fe05U, 0xefb8eb3607d4ebfeU,
  0xf21823bb5fcf46b8U, 0xd3effcdbf17f32ffU, 0xb2184feedd33d5d6U, 0x48314af3afe0d2dfU,
  0xe821c801f9d3044dU, 0xecbf0bdcbb0af0d8U, 0x13e8ec4735a6e697U, 0x1b4cee0301f9fddbU,
  0x70ee36428e2e4e0U, 0xd4e20d5d37b5f013U, 0x420cdbe2ce11fbf1U, 0x13e3f018291407baU,
  0x3baf7473e5a39dcU, 0xd1ec2702c7261528U, 0x2de8f2dd7f22f457U, 0xe92a10f02241f049U,
  0xe13211dc23ccff32U, 0x1db31ade3c4fcfcU, 0x4720369e2be9d840U, 0xd818e5dd263aa7b8U,
  0x1b7507ce325ddf15U, 0x119fe2eccad3590dU, 0x240e2816c2e2df27U, 0x47c904de10c3da29U,
  0xbd60f10c13baddfbU, 0x24583bd3e10810e3U, 0x516220aeb0c27eeU, 0x6fed1ffd2de3969U,
  0xea39d4fa29e4eee0U, 0xd2117ff14f9f125U, 0xdd24ee1305efb1f5U, 0x1ee6ed1dc743c51bU,
  0xee46e8eb031be52eU, 0xeaff13002912e6dbU, 0xfc30130e31ff2b15U, 0xc4f60acc0000f9c3U,
  0xdf0bea00c0e428adU, 0xc01cdf247e7eed4U, 0xf3a3c222e504U, 0x170e0ce2e72dbd4bU,
  0xed0fe7d1500dca74U, 0x211f30cd18afdb32U, 0xa082d1e01ce06c7U, 0xb2063753570fec27U,
  0x30211e35f196e137U, 0xcff40112f60923cbU, 0x1fecf5f5fd3528b0U, 0x23f813d727e75edbU,
  0xe6def7d80ef3d607U, 0x13e5efd8052c0d33U, 0xd2232f21f9c02517U, 0xd523010deba3fe2fU,
  0x25f00d28e8cee9e3U, 0xbfc0a5df1bf452d0U, 0xd1dbdf3109f401bU, 0x11b11fcad04de21U,
  0xd6f1fdf9f02a1c0bU, 0x212c141bf1f90ff2U, 0xcef336f9bc2820e3U, 0xadeef5242a2039cbU,
  0x10183410055f0ff8U, 0xd91dccf8042e1200U, 0xfd28d4fb0dfcd106U, 0xe50e39e6df6fd43aU,
  0xfb7406ff18f8d8e1U, 0xca11f0a1e9c410fbU, 0x1cd7210e0136de12U, 0x5fc2a2827e0f5c1U,
  0xf3e206f8f914d60aU, 0xfc210b3f093904f5U, 0x2c222e19382f1bedU, 0xe2f863beeeecf2c4U,
  0xfc1fff26a1f8fc07U, 0x2f33e0e2c2c4e0fbU, 0x2df7e0ffc3f13a01U, 0xfe1eebde18e1c616U,
  0xf0c30c2e2e50e1f5U, 0x3c2b1472529f1ffU, 0xedee2e503b53019U, 0x5a03e070adbc146U,
  0xbb420a14bef83438U, 0xdf2ccd100fe5c09U, 0xe20804fdb726cd16U, 0xfc4b5afd1003590eU,
  0xe3b70a031e0ada26U, 0x15fac033530d1ffbU, 0xf134f70909162ddcU, 0x33af221e15fe27c3U,
  0xe7f327bbd9e7e209U, 0x1827c1d806f06407U, 0x13d2f6c5f23bdf20U, 0x58190d0cb18b3a0aU,
  0x40e1ca11030d05c3U, 0x83fe41220f21860U, 0xeded10e6c4ce4000U, 0xf10b17000103d8cbU,
  0x509a1de924e7e20eU, 0xf04c27cc031ddecdU, 0xe3fe092826eeefa3U, 0xc748de2cd2cbe931U,
  0xf7e5f716ee9ffc37U, 0x70c05d11aded03eU, 0x30c3d21e7f0414b2U, 0xfbd0eae92402dffbU,
  0x340ff4deaf0f3442U, 0xccdf1dea8d2433daU, 0x20fa0de629e30491U, 0x7a0c7c30ffeb499U,
  0xd5d6d4b1e3ff16c5U, 0xeef31f27242e4a12U, 0xff6062310f619f3U, 0x38d3f1ca5bca08ffU,
  0x5c3fdc92816fce1U, 0x13dcfdfa280418edU, 0xfe0be92847554016U, 0x10ac8091114fe31U,
  0x1d1811e1b41e45e2U, 0xe415e0cee804e0cfU, 0xd4fa132e0ef4f609U, 0x4910d9db1321cf24U,
  0xe3d2f7161f2035e9U, 0x78cd19f1e700e0c1U, 0xc8f5eee20107ed0cU, 0x1ac1ebe90abf1a0aU,
  0xe2b3d1ed29c19ad1U, 0xc5311ee8bd25083dU, 0xeecbacbd22071524U, 0x17db28fffeda8df4U,
  0xfd92f36c70fc522U, 0xd3fe27260cfded1fU, 0xfc0dc7fc33f310b3U, 0xe719cf3606011a29U,
  0x16f8eeedd5b3ebbdU, 0xdbcf161f25270ecaU, 0x3ff111f4b021fb1fU, 0x47f2013910fdd609U,
  0x10dc23dc101133f9U, 0xd7dc332f3244c5fcU, 0xe2cbb800e3f2ff18U, 0x20411f4e1a1f2fdU,
  0x183d31e6fae81205U, 0x2051fdc71fc5b6f0U, 0xe5fce4cff9c305e0U, 0x28f81b0a1015d723U,
  0xdf3c36d307310b07U, 0x1bf01f0b3abd14f4U, 0xe8ccf12232fc111aU, 0xecc40e30dc04e33fU,
  0xdc39c42d05fe37d4U, 0x1ef0eb90ddd014dU, 0x49d73416fadd0aeaU, 0xfef8ebe60f153901U,
  0xfd0c4d04210e19caU, 0xf2092441ec1f01e7U, 0x20dafbf2cdd6ddf8U, 0x43d7c0011e320e09U,
  0x51e7c2caf81bcef1U, 0x25dd24d4a3ef5eeaU, 0x1739d83e1b35ddf3U, 0xfaef9b6c0822fdfeU,
  0xde3e046ca1cf4e8U, 0x1f2fdba250f200eU, 0xd9db81f3e61b14c7U, 0xc914ccfed89dfad7U,
  0xe502dc16f01206f8U, 0xee61c57f81b0204U, 0xa1cc7decd0affdaU, 0xf12b17d3f6160e32U,
  0x4ce921fff8ebf4f9U, 0x1416f1bdfe0a0a2cU, 0x1405f4fef918031fU, 0xe844ed0b21e5ef1aU,
  0x32f7d7f9eeee0aeaU, 0x1a1038ffef4914f7U, 0x1ffd3040c1ff22dU, 0xfc2448f004e50b03U,
  0x4b101a04de10f817U, 0x2900f6fe529df3bcU, 0xe3dfc8e106f4fad1U, 0xdefc07f6cd40d3fbU,
  0x290d020205f7a40fU, 0x33e3b9ba11413ce7U, 0x636d2dbecc4e2f6U, 0xf914f437df16fdd7U,
  0xfd2919f6fefa1cf9U, 0xe1edf5051b0bd2e7U, 0x1fc2381acd1e511eU, 0x4be5184f04ec1502U,
  0xf3e00c1b19cb05d3U, 0xb4cfaf4f4a9ef0aU, 0xb3725f129b259e0U, 0xfb2921309b0504ebU,
  0x200f0c66e9dafb1aU, 0x204128c01ce72321U, 0xd801fd2f11daf3f0U, 0x41e917ef63271d05U,
  0xeef9f4f9fe1cf402U, 0x19e1ed04e140d5d3U, 0x33b10ed0c60a0bc2U, 0x4afdf00f0ed50128U,
  0xeae722542e4dbaf5U, 0xd0bedb6b3c125ecU, 0x2c22e1d13efffe45U, 0xe1fb0f1df4b70c17U,
  0x26f5c2ea482bf2f0U, 0x30c340de6f3d64fU, 0x21aa3e00ff130efbU, 0xec0eead5140e39f6U,
  0xa1defff511072f01U, 0x1f007e2259fe6d6U, 0x3501db18f7f520dcU, 0xecdb0b1ce1be0c30U,
  0xe7e681050cb86908U, 0x4df19fa32fbe303U, 0x11da121a3906c71bU, 0x1ad82be018c634fbU,
  0xf31eabe90c0a14f9U, 0xf70c10f527e610e1U, 0x1cdf1902e023f12aU, 0xcaf015062f2909f2U,
  0x10f8f6022500f7dcU, 0x1bde171012f42947U, 0xe808d8d6473a23b4U, 0xb9f1423502c507eeU,
  0x3714dd0706ee3207U, 0xf99d014a04282cd5U, 0x16711c0c0a2d1be4U, 0xd8fe1e1f7bfd1831U,
  0xfd6326fcf6fdfd2dU, 0xc6ecdf2011f0fd05U, 0x920608d00b201bf8U, 0xaf8d1230af628f7U,
  0x440edc815244800U, 0x20e1dceded4c33afU, 0x15e3ffc8c62d1607U, 0x3d1745d3cc204cddU,
  0xf63115fd1733f239U, 0x46923901d038372aU, 0xec18e70d06f912c1U, 0xf111250cea56e212U,
  0x31f40dcebb1214c4U, 0xfa13df1b082ce914U, 0xee442221d2eb05faU, 0xfaeff646cbc527eeU,
  0xd1d9e5f7f5161e05U, 0xecea10dab4fdea6cU, 0x24d42afd0c1b40f2U, 0xfcdfe0f0e20657d2U,
  0x1fea16cd2bec24fcU, 0x121ee81cdd1808eeU, 0xe9fa1cf9fb002f08U, 0x14e900e1163c3004U,
  0x1fc4ebfcf2ead50aU, 0xebdad9e63df90217U, 0x261fc61a05f5e6dbU, 0x1418204ad1e8e01aU,
  0xc1eef7d41bf2a6f7U, 0x24efddf8eef20502U, 0x18e806e4ba04ee71U, 0x1e3ce3231d245b9U,
  0x30adee705c9f6aeU, 0x616d61c3be23713U, 0xf6f320ccdadd2e23U, 0xe71b0539ebdf2f01U,
  0xf8d9d8e81621c7e4U, 0x2d1aea3cdf321e15U, 0xe507fa0cd20d0818U, 0xfe26f4f9c1f823c3U,
  0xfddd25fa1a541904U, 0x571a2609fbdb0014U, 0x19ce5612f3f1f3cbU, 0xeee1236fe33e50feU,
  0xf802cd68e60af6ccU, 0xab9d19014f80806U, 0xfcdb1956cf051642U, 0x22376808b1dbfa07U,
  0x38cf341249d6df00U, 0xa876e3e698dfffe5U, 0x1ffeb0f61aed31c1U, 0xdfa2e16450e3c38U,
  0xd7bdec0603d7bffeU, 0x342803c2e7e63b13U, 0xf70f3214fdbfefcdU, 0x10d0da311921c203U,
  0x3af5071bf71c00cdU, 0x2b06024346c33c0cU, 0x15dcb20cd94ef1c5U, 0xfed523a3de0e5c1cU,
  0x6bd20504116c0ce6U, 0xe9cd0a00cf0a1c03U, 0x50190ee6102eddebU, 0xeed8f81bf23cf318U,
  0xbcda44e8f2eaf817U, 0xc80d2450d7393208U, 0xf0055404da1e1fd0U, 0xf64ddc25e6ed0c73U,
  0xfeecf4f814be32e7U, 0xe229dcd9e44e2ffdU, 0x4e8d7e9f82a2d0eU, 0x700f0b6e5d2e33dU,
  0x18eb3ac8ff1620b1U, 0xd2293def180cd1d0U, 0xe0b21100fae1e5c7U, 0x2915ebdc4aec0fdbU,
  0xd51d3f15f40c2ad8U, 0x3db374b0ce6fe20U, 0xe9ec2dc8fcc42e1bU, 0x2c063dd0d8ffe4fbU,
  0x4364513d1e6ce37U, 0xd5cf40b7c458ea97U, 0xf10e3c0db0bf8b2U, 0x77df4d019113dfdU,
  0x34dde6f617ef08d5U, 0xd30fdf58b456e527U, 0x332e21f1f549e130U, 0xc0c30de88e3cd4f3U,
  0xf435f5c020df0234U, 0xfbed030e32ddd436U, 0x18dcc752d2c10cd5U, 0x2acff0d3a9ef5eaU,
  0x3301fae1f31ca3d7U, 0x2bd181edf9cbf5bdU, 0x2e2418ff4d0ed40bU, 0x290a32cbd91ceb3dU,
  0x814d9fde3f3eabbU, 0x1bfced1abad805d3U, 0x3dccd7f311041d17U, 0x5fa1018df041dfcU,
  0x1afbf34cd11f0febU, 0xe2e3f311ed2512U, 0xf3e70b1ae309ec29U, 0xfd16ecb2f92106fdU,
  0xf5381df6d9e60c12U, 0x19e1f9f7ef0c0319U, 0x18ed33f90a091a1bU, 0xed05fd0111c606deU,
  0xfd09cfebfd0cf10cU, 0xb05fcfcfbfe12efU, 0x282300f1efeada17U, 0xfed0719142b1616U,
  0xe8e6ed370700f1e9U, 0xf5e4b614dbfb02f8U, 0x1df90df6f6ec20f6U, 0xffe5cef8c2e21e04U,
  0xffbf306d0e7e6b8U, 0xfb2dee23ecf70833U, 0xfe23fe80101ee0eU, 0xd21decef1004edfdU,
  0xba010ce503fffd00U, 0x550fd1d03fb05fbU, 0x112aefdae42cf809U, 0xcd505022231fed6U,
  0xfceee050231831d8U, 0xf4d546150c04f912U, 0x1a1731e207e812f8U, 0x2f9fb15f00017aeU,
  0x10e5e2d7f1ec1313U, 0xd5ebf30bfe00e820U, 0xfc1b7f221fe50ccfU, 0x303084cdddbf119U,
  0xfefa28fbfc05feeaU, 0xf0fdf322dc2cf5f6U, 0x2f03350e0a1ce300U, 0xe91e1dbe1b11220eU,
  0x2322b0cf01e0eeeU, 0xd8fdfd1003e9fe0eU, 0xfe9e2fef4f415f4U, 0x1125f132f6d6f226U,
  0xd2fec341f03f5f9U, 0xf80401e51ee9bff0U, 0xd7e5f5df0def0004U, 0xf508cef10b120406U,
  0xd90521ddf1f31fe2U, 0xf510d211decf1531U, 0xec33520d18fd2b26U, 0x26ecfd2b4cf3280dU,
  0x81eeb08e1f4fbd4U, 0xf1f9eb07fa19e7U, 0xd701e8e90defe6U, 0x8fcf7f51b191efaU,
  0xf60eecde02da1609U, 0xf811e4f1412dd7efU, 0x3914dbfd190dee1cU, 0x61ceef9f8e73f05U,
  0xefe811ebee051308U, 0xea2decf30d031d03U, 0x7ebf91f0afc2127U, 0xdb292d172005dc0bU,
  0x5f6282af632210aU, 0x21f60de609e22942U, 0x42fd05061b1102e8U, 0xfd03131c43e3160dU,
  0x13d92f14aaea07f1U, 0xb1101c0cff0a0c66U, 0xfce0011cdc9dd2dU, 0xfeba2eefeec2df20U,
  0x19d5d7cae632124fU, 0xb5eb10fcfbf432e2U, 0xf14c2cd819f6f40eU, 0x33e1020539e40027U,
  0xe50616df0a0ac90bU, 0xd9f9e325d7eeceeeU, 0xdc4bb6eab004ff5bU, 0x8d611e605f1f9d3U,
  0xc05fee216351317U, 0x24f6ebfdd309e7e5U, 0xfe16fce3f3ede848U, 0xda05d225eb14e9c8U,
  0x1609e90642a4e3f0U, 0xf403f1ecbefef51eU, 0x2bb83100da1d2819U, 0xf9bf340ce4eee64bU,
  0xfbeeee3c12b82ef2U, 0xedaaefd00e1f7eeU, 0xd1d0b416fb214f4cU, 0xf422f6e7dbe606f6U,
  0x37b60115dee708f5U, 0x17342ec5cdfec8faU, 0x1bd728f5f9fa24d2U, 0xfcecf1e9ecfbd9ecU,
  0xfcf72e0521b40129U, 0x1e93af822d009c0U, 0xea0c294ce3f0fe0dU, 0x32e813b9f805f6fbU,
  0xfc05423d4bdae712U, 0xffd3022a1314ef13U, 0xf10c118104fc180aU, 0x4e999c508e219cfU,
  0xf3e9eb2df327d81aU, 0xeaccedf9d515b71bU, 0xe5fe235dfe231c03U, 0x1e27345b56d2e7c8U,
  0xd31b27cb3d101af2U, 0x842aeb1d11f3f9e2U, 0x17d2ddc2ebbb0520U, 0x2a0d180f91eae5f2U,
  0xd238131cf73927e4U, 0xe12ad5ef28d02bf0U, 0xa4cd91bf006a9f2U, 0x2031c51d30190814U,
  0xf916dfeff7fad41eU, 0xef5c22cf91057e6U, 0xe5cf452d2016f0d4U, 0xe2430f320e042913U,
  0xf328dd1109273a07U, 0x2f29caa13324e0cfU, 0xf00e6412ed2103e1U, 0xb50a4e13f801fa29U,
  0x21c7c43736240606U, 0x103b1ff72124e43eU, 0x1339f3dcda240af7U, 0xd2a2f50f2f21f12U,
  0x50802d6c0d3fc09U, 0x2cda1cf1da332be1U, 0x1d21162f46f7b5f6U, 0x7edd2e4e5ecd2adU,
  0xe4e8051ae3f9e821U, 0xe018f2480a034813U, 0x29f01236c7066e41U, 0xb3f01203e60b01ebU,
  0xd6f61306cdf1fbeaU, 0xe153030ad0b6ca0fU, 0xecccd642ddfbf11cU, 0xd009f72437bcf9f2U,
  0xe5ed2c18b329f20fU, 0xf116d91cede90009U, 0xf813e7cd4c162ccaU, 0x20e319054805eecfU,
  0xe337fc324c250f1cU, 0x2d3bde00182ceee2U, 0xd5ffdc31ecfafa12U, 0x1968d210cbe1fbe8U,
  0xc4ffc4fa0b05d8d5U, 0x1e22d21404fe1e0dU, 0xdde1fdef5e812f1U, 0x2af5060e06d321d2U,
  0xecfd092301f8f613U, 0xee2e5faf6504e27U, 0x71e2a0a12fa238eU, 0xd5010c1f13b5c3U,
  0xdfe60af93e25eaf7U, 0xe8061ceffc08f10bU, 0x71642e60ed521e1U, 0x472305eceb230a84U,
  0xce3ddd1130003f1U, 0xd8052909cbf813e2U, 0xe37de04e1e7031dU, 0x24fcf41af526ccd9U,
  0xe7150efbec0c2039U, 0xae2bd5da0a5dfca9U, 0x1025190e06ddf5a3U, 0xea190fe027d118e7U,
  0xe333d51af7f32428U, 0x307faf90fcd2e5aU, 0xfdf10106fcf4cad8U, 0x16ebea3cf7eedb35U,
  0x17cef64a2af50af6U, 0xf7efd7111829e1f4U, 0x36f62100e51f1a21U, 0xf5dff00101e17016U,
  0x90526281c0f3913U, 0xa6e422f593ba0bf1U, 0x14ff30ffea0da531U, 0xfb38f84cda2e17c5U,
  0xde45fed7f2e8eb03U, 0x19ecf41407582bf1U, 0xb80ee8c80d39f1eeU, 0xea16d5dce4fece0dU,
  0x34d0e4e400f10312U, 0xdf1dfb19dbfbe8eeU, 0xef054e09fb2b1901U, 0x5170b0f330cee08U,
  0xd4f80ff7f8ee0345U, 0xf30fec2de9fcf9f7U, 0x2c01e9b5d401f47fU, 0xe00814f04b271408U,
  0x5521e9ea12fa1cc9U, 0x7fb00ea28d4200bU, 0x123e4ece723fd13U, 0xaf2ce2fccd90b0cU,
  0x30100b9bac0ff05U, 0xdfece8b3d12af5f6U, 0xe62cf0f1e83aea28U, 0xd7ffbacbbc0f0222U,
  0xe12cbfe3f0c227b6U, 0xe221e41b22e9db11U, 0xdb2ebff430f71653U, 0xf50b2d0142cfbcf1U,
  0xfeead8241e26e118U, 0x183de536ed163ffdU, 0x82508061fdf0910U, 0xfcd08f3e2052be2U,
  0x383cffdffcc6cf15U, 0x107e1eb3d16f21eU, 0xec4f03e804170edcU, 0x481510e4f2f703b5U,
  0x120b10e4e0ef1f5U, 0x130e092ddcf8e8f0U, 0xfc203f70216f8d6U, 0x14182604d80bf642U,
  0x14effddbcdd41be1U, 0xf013feda2427ecb2U, 0xf010e41bdc38e4e3U, 0xe6ecbe4be509efc2U,
  0x320a3802ff0023e4U, 0x2a2a1a05eef91a01U, 0x240f32bbc70bfc40U, 0xcffd9e7e41bff1dU,
  0xedc5d7090be71d39U, 0x3012b02afc0ff1f3U, 0xf90c07ea040603e7U, 0xfd2841e7182dfcbfU,
  0x317f1cfbc582c33U, 0x3df0e421edf9e013U, 0xfee7e59dfc7ffb19U, 0xa0ffd03c07d505f5U,
  0x121ee41f1bf31959U, 0xb9fcacd432f9192cU, 0x13ef9c9081c33f0U, 0x2ee1d93327fd020eU,
  0x4040fb714f90009U, 0xe529ebf55704f8fbU, 0xeade03e8270303c3U, 0x343b1c30e2e1e61dU,
  0xf42bf72bb0d1f51eU, 0xf0060607032cc313U, 0xfe2a1bf32608cbc7U, 0x14e9e2060bf8db06U,
  0x14de1a08cbf80723U, 0xf5e91d58150a4d0dU, 0xdb3ea24008fcdd0dU, 0x1103e5ca11ca4948U,
  0xf5f1e5081c00cefcU, 0xd40e0ab7d1fdb601U, 0x3f7129f2de0ec21eU, 0xfafd0ddefcb10902U,
  0xfbfff903080c1e11U, 0xfa591f1de3024810U, 0x5ee172cb017163bU, 0x43f513e538f1e107U,
  0xafb05c7073a102aU, 0xebf23f1fe3fd23e1U, 0xeb13c21b133de821U, 0x4fc0a25feac22eeU,
  0xe5db14f621f0f6f7U, 0xbc7e7e519f720e9U, 0xbf1d11eaf3e818efU, 0xda1128cb0be2d4e3U,
  0xd3dfeb4a080d0a0bU, 0xefe70d1de8d430e4U, 0xddfbcad7f04afa10U, 0xab1e1207ff01b9d3U,
  0x41eeaf7ec6fe12aU, 0xdada1f17f1b70316U, 0x12d2dc313dfcece3U, 0xd739f504e0f62233U,
  0x2fdeefbf71b0ee8U, 0xeb021941f6110d27U, 0xcf15ed2305092509U, 0x3443f2ff15ecdcd7U,
  0x150ee00401c8fd10U, 0x1a0a2d1c01e61c36U, 0x2fdc4e330ccf61dU, 0x319a0a37fea6f9f7U,
  0x26c7081910d9eddeU, 0xde1206262d151447U, 0x9dfd1315af291c08U, 0xef0e03109fbfdecU,
  0xb5edfef1facf107fU, 0x442f3a04e2f903e9U, 0xef3233ff2eca19baU, 0xbc3e4000053e34ddU,
  0x1117d941fae71dc6U, 0x583aec32e1c504daU, 0xf9e122192739d3f0U, 0xfd0ed3f615f6ba38U,
  0xf3d921f62d122dc0U, 0x19e9e50e18f04f16U, 0x2d3b260d45e30306U, 0xff104edef3f6fc9fU,
  0x333008f100db0a02U, 0x1132bc1ac435c7eeU, 0xe1e2e7000c2d26fbU, 0xc8d6b3231cdf2118U,
  0x2328e86300f6ee23U, 0xedcf0cdb1407bfd6U, 0x320a2ae0df0ec110U, 0x7c4fb1a0306baf5U,
  0xe587e3fb9aec0cb7U, 0x1cd63d3a18eb56e0U, 0x5506001a05b7b31aU, 0xe6000ee1ca0b3424U,
  0xcc18d9d719b0fefcU, 0x190bd6b3170ce7c1U, 0xfb061b360ad9cc1dU, 0xb0f2f62ae914df31U,
  0xaf8e32519f9d7c9U, 0x2a0501d220e90237U, 0x2bddafc0e0f10df5U, 0x15181e12252d28f3U,
  0x2fcadae50a2a235bU, 0x4009f9181d28f846U, 0x4b3916f8db27573eU, 0xdbe00d222de8eb01U,
  0xded10ffc14d3e213U, 0xdb022b302208a847U, 0x385b083db4fdde21U, 0x28f1d9cf27ce2dU,
  0x1e990e10a50526d7U, 0x2cd08fbd41e52dcU, 0x5c33bd55ffda0816U, 0xff16e53b461206c2U,
  0x2837b2ee04c79220U, 0x511433eaf41d1505U, 0xd8a37ef0ede32646U, 0x2822fd8e11bf30dfU,
  0xe1d21ccd0ef800ddU, 0x2d6309fbb1ef1c0cU, 0xd22c06c921ee225eU, 0xc8df0418ff2ecddaU,
  0xcd0c614306b9c12aU, 0x4a130d383ec50a24U, 0x1fd309e6dc442ff6U, 0xbcebda37fcec33c8U,
  0xd59e09eeee36fbb6U, 0xeb5ef2adfdcc519U, 0x26d3fffdb73c1416U, 0xbb1b8fe2e9e7be25U,
  0xf420fe00f1e0f626U, 0xf1e2f5c842d2bf2dU, 0xddbb32e1f9373a14U, 0x5445ea531802c127U,
  0xfa27cc079c40b5f1U, 0x4fb2619e9e3b9f4U, 0x151b0ecfebff1188U, 0xfc1c044ae438e9ccU,
  0xe703c1c0dc54bdeeU, 0x380e330ee4dbc3f8U, 0x9f04104fc2ce408U, 0x1f0f0f4800165105U,
  0xf2005aeff9e60e27U, 0xde5d50117df172cU, 0xba08f8f01af416b7U, 0x29d5212f0d23f0fcU,
  0xe12127f7cf0c32d4U, 0xdde93232f5312bfbU, 0xd97213dbd0fea006U, 0x219e6e67cc9f147U,
  0x322b90ef2e8c5cbU, 0x552d07232d20eae6U, 0x19e4ebbe0011f0e9U, 0xd7f035d605beef1dU,
  0xf478e7e913e020c7U, 0xf942451eb9df19efU, 0x50f5f041e13f100U, 0x151121f3f6a206e4U,
  0xdbe919fbfb39200dU, 0x432237efe9951f1fU, 0xf50f3cef2fd31910U, 0xf9d8272981c303cdU,
  0x1beee7d711e8c040U, 0xfd23131cc4eaf019U, 0x33e805ecd6cde9f9U, 0xe81bd4425402def3U,
  0xc611fc00e9ebd92bU, 0x6a24e20c2c0fbf3eU, 0x1fceef030b82046U, 0xb40cae0b0c0adff5U,
  0x2fe6b21ad8f1e145U, 0xb031d7b11d26251bU, 0xffecc61e0efafccdU, 0xdfeccae928382806U,
  0x45b75a31f7fd060bU, 0x2b17dcef18e8e8f2U, 0xde2b175bdc1aeedeU, 0xf3e1991dfb03fac2U,
  0xcc816f1030ed2ecU, 0xe5c5e20df41dc5dfU, 0xc1be468c7110af0U, 0x1df90bfb37dc232bU,
  0x2e2c1c2ee2240946U, 0xadb6f4ae13380007U, 0xd0401dc02ec1baeeU, 0xd39e3db4d0aebf1U,
  0xbe0a38051af02d20U, 0x1d3315f5d8febc0fU, 0xbfc5d28f423de33U, 0xd1af1ee7d1e911fdU,
  0xc944ffc2cef0223U, 0x12d80a5e02221f3cU, 0xf9d914010234c922U, 0x55ffcae12df6031eU,
  0xc7040cf99af013U, 0x713f1e81f11ab2aU, 0x52f9d6ccd7e4220dU, 0xfdf8f4f5eb1009f4U,
  0xf3030ed2c0ca03edU, 0x2aff1c828ba160cU, 0xf3e0fbd61649df09U, 0x43fe1d1d1f3c2045U,
  0xf8091734edc1f20aU, 0xf611d38107b8deeeU, 0x222ac3e348fb1edeU, 0xe2160affadf42620U,
  0xba00103606cd5c4dU, 0xf13718290ae6d311U, 0x1fd5c1a90f25e02bU, 0x14e10f35fee12e3aU,
  0x28e40eebfd20fcf3U, 0x132e5207f8dbc4b1U, 0xd9c8b80f130f061eU, 0x1e06ed00230fe2bdU,
  0xf9fb0bdf31e910feU, 0xff0f0017f4f836d8U, 0xa1821a8eff5fcc6U, 0xee06bf120bfdf102U,
  0x2afb2e1e06a5ff13U, 0xb32801c909201bc0U, 0xded62bea09f736efU, 0x2826f614266213a3U,
  0xbee20231316ec31U, 0xe10d2618d6cc3d21U, 0xe0df23f5c8ade511U, 0xffeb3cf7ed1e0deeU,
  0x35fe1e13d4001be2U, 0xf9350ddbef3204d6U, 0xf3e317fb27e2f704U, 0x46d374e922c92b2aU,
  0x172c0310090bf4e7U, 0xfe40d328f0d8dbe3U, 0xcfddc901f2bb0b37U, 0xf21f29f3dd18120dU,
  0xfbb9fcc947f4fb15U, 0xe6111bb1db72c6aaU, 0xfe12e60bece1e13bU, 0x90d7f562304e218U,
  0xe2d7de251b1a1c39U, 0x220cd9ed41ea50e9U, 0x4508f93a27d905e0U, 0xf459fb1dfe2abde4U,
  0xdd42d6edb936d130U, 0xd9f80d1af82ae1f3U, 0x12fd150cbe1d27deU, 0xfbf0041df639d2d9U,
  0xc0bf0ff202d17f0U, 0xb428f40fab39daf6U, 0xec0c15295f191df7U, 0xfce926dfd2263826U,
  0x121eded9f4e5211bU, 0x15c6fb041fd63622U, 0x24c51920bec19f42U, 0x11ef35ef4001cf6U,
  0x207ff605e0eee98fU, 0x2804ca2cf6f6b0dcU, 0xd4fb06f7ff4228e2U, 0xac5bf503b6c22033U,
  0xf824cb1038fdab3eU, 0x103618191a2c6fcfU, 0xfde2da0106afbaf5U, 0xdfe440de3610cd08U,
  0xdb0ff82955c916f2U, 0xe710c713004c9803U, 0x3cf1fdfd1fdd0ec5U, 0x1cf9c433f9991a00U,
  0x1e0b3007d002c478U, 0xe92ddc997833ffddU, 0x7df2df97fee11d1U, 0x28ad4be6cfd9fa3fU,
  0xf4fa3db6170f0d05U, 0xdec7c033d32d1e2eU, 0xc3e3dce92427e6e0U, 0xe81ff6551445fcd2U,
  0xf5dcee12f505cdfeU, 0x9e6e310a8e8da13U, 0x2aea50f21323dbe8U, 0x4950f3fa33eff3e6U,
  0x3b02ebc5f2f9d92bU, 0xf0e62cfcc9f8fdcfU, 0xce13120630170e2aU, 0xe017ccf72bf5b201U,
  0xd6f31ac435d8cd03U, 0xc319f413f133f183U, 0x2d50340f1ec24c6U, 0xfbad25e41bdae2ebU,
  0x10ee7ea2311e500U, 0xce5003513c5f622U, 0x16b1f7d7f2b7dffaU, 0x12f151a2f40cfd2cU,
  0x1edb0aec0de4cfe0U, 0x4707091bc9eaf657U, 0xd5a49122a048715U, 0x172708011426d8f1U,
  0xe22f37b10cddc7e7U, 0xc1c8d601dbe1b1b6U, 0xef0adc121a192ff3U, 0xe61eb7d9f7464815U,
  0xb9f201d1b21ee4efU, 0xe6d7271502460ec0U, 0xdf39daffd60dedbaU, 0xf60a0cff22fbefe8U,
  0x32cde2ed09ef0f0eU, 0x201ebd10f607f4ffU, 0xe9c50d02e504f9deU, 0xe7cfed1a01d9dbedU,
  0x48fad1facacddebdU, 0xf1f70138170a103eU, 0xfa990f04230618e8U, 0x2f25183d20f72420U,
  0x22c50d0dc924ef33U, 0x1ef7d4fd06e813f2U, 0x1dc09fdd6f5ec2bU, 0xfbef2cd53849bb00U,
  0x7f11ed3ceafbbe07U, 0x250925db2316f252U, 0x192525ea1d2bcfceU, 0xe9141ec6d3ee0c02U,
  0xe6fbffe4f2f818f8U, 0xfd07fc080702b11eU, 0x201e2f2228e1e8cfU, 0x360bf3fcf9e21a3dU,
  0xb614f9c6f525b6c7U, 0xc9b026e814ebeaddU, 0xfa10e710b51b09fdU, 0x42f0cd6a1bcc17ecU,
  0xf50014ff0c0547e6U, 0xedf71a01e5eb3ce4U, 0x152ab41bf41215b6U, 0xfd14eca7071247f2U,
  0xedd72a25091c0ba2U, 0xf722d7ed202c23f8U, 0x18172df002e3f30dU, 0x21d7fcfe04f30cbaU,
  0x4df0321abed932f0U, 0x2b231815ded5e9ffU, 0xf6c818ef0910fcf8U, 0xe914da351bd6cfe4U,
  0x2f0e530d6ed06d5U, 0x42c615f707efe40bU, 0x251015040301d3eeU, 0x242119f71bd4254fU,
  0x337e2230be00aedU, 0x22e220e33010bce5U, 0xe010fb46f3f7e2U, 0xe448233a001ddedcU,
  0xd20815e4ebddf6fdU, 0xdad60926052b11d8U, 0xf1ef4e3de020a17U, 0x44f0eaf427262b01U,
  0x31e09eb1cfbe8f6U, 0xfe17e5e0f2f8d810U, 0x192be0deed0f250cU, 0xf3e8dddd09bf0066U,
  0xdcd1918dfebc5deU, 0x241307040dfa06f3U, 0x64bede902cc4aeeU, 0x143dfaf930120f09U,
  0x24baff03e600e21bU, 0xe0245f20e2314f5U, 0x1bc00be4371dd20eU, 0x1dd40d01290906ccU,
  0xd0db39502b13cf13U, 0xe4a01fdb2ecce9f3U, 0x2c02f211fcc5b9d3U, 0x98003ff0eedceb32U,
  0x13b315ee29e9dc19U, 0x3020150cdc0641ddU, 0xf9444dd10ced2b18U, 0xf4ef0d29dc16db10U,
  0xee0cfb26ec181f14U, 0xccf90918e8330af8U, 0xfce5e7f60bd8d641U, 0x35e0ebcd6ee208d9U,
  0x9e4e5f62338f810U, 0xc112f900d027f20aU, 0x1b36facb43f90424U, 0xecd815450bccde15U,
  0x270c0928200302d3U, 0xdfe8f8f7f8f8e3U, 0x4e0917e6ece3e0feU, 0xe4f5173509262ee0U,
  0xc2be040ef60104e0U, 0xe206ef1923370de9U, 0xc5de09cedd350c26U, 0x32f3f6dcffd7e6faU,
  0xc52a1badfbe1f610U, 0xc37ea06062307f1U, 0x6def42b3c30060aU, 0xd41b263710be2df0U,
  0xfe19f6f4494f1f0cU, 0xfd65fd07dbefe7edU, 0x270bddd1ea0e14f5U, 0x10e516f3d6374003U,
  0x130af702d8f2dbefU, 0xecd0201e5b8f0U, 0x251a2313ec040eecU, 0xcade14e9e528b9f0U,
  0x28f3dbcfe30c4441U, 0x1f0afc1c241c4e26U, 0x3321fcce22a615ffU, 0x1ed701d9040c2506U,
  0xf211f3e9e1e011efU, 0xd1d10e2b20aaefbU, 0x3d4b14c502111c21U, 0x22e9f5fa1e02f10aU,
  0x230de210f2f4151bU, 0xe2acdd10ff29f7fdU, 0x1526d6e6dbe72e81U, 0x3cd959ebe61a050aU,
  0x415fb101b0de3dbU, 0xa029d4ec0d1ed32aU, 0x23001914d1230949U, 0xe8e526e3f0ed0521U,
  0xe630d9e4e413112aU, 0xfe162ce1d91d004eU, 0xe0044900f3fe1c07U, 0xfae3e2f93d1d0ef2U,
  0x44fd56eec5171bd5U, 0xf0e907ff461ce9fbU, 0xc0070fd92200fce8U, 0xdef32a05ede7fa18U,
  0x5a0fe2fb2fb4fd22U, 0xe4133ef5fde7e3f6U, 0xfe3d0dff0af80ee3U, 0x300cd70c530ad026U,
  0xdffef4e90a39f2d0U, 0xdf1b2d4f0aba14c3U, 0x2402f8ef1b0aee0dU, 0xff28e8d9f2e0bcU,
  0xdebf6c9cf0c0901U, 0x1fc506f1312ce2daU, 0xc5021619afd703fbU, 0xf4fb08ec210d06d0U,
  0x36e20c1df20ac912U, 0x3c21f63208f72702U, 0xf51bd5e8dcc90ce3U, 0x50ef2af928180520U,
  0xcb28daf704e35415U, 0xd8042fed192bd3deU, 0x244043531ff91ba7U, 0xcc0a1018fb251807U,
  0x33ce371c4de9c01aU, 0x190c1549dc0a0c16U, 0xfbfcf6b932db33deU, 0xebf725e548edf33bU,
  0x2fd15d9de39f5e0U, 0x7f92f12fa00f4ffU, 0x32e10518ed31f1fbU, 0x311d0413fc14e6eeU,
  0xebf508c0d501f5d7U, 0xed2803f300e303edU, 0xfbd91017f70ffd4eU, 0xf8f8313b0208e6e3U,
  0xe2d61b093c1a19edU, 0x1ceafd061a42fd1dU, 0x11fafc1bd71dcfU, 0xa2af8c8d4f51144U,
  0x20e806950dff03ffU, 0xcc421ee7261e050fU, 0x16d32d1f06341b3eU, 0x56dd2a1209201e0bU,
  0xe9030107c202f603U, 0xe9f8db360e0d0c15U, 0x1ffcfb12ddb62608U, 0xebf310fbee57da18U,
  0x1afe120d0f27ff02U, 0xa9fe0afdc2bcfc3eU, 0xcebdfed0f921d918U, 0x14f2f6f1ae24dbe8U,
  0xa8cddb3a45162133U, 0xe67fc3124bb93253U, 0xf4e1fc313afa270dU, 0x40dd34ef082de50aU,
  0xe9febc1dc20417d0U, 0x37b3e4f53a3f25f0U, 0xe70cf83313ef50e9U, 0x25d6f42656150ef8U,
  0x130f1b1024150b16U, 0xcdf807ef0f06d402U, 0x9f6d7e414f1f111U, 0x4be6fc0ff9fcbcccU,
  0xdff0160cddde3fe8U, 0xef16eef502d0b603U, 0xdee601194100ae07U, 0xfa1709fe1629f6e5U,
  0xdd12d9102adbf322U, 0xf5d3f910123c1447U, 0x2eeeed33f1f216d1U, 0x5dbfdf732c3ff0fU,
  0xf8ea05b31710ea39U, 0x51e9d0ffd1fbececU, 0xfe404325c1347e7U, 0xcde9151ad7351fe8U,
  0x21f6ef3501f50d19U, 0x90307ee0f39fb6bU, 0xe422d2b313070afbU, 0xc04c42eefc7b42fU,
  0xe03ff307f2cf4024U, 0xd6f1f1f8f6221a27U, 0x225c4611eb152bd9U, 0xd7cde204f3defc32U,
  0x4b2667f12d202b40U, 0x81d040e222116edU, 0xb6e829ef3416e707U, 0xfb42bdcf02e616e9U,
  0xf520ecf6fe3ac3fcU, 0x73deb29f00a2a07U, 0x3aef2fd2eb34ddf3U, 0x111df2ec11140455U,
  0xcbdb2bdc13d80248U, 0x5e90ae4e31adb3cU, 0x15952008d84112e0U, 0x8d9fc1409effe22U,
  0xce1319312ec8f81cU, 0xfe17d7e5e406f2d3U, 0xdccb05d9d6c0eca3U, 0x89e1ee39cee13e00U,
  0xfac8014ddb45d326U, 0xf917f8cab6d6ed25U, 0x37c61f1d02f41cebU, 0xcf192b06512dfbfdU,
  0x9bf2503503c5d2e6U, 0xc92f3cfff33fb0e5U, 0xc44e61319362dfeU, 0x41f6db37cbe80e38U,
  0x2b0312fcf0f8160aU, 0xedc20a19b63ffe42U, 0x1254e233e7fe1525U, 0xc21f2091a310d09U,
  0xe80d17ddeb2f0f00U, 0xf7fae9f80c046af4U, 0x2c37e2f2cb054336U, 0xee20193e43f4243aU,
  0xc1c29f0335e61412U, 0xb7d30b19d8ea41feU, 0xcac8bc1818378d1eU, 0xa70d250648d9facfU,
  0x18f64a1cee042a13U, 0x2138030968d5e60bU, 0xf7edd4f8f5c931cbU, 0x2dce81ccef0fc27U,
  0x27f847d22d2c0245U, 0xe7e6f54774d4cc11U, 0x1c1313c400d71be3U, 0xc9f9d4dac7fbfcd8U,
  0xecffb8cf19022938U, 0xfa27d51a0409335cU, 0xbfe6e6603f3290f6U, 0x8075ff57217f01aU,
  0xf9ca2b28072ac91fU, 0x2c20bf8106ebf1bcU, 0xfbe9f3ebe826faa7U, 0x29131fec070e25cdU,
  0xfc1aa7f5beff1db8U, 0x1c0434d91005fd0fU, 0xe9d70af605e22233U, 0x201f5ceef0501f9U,
  0x384ec129fbf9b8dcU, 0x2e94f5b3b30623f9U, 0x13e90ad122e35205U, 0xf31d46f9e5f313f6U,
  0x12fc1301ff0bc90cU, 0xc40dd2eedfeed21dU, 0xf519e6e5c4e7cc0cU, 0x41631d915f6fe24U,
  0xc1ed6dbf1ae3e7beU, 0x28af04de500324e9U, 0x593029c60ee7d11dU, 0x2f2a120800e9e8e3U,
  0xdc1e174106f4c100U, 0x14bf0ced2bc2d228U, 0x24fd13bdc94b81bbU, 0xc3242bffad28992eU,
  0xb62c24f9241919d3U, 0x13de252805e92319U, 0x1d30230010618ffU, 0xc3250616010d0bd3U,
  0xd4c5fff9020efc9cU, 0x10c61df9a3f0df12U, 0x12241e1ea1d534dcU, 0x821edf403c41becU,
  0x9823d619584a08deU, 0xe6f44c15da35083bU, 0x16feed30f2369627U, 0x13c123cb2f044126U,
  0x3620cf1509ff0abbU, 0x1a1000e0f0eff140U, 0x1fc300e3ebf229f0U, 0x9e3825eef119170dU,
  0xf91c54c907dd2906U, 0xedf310721dfc5faU, 0x19f7e512f527e919U, 0xe5ebf543ce1f414dU,
  0xdc0ddc27cf2bf019U, 0xc843fc0a9ed114deU, 0xce1fd1e20e0bee26U, 0xeadbdef3c1fbc04cU,
  0x180aead7f602f10dU, 0x3e0cc0de052b01f8U, 0xf5f72049cb1d36b7U, 0xd5c49203f608cfb5U,
  0xed151fb6ee0706f0U, 0x19470331e135d9deU, 0xe4e80f17e61c18efU, 0x2eebce29feeb0201U,
  0xebf8e0d7d5f09d08U, 0xb9eaeb2431124bdeU, 0xdec2dff10074d3fU, 0xefa171436e1a7deU,
  0x16eadd0ef4f303f7U, 0xbde615fa183206f9U, 0xe21cb9dbcce0d5e4U, 0xf1174fde060de91cU,
  0x321d4d1fffbfe04U, 0xfb4f08fc3c01f43fU, 0x240304f810ddfd2fU, 0x2f829e6130f0cf0U,
  0x2cb8e20425aaf3e6U, 0xb902eef6072743e5U, 0xf52bb024b4b7e52bU, 0xc5ff0800eb0324b6U,
  0xfdcffddeb0f838efU, 0x282e3cf327e8d84aU, 0x198cfbe3c4e417e5U, 0x1e2ffd1231d11437U,
  0xd91d350d0435dd0cU, 0x2027d0f10d1015f4U, 0xd34824c4b60ae43aU, 0xc627df21e10904e9U,
  0x310140c9d440fed5U, 0x220a2807fa140920U, 0xe619fd24eebdf4f5U, 0x2c2c1b1dec1fe101U,
  0xd33a18d2061c13e1U, 0x42111a28d04a15U, 0xe6ecf6bdb1160cccU, 0xf20bc807c80023c9U,
  0x2396cd05cff32248U, 0x3816d5742a109df6U, 0xffc27c6f904d2dcU, 0x317f6fefa180e0dU,
  0x633dfd56d735f001U, 0x14ae00c71014e232U, 0xd1d30dbda0538f0U, 0x26c8f01eca1a02fcU,
  0x10f12cdcdb4b3616U, 0xeb02cdfa1a01da46U, 0x313cccbf05304224U, 0xf221e3e02a1a04d4U,
  0xa30dc120eb334ffU, 0xf8172f1406f03a1eU, 0x3f62705ee25f407U, 0x82fce7dfce072222U,
  0x28e6f5c1c73215ffU, 0xc60edf2653cb1832U, 0x2dc2eb1a161af1c3U, 0xee2809d11ef8cd10U,
  0xe6f5f1f408f6fadfU, 0xefc0e810c6da3e3cU, 0x272f000b0bda3117U, 0x280ef44a03180d3eU,
  0xb03f20ef1adc04d7U, 0xf82125f4e6f8e532U, 0x1f3bfb5e06fbff0fU, 0x19daf0eb4fdeceU,
  0x8abeae948b20b12U, 0xcef332ce143822f2U, 0x15f326013ec8e430U, 0xfb0fd8cc1af60a2fU,
  0xece8110708b10129U, 0x14d3b7ff283ef4e5U, 0x1b2ae0ea08d529eaU, 0xe022cde06a0c67d8U,
  0xcff406f3e7cbe652U, 0x192c00061b2008d8U, 0x9de3850d7112530U, 0x18aec8ee57e4e904U,
  0xf47f2c2a0f07193eU, 0xf3e0fed4d9d3db1fU, 0xf634eb051c550edfU, 0xa20605ef02e706deU,
  0x11d3e3da0d171e01U, 0x27b815fafaf1e4f5U, 0xf6ddeb0d2d19c526U, 0x1326e80b222a1950U,
  0xf4f9c1b8fcd3c7e3U, 0xfbd9cdfa49f52f48U, 0xf2cc27c3101b27c8U, 0xebdb3e1ff21cee16U,
  0xbcb000d4932c7e4U, 0xbef06b8cc48f00aU, 0xecf02621e5ce01a1U, 0xd21925d2eddf02d0U,
  0xf2ec0706290cd712U, 0xac26eb5b02ac320eU, 0x11dd51c0edff9deU, 0xb1010026f5361d14U,
  0xf306ee03dac9e34cU, 0xecf108f0f3e1d722U, 0xb0f6fbe415d11315U, 0xe53439df3117ec0eU,
  0x16c01f1e1dcd1761U, 0xf0e2db111411e411U, 0xeaccf01e0210f5eeU, 0xef3a460af50beb19U,
  0xfdfb024ef037d316U, 0x39d02db801f30401U, 0xf4eb227f2aeeab0bU, 0xf0ff0402efff4445U,
  0x1832d4f4e91004ddU, 0x1230190efa0016f4U, 0xfe000010c024bfdU, 0xf8152e82f0f2af21U,
  0xf0fec5f8dd3af552U, 0x5d9e415ff2a3c29U, 0x90c18ca23f327faU, 0xe7bc082e01c2f02bU,
  0xee011cfefd140fb3U, 0x48faaf19b1d316ceU, 0xe5f30617fcc01617U, 0xf3f7ed4cee09e2e2U,
  0xf924f727f33700dbU, 0xc6fae8f21018c2e3U, 0x36092fdcef33be1dU, 0xead9fced100c04e9U,
  0x2f07c501da16e6fdU, 0xfc0df8fe0cd5bcc4U, 0xc9f3fcf4d5f3bbf8U, 0xcdf2beacfe253d9U,
  0x1ed9e2fb18ea0efdU, 0xe9144de3f240e8caU, 0x152c1acbec081ffbU, 0xe035ffcdc03b09f4U,
  0xb031521fa12e9feU, 0x14e003c1ff2d3925U, 0xe7a309c443fa122aU, 0x434bf7edf4154a04U,
  0x1f19e8dbfff53d05U, 0x27090200daacc310U, 0x2b19d1f12a2ab5f7U, 0xf1a0dd5dc3104eeU,
  0xc532d617b7ebe8aeU, 0xe5e94528f0421114U, 0xe5e8ca46102bf32eU, 0xf2f83403e1c91b00U,
  0x25de12cdead7da1cU, 0xa1f75c1df0c3e3eeU, 0x9f2643121ee9e10aU, 0x2c16f0fce418d5e8U,
  0xef71ff62feab719U, 0xcbdef818fcfae2e3U, 0xe70f190de6d4eb24U, 0x43163ff822f3503bU,
  0xe4f0dcfdf9df342cU, 0xeeb4eedc19d110f5U, 0xcfac2dcf061d0a06U, 0x37381d0e5adbd4c9U,
  0xc2f5faea15d10d14U, 0x2ecf3d2ec24d443U, 0x8133d8ef1abae8d5U, 0x3dee3d28bdc1a837U,
  0xb1d418f22b3afe0bU, 0x27160e28c7411f0eU, 0x28e60f0305992948U, 0xc5e2de050cf8d1f8U,
  0xe6d4b9bf0af329d7U, 0x202502f04dd15e9aU, 0xeeb211a13e1728ecU, 0xf8dd07050f240a02U,
  0xafa06ca2211084eU, 0x15d2e42c8c0e31f0U, 0xcb37e1e049bf000aU, 0xf9cf37fc1d06b8f7U,
  0xefb3d0fafd26b71eU, 0xe6631c8e8851dc2U, 0x11d4280d29e10a08U, 0xa20adbd51cd6fa0eU,
  0x22c8e0ebedee07e2U, 0x821150d37f53fdaU, 0xfb08d3fd1d19d617U, 0x80504f7590dc6e8U,
  0x48f7fb252137083eU, 0xf516494d190c18f5U, 0xef241329df12dd50U, 0x1d16d8cceec4c20eU,
  0x3355daf4eedef227U, 0x6f34a1ef8ed1f60U, 0x2c00cee804f103a7U, 0xfea1637c81921ddU,
  0x242cb9124121f158U, 0xd6fae301cf11b3dfU, 0xe7bae3f20b325507U, 0xd6db1fe5e2d03d09U,
  0x8e0020a56fc0210U, 0xabd710ce3be901b5U, 0xf511f6d924543306U, 0xce1be12434c642ebU,
  0xf0d8279d651b2a4fU, 0xd81401ef29ba370dU, 0x2b59f131c5e80addU, 0xbdf9e5db28f53ce4U,
  0x1e9eae7e50dc9f3U, 0x3f09f7fe0f3df712U, 0xf8fd334836e9e618U, 0x27eae9acfc450b09U,
  0xd95d370532de1207U, 0xf91c00b1e605f8e1U, 0xe5fa623a1eddd6f9U, 0xd8f00551020ef5f8U,
  0xb1dcaced04d1efeaU, 0x160f9f990ad215f5U, 0xdafc53f61d001330U, 0xcaf6f8282aabe572U,
  0xd63852ec27bd380cU, 0x43eba7e8eefaf7f3U, 0x624d1fe1130cdafU, 0x11c6c9e8b51cde2eU,
  0xee37ebe7bc0cc7d2U, 0xd7be0f10f121e1f3U, 0xd60fbf2cceb8e3eeU, 0xac70b18f2d8fc1dU,
  0xf121080a29ea1503U, 0x3112de325102526U, 0x143efd22694a0d00U, 0x1e5f3622094ce424U,
  0xc8c900f3380fe015U, 0x2afc101ecffe0f7U, 0xf44653eb30fa01c4U, 0x3df62225f0da0133U,
  0x2a14ac09f3d7bd1aU, 0x36395a5f1d092f2fU, 0xe3f92d180aa3fadeU, 0x28e2deecd718d749U,
  0xd1c31d044bb93cb7U, 0xf20af7133deb98cfU, 0x4d71517180b37d9U, 0xcef4e4380c18b44cU,
  0xd846fffb5a1af7ebU, 0x7f3824fa1a1539f0U, 0x270aa000fcd224f7U, 0xcedac900cad115d7U,
  0xe3f6c710081505f2U, 0xaec2d537190f01fbU, 0xf1a51a3909225220U, 0xf9f616f296e84040U,
  0x4b03bc2df4bf05a2U, 0xf516f76d3dc64202U, 0x451de8fbedf709bbU, 0xe11706bcf3ac05f7U,
  0xb1f60ef0edc71cdaU, 0x2fece516261d0af3U, 0xf70fe810fd40d7eaU, 0x351707022eeb43d3U,
  0x59dafbcb0de2eee7U, 0xb28351f48f302eeU, 0x1fd1ea271ed3bfdeU, 0xe34f220644fbe0U,
  0xf40fe631d6fcd413U, 0xcc11290853eabfe3U, 0x21e41fdcfa131d20U, 0x32441ed2e3fade1dU,
  0xd8f5e9cbf7e9e4d8U, 0xb92200a514e024dcU, 0x1abc1f1b3bad26f8U, 0x1d46eb156113d768U,
  0xca3b4c1a15f6160eU, 0xd94fdbe9c7d5d9d2U, 0x602a01b0d3f3fd21U, 0xf1ee7f9e71235d4U,
  0x2ae12b451440020fU, 0x18d94fd40659ff22U, 0x29e5b223fca11516U, 0xec2b160ffe4dc8f0U,
  0xf7f626f9171ad621U, 0xe6080df0efdded14U, 0xdaf6d3ef1f1f21fcU, 0xf1a01311a062f27U,
  0xf1efeaf10e3a2afcU, 0xfd12f70628e610deU, 0xc403eaf32bfd1ad8U, 0x2004e528fdff05ffU,
  0xdd042704f1dcdef3U, 0xebf400fd2ef20d15U, 0xd21c24d0e60a0ae9U, 0x182502fa0ceafb03U,
  0xde81baf116f814d6U, 0xdce105c821ef1af4U, 0x823fd1ffe17092bU, 0x10e9260b08de39e1U,
  0xf909faff24fb09feU, 0x160833fb0ced13U, 0xdff82afd17ffe60aU, 0xf3f92201fdf10a10U,
  0xf9070bf61d3f0eebU, 0xe2f0f1e60310ef3aU, 0x1900e5021114ee22U, 0xdc2a0ee7151401b5U,
  0x1205e422ddff35d4U, 0xc704f5e5d9f661cfU, 0x4e6e7d60c05d2f5U, 0xfdd1e331efddfd0aU,
  0x17f3f1f9f6e00300U, 0x124d90fd4e6fceeU, 0xbd1afaf6d3effa17U, 0xe4d923e216123241U,
  0xf4f5fbedccdc35fcU, 0x16deef11f3fdf8f1U, 0x5190be8320213f2U, 0x2ce713120d041a21U,
  0xe8dfd212f7cd01dfU, 0xf41108211dcb2d1cU, 0x1c2314f41dea0e01U, 0x1ddc0207f4101afaU,
  0xef1b1ccbf513fd22U, 0xeb0e0b13caf5f3e3U, 0xe20d1d08e00b0a22U, 0x141630d609d1f0ffU,
  0xf117dfee36efcd33U, 0x15f4bef826eb0c23U, 0x7dbd000380620daU, 0x5f200f61ec8c3feU,
  0x1af0d628fc0c49d6U, 0x23e0ffff09f31223U, 0xc0febef193ce218U, 0xd01bfe3ff21e1ef3U,
  0xf81ced1918080f0dU, 0xe1d226e5e7f6f5efU, 0xeed80ff9131b1de5U, 0xd6ee072204c327fbU,
  0xaaf505d7db202202U, 0xf515f7dcff1bc313U, 0x223ce1fd1507b905U, 0xeb1ee203e2f4f8e2U,
  0x13052ce7fbf520d3U, 0x1d70f063721ededU, 0xfdf4fae2042605U, 0xeaffd5d20efb0bf5U,
  0xe1f61d2781ed0f2dU, 0x12f2f6e622e0f41bU, 0xc4ec00eae326c83dU, 0xf5f10cf560011f0dU,
  0xf121ebfa03261d02U, 0x161ef70642f01008U, 0x2fd2cadb1aec1bd7U, 0xdf110ce0f1064df6U,
  0xeec90d0cee111d16U, 0x182007e915e118cbU, 0x23111801da51ea1bU, 0xfa0ed0fb18071802U,
  0xf408720a25e833dbU, 0xe909f4f6251eefdfU, 0xe000e1bceccdef2bU, 0x76038171ef8f51fU,
  0x1ee1f6fd26e62c27U, 0xea0926deffee16e4U, 0xf0eaf6060c192404U, 0x2219310bbe201900U,
  0x3091f15f926ecb3U, 0xa2f1f990c1de7f1U, 0xe817ddd8cfdd1ee4U, 0xe303ebfde2ff080aU,
  0xe5fdefdaf842e609U, 0x3d20d516bc1ad9d9U, 0x3500301dceeba31eU, 0xeb09af10f84e242bU,
  0xe605e8ecc8e2d7e6U, 0xce0f1ed1607e9f7U, 0xe704ff23e60df022U, 0x1909e230fe30f922U,
  0xb0210f115f1e1e8U, 0xe8d2e0fdf7eb18dbU, 0x2312ff17c4dc0020U, 0x6143716bffadc17U,
  0xd9f7e3dded0ae6fdU, 0xfa021ff824acbff9U, 0x81215db253b09f2U, 0xf2f130f9e5c12118U,
  0xf91dee200f2ce601U, 0x1fe6f5cfda16091dU, 0x2fd19d9082bf0cbU, 0xe6f52149fdc727c0U,
  0x1be7bc0eeaf8f3caU, 0x173124d8ba2596f0U, 0xddedc4f530ffec0fU, 0x60709ea3bf120fbU,
  0xfd221ff91e07cd0fU, 0xcb3d21b3518111bU, 0x10e828d1e03dea17U, 0xf8d605030812cee3U,
  0x3cadac0cbfdfeffU, 0xc8fdf19507e9f4d1U, 0x19dceff6ffed45e0U, 0xeaea3e2457e7f909U,
  0x15f7f72000e411U, 0xa9e7e20c48eb09dcU, 0x2216e3d6b0e3fd24U, 0x101a22fe5f0bf117U,
  0x41ea07c5ec0e0b98U, 0xbd6ed14042bd82aU, 0xc4e270bff4f8db16U, 0x18eb41cfbc2c232eU,
  0x41226fdca00048fU, 0x81c25d6f9ece0fbU, 0xd0fcb3c726f1dd31U, 0x215e5f33d26e635U,
  0x19ea05db4bf1321aU, 0xff082b9ef343f4f4U, 0x330310bf1dfb2148U, 0x4de8dbe52b06fa28U,
  0x1ef352d1e28f7e0U, 0xf6d0001804e1e5e0U, 0x343c2307dec2e8ecU, 0xcfc00a46dd010405U,
  0xcc0444010d9b4ffU, 0x2201fe1ef20216f3U, 0xe8334e020731dc49U, 0xebf0e5f61cb2f0f0U,
  0x10e247e4f5f7080dU, 0x1eeb0ae0ced8ee23U, 0xceaf70ce0f3c705U, 0xef0ef604d5167f2bU,
  0xfee8de02c5d13c33U, 0x1ef505f9c7da0d11U, 0xde35160aff02fd49U, 0xe50eec04f205001fU,
  0x11f801ea040d0be2U, 0xd7f5e6b9052fe633U, 0x301539f5efe8fd11U, 0xda222242fa31850aU,
  0x37800e9e518c6f3U, 0xfd81cd90a4fa7ecU, 0xd70e0d09eef72deeU, 0xdece100cee02ff1U,
  0x3003a3e325fb0801U, 0x3dfa381eddf23609U, 0xff2dd7ee26d6fadbU, 0x9d091a3ad21cfd02U,
  0x371c130a00eb2115U, 0x32f6ea0c20eefb20U, 0xc1effee703cd03ecU, 0x1716bc0bf9121540U,
  0xfcead31e100c06e0U, 0xdcf206e8e0182004U, 0xfeebe107d8d7ddfcU, 0xedbf13ff27e11602U,
  0xf71dc9e5e904feeeU, 0x363e25daae4f8bf7U, 0x1cf64201d4f80106U, 0x8cdea14b9f1b9dbU,
  0xe73018e3fd18fe05U, 0xdc17f81ad1e0d124U, 0xfc0d08c5f8d1fc1aU, 0xb3013b7ca61e22dU,
  0x7283f0a0711e311U, 0xf4f63be309ee120aU, 0xf9fefcffffef2ce0U, 0x2fee812161b1bfeU,
  0x18fe3019e917d620U, 0x3d933fe14153135U, 0x6d7c8031701f1eaU, 0xecc9e2db15e61cebU,
  0xf7c904e323f6db1bU, 0xec270bd815d21708U, 0xe71714f210a3ea37U, 0x3be46add34d9f928U,
  0xfa001214e6e5f2f0U, 0x2c1505e308d90fe4U, 0x3c1ae7bd0f41de1eU, 0x23defc3f0510fc02U,
  0x1c1001f608b7c3f0U, 0x1312170313f9e621U, 0x2d0aba30f52320f1U, 0xb2faee9820eb07fcU,
  0x13d6ec0a1130f3d2U, 0xd6dc03f4ff81d250U, 0x7b723291df3c306U, 0x2304e5e901081e19U,
  0x4f3e349b20c0defU, 0x78dbfbe5470ff7beU, 0x1420eb02f2f5f73bU, 0x1243f7e122f6e8bfU,
  0x227eef7fcd4d2f4U, 0x2be813f2f9f2db0eU, 0x2ff9ecc9f6183dd0U, 0xe01cf3e516e9e7e4U,
  0xd414df1aee40eb0bU, 0xec29270200e4e8f1U, 0xf4f50b08d0020f15U, 0xf93c261a74ffec0fU,
