/**
  ******************************************************************************
  * @file    network_1_data_params.c
  * @author  AST Embedded Analytics Research Platform
  * @date    Tue Jul 30 23:14:05 2024
  * @brief   AI Tool Automatic Code Generator for Embedded NN computing
  ******************************************************************************
  * Copyright (c) 2024 STMicroelectronics.
  * All rights reserved.
  *
  * This software is licensed under terms that can be found in the LICENSE file
  * in the root directory of this software component.
  * If no LICENSE file comes with this software, it is provided AS-IS.
  ******************************************************************************
  */

#include "network_1_data_params.h"


/**  Activations Section  ****************************************************/
ai_handle g_network_1_activations_table[1 + 2] = {
  AI_HANDLE_PTR(AI_MAGIC_MARKER),
  AI_HANDLE_PTR(NULL),
  AI_HANDLE_PTR(AI_MAGIC_MARKER),
};




/**  Weights Section  ********************************************************/
AI_ALIGNED(32)
const ai_u64 s_network_1_weights_array_u64[127392] = {
  0xe0052bdeb9e8e9e2U, 0xf00b1c200ab2e6e5U, 0x133508403009f931U, 0xf2e8c61fe7fc18fdU,
  0xfdc21933fee5140dU, 0x1cc008f02905cad8U, 0x190f0b1459dbb5d0U, 0xe31ee80d4bc81eeeU,
  0xdebb021c001a1428U, 0xd1fa12530cfd0a22U, 0xc0d2c570ed1ebe3U, 0xf13cd832e73ee7f2U,
  0xe0d6dd24d157dfe9U, 0xe3faf5f018daf923U, 0xf7cbecfcda2423faU, 0xc0fed28cccc0b2eU,
  0xd30f11d3daeff7e9U, 0xd41020ed1c16340cU, 0x2fe2ec0af2c1e819U, 0xed12d5f1d5ecf0c8U,
  0x4bb0062ffc49d3e3U, 0xfd0ae1bd0acde1d2U, 0xc0ddc4a8e000dc0cU, 0x1b280233e9de0529U,
  0x81f01f7c7f7fb01U, 0x5daf13fa03fcbfd8U, 0xd9c6f826fad714f9U, 0xcddde2002facda5U,
  0x211efa13e7263721U, 0x2ea1e9ead308f927U, 0x1f0fc717ff1de519U, 0x1323f638f3f3ff37U,
  0x1b1116e7d0faf50cU, 0x1bd2f2e209f5e906U, 0xe316f0ddffc30b20U, 0x231c1ff0ed4ee5d0U,
  0xf1f2f7e61521daf7U, 0x1af900e1ba2df62bU, 0x15c3d71df82effc4U, 0xf064002bf034bd12U,
  0xd2ef4f31f2014cfU, 0xf6f41cf3ee21111aU, 0xdde4033624fe31f6U, 0xedde12f72532eb1dU,
  0xee1e128b5dfd70aU, 0xe4d51832f9cd13f3U, 0xde25e5fd1c1310e4U, 0xffb2f1dca2dc98f1U,
  0xf6fe5e0341f3eaf6U, 0xa0ff6df21fb5758U, 0x12abf5de1cf1c67fU, 0x21018d2ee4d5dcfU,
  0x12ee15e85430c4ffU, 0xa2df20b8e6e60f1fU, 0x114f1e2ae0cd1504U, 0xe8fe5dfbe5e8a94dU,
  0x29f9100b25ffdf6dU, 0xdbfd310ee8d12a18U, 0xf1f3d4d0cae3d809U, 0xef04341cfd1701fbU,
  0x16bf450a04d5f216U, 0xe7034affd55a1c6cU, 0xd607ba17d80c2818U, 0x66dee42250df1de9U,
  0xdae6cc2eea2a26c4U, 0xd5e0fdb72305faf9U, 0xd6f1eead1b9ae914U, 0x2126c712e4fa03fdU,
  0x1c00dc5d371402U, 0x2623f600c49fd614U, 0xea340d420a0e2df4U, 0x47ebd7fdedebc1aaU,
  0x150d13d3efc1b039U, 0xe10a3d2500f3dec3U, 0xd226060b03d810e6U, 0x1317d001f8eba826U,
  0x5f15c7e22e30e90eU, 0x2dc20ec5e1e52019U, 0xf312c01631f41234U, 0xed23efd940f5efe2U,
  0x20002b2ff8fcc90bU, 0x174a0d352356f7f0U, 0xdf19effcfd4bf525U, 0x44e0d7de21fe41edU,
  0x391df3e201aabcc9U, 0xd8f9e2811609eddeU, 0xce20033ac6e7ebfdU, 0xf91e0b31ecd303e5U,
  0x12f1ff06f7ee8d15U, 0x351610183ac70fb2U, 0xfab05be5d1f0c828U, 0xe52b1d010b5a1b4fU,
  0xa3c8fddd1e2bebc0U, 0xe53e3312bef0efb5U, 0x2927012abdf03f57U, 0x281fd2f9e42542edU,
  0xc8f2fc2f1aa40dffU, 0xecc8fb06f94dd0f2U, 0xae21292cb523d904U, 0xdffb0c1603fbd506U,
  0xcef1b93222c05cb7U, 0xdbeaf6e2fef3562fU, 0xd4e8d30801fedcf2U, 0x22f4681a2cef9d20U,
  0xd200d11120f03029U, 0xfae403aedab538ffU, 0xe804d428100b2f26U, 0xb5c02bdf3ce623e8U,
  0xfdffe4021911f4cdU, 0xa22eaf312ad0809U, 0x9ef7eef709ca19ccU, 0x2cbbef1dd92233a5U,
  0x91ff814bff8f6e9U, 0xcb1bef7be609ece2U, 0xdbf0e1450a0e06f4U, 0x8074302cb9bf803U,
  0x2733ff4001c9dc1aU, 0x43f704e2f10e276bU, 0x1c0a5902140decdaU, 0x1ce80dedeb27265dU,
  0xf4e514d9fdc2e805U, 0xfc40e33e3e10effaU, 0xe3db50f2f1e71ddbU, 0x8defe01182c17f9U,
  0xc30dc02eedf00ec5U, 0xf61cfb9f8042206U, 0xfb0fc1323e141850U, 0xfe110c0fee060f2bU,
  0xacf7fe17c4ef0d07U, 0x80adbd9e235f21aU, 0x1d20d2e2cf02063bU, 0x9ffc3e608e10a10U,
  0x92619f6fceffa05U, 0xe1f90fe1062a2406U, 0x71d1cf2311004f8U, 0x6fc0c02cee01107U,
  0xc906ef2ecafe1d0dU, 0xe8e2d7f41dcdda0eU, 0xfc22dcf0f20d0f11U, 0xc1eef4f63439ebeeU,
  0x282ffeec1dbb0ae9U, 0x3838fde1b0181a20U, 0x10fefcfab11c3834U, 0xea15e9caf9f80304U,
  0xe5fb0037bcdef641U, 0x250de70cdcd64d03U, 0x12c1cc0c1de3df24U, 0x3ad9a61313e6eedcU,
  0xd0c202ff26ca30ecU, 0x46fcda18362481c6U, 0xcfead8e7dee5ff07U, 0xabcd071602eed7d5U,
  0xcc35d61f082a05e9U, 0xffdef50ed9f71ceeU, 0xebea0306f901200aU, 0xcc90b1affcfd201U,
  0xb3771e351ffa21e7U, 0xf20e34fae9e6b304U, 0x34df3e0b07f2e8ffU, 0x2af610051af450faU,
  0xe6e248ff1100e5d3U, 0x5711ce29e1e6d1e1U, 0xd011224206f2cff9U, 0x2d32d8e423f6dc32U,
  0xd2d1cecfb151b0aU, 0xe3c317ea25fc3507U, 0xe208dce307f2db29U, 0xee2c6040ee61525U,
  0x37b70e14dd022504U, 0xf0a1dfe9e828bbcfU, 0x7ef1114efef1ff9U, 0xac0dea062ec1f52fU,
  0x33dc012d11e2e1faU, 0xd8eed2f0bd20420dU, 0xec38efd7460100dcU, 0x4f0c3fe0bebe0f7U,
  0xcf115221aeaca0dU, 0x3813c61ae8ec1a29U, 0xeaee0d031f1cefe8U, 0xee3012e3000f3504U,
  0xd0c4e3d60c00cdf8U, 0xc2dd18d9034bf1feU, 0x4e1f713f43017dbU, 0xe5f5252508e32fb4U,
  0x1feaf1f8f806fdf4U, 0x27efe2f01ef54030U, 0xd7c80fd6f5d531fdU, 0x3930ffd2306f92fU,
  0xf129cd1bdbf22d41U, 0xe3db27f6f0e21919U, 0x6000d46ec24dadaU, 0xd2082dc610fcd700U,
  0xdf931f8e60ff7cdU, 0xfae622c52008ba17U, 0xfe23000402deeef6U, 0x37efdebb28f0eae8U,
  0x7fa15fed8f1f25cU, 0x150a25b7f2032bd8U, 0xf0e3ab14e408ffU, 0x2df715e7fcecce20U,
  0xfbdb02213eb52c27U, 0x3bd41700f0e1f1e1U, 0xf92213d6fbeff3fdU, 0x2c2fe2fef72107ebU,
  0xe8f01117f4ecfbcaU, 0x251f1724d6e32711U, 0x2dead6dad40a0ff7U, 0x19b41906f8120512U,
  0xf039f5fded44f914U, 0xd02feeaf1f8ccd8U, 0x2d1d2edeaf42028U, 0xc0ee472807012a12U,
  0xb037b8e8ea2901e2U, 0x19cefd09fd17151fU, 0xaf20e743ce0132f9U, 0xee0d02fe0ed7031fU,
  0x60efc3cd1d8bffeU, 0xe9cc00cb1636ff1bU, 0xe6051210ff1d22f2U, 0x17fe1613d24aae1aU,
  0xd7a5be22f021d802U, 0xc0176a111dff26c9U, 0xecfeaa09e6f820e3U, 0xde15422b0102df06U,
  0xdc0db80bdacdfbdaU, 0x1d0519f4d43ed90dU, 0x1dfd21ddededffd7U, 0x23f61ae4f4efebf6U,
  0xdf38e9011cd6f319U, 0x171e303a7fe60618U, 0x1704f74517defdf2U, 0xe324dffb15064d0bU,
  0x7facdf306b4ebdfU, 0x5dd0614dde0f137U, 0xe71b31f5faedf3fcU, 0xa6beff0f28c914fdU,
  0xab0bf12c06eb1bebU, 0xfd1c06d108c32a08U, 0xe34503ff04fb2127U, 0xf7201af504d3ef31U,
  0xe1e9d4fef6eed835U, 0x1707cad9ce3ae317U, 0x160cca0ad7f91bf9U, 0xe3d10a190c4db409U,
  0x5fbf30df910dd25U, 0xdcafbe616dd34f7U, 0x5d71aeeff3b2510U, 0xe0b92ef604cb190dU,
  0x32170f09e71613d3U, 0xee06dc15f5d81302U, 0x9dc032cf90d1d04U, 0xc012eeefe5260603U,
  0x3f1fe1dbc905c202U, 0x2d10160efff9eb44U, 0x22a31d1b1bf8161aU, 0xe9f509fc18eb1d2aU,
  0xf6e8e608131d19f9U, 0xcc01e439ef4dc8cfU, 0xdf3139e1def42ef6U, 0xd3e753e3efddf2e8U,
  0xcf533dde4bacdf9U, 0xeafdd80fcf382229U, 0x1ddceaf623020d1fU, 0xeabe221f0cf21304U,
  0xdcebee120edf11b8U, 0xb57e5e61f10050fU, 0x210ecae6272e05ddU, 0xfc3e071018e31dfbU,
  0x3ffdc2e1e6ed1916U, 0x15e81c421b250b12U, 0x2c1e07cbd0001e1bU, 0x1bf0c6e11e0afe13U,
  0xf1d83000db17eeU, 0x40712f40a18f2ffU, 0xc2f31eed140bd904U, 0x25c03410f6da1808U,
  0xa0b13fae8054332U, 0xfe16cb0dc5f31e05U, 0xbfd034517fae017U, 0xf8ea2803f941fc26U,
  0xf0306f10a3114f6U, 0x2a3d16f0caeef61aU, 0xf8fc092036c72313U, 0x552439d0e133fa0fU,
  0x53309ed042c1813U, 0xc8f828f2cb02e6e7U, 0xdbeb04d5ee140fcaU, 0xf711fa251200bc0cU,
  0xfecf3f12e5eefbe3U, 0xe210e3210fc81128U, 0xdf25bac6d21105fbU, 0x191305fdec30f6d2U,
  0x3f0f8fad102fe0bU, 0x101ddffb19fce9c8U, 0xc5f6cd190824c73eU, 0x1e1623d8e7d61ee3U,
  0x1fefedcfc02fdf9U, 0x1216b41507a3e9aeU, 0xaf4f2e3f903ec18U, 0xecc5fb02f81015f6U,
  0xff2531f51c07e5f7U, 0x1304fc1e161522cdU, 0xffdc2416d20ff326U, 0x35e90ef8f9f020e1U,
  0x21f41bf1220cdff2U, 0xfd0c0ffd1be3f3edU, 0x17f7ddfe31cf3c08U, 0xf3d5e4f413ef010fU,
  0xfaf70df43022ff12U, 0xd522f3dc0c014d81U, 0x4427e8e81c1f16f4U, 0x13d01235da15ddc3U,
  0xdcfb1f2f001324eaU, 0x2e0a0f0df014092dU, 0x1830eff8f9db12e5U, 0xf1bcd34e4d8111fU,
  0x4e0f2e203ea314aU, 0x4fb141a2f240908U, 0x2556edf94a03d44fU, 0x15ea05dae8cdfe3fU,
  0x281c0fc212e7edfcU, 0x2e92fdeabdfebf2U, 0xcf62b1b25fe192eU, 0xb3de71633250cf8U,
  0x32f00ac117073ae4U, 0xeebcb2d00d03427U, 0x1bd2c044f6ed08ebU, 0x36ecf130161ffd2fU,
  0xf111ede99cfcf20eU, 0x4632f7120a0fe51dU, 0xe5cac32416f5180bU, 0x1bd8fbf6f417de19U,
  0x1029330b0df123d8U, 0xfa0ce8cfd9e03df8U, 0xfc1fd2e3f23bb406U, 0xe146e33e089fe104U,
  0x4902411e05fe100dU, 0xf61ee0f928e82c0fU, 0x371e371febcad9caU, 0xfd22f4e7d1e5ec08U,
  0x1ceca50cea0f11f4U, 0xf0fce2dce0d4f1f4U, 0x33efe21ff7cd01e8U, 0xc525bce3162d2047U,
  0xeaec15152eb424efU, 0x301ff41956e8134eU, 0xfb28f5fdfb2ae112U, 0x11edeee2a271a04U,
  0x1c0635a800edc9feU, 0xda02dd87132f17e9U, 0xf5e5a70af90b44f5U, 0x28e1e8c1d4271305U,
  0xa8f8f301d41d052bU, 0x11d31af33744feefU, 0x42e30ad401e50e03U, 0x11a11af714d5f5c9U,
  0x1905c9231d08d617U, 0xf94113ffe713edffU, 0x300ad8dffdefe41fU, 0xd5f5a2e70806b8efU,
  0xe61bfb03e7c4101bU, 0xd5f93f81f3230a05U, 0xfdd4fef7200f3a20U, 0x9aec16ff23f7180cU,
  0x34ff1b2f26bbf223U, 0x2beecff3320ed0b7U, 0x607d7a9ffc84f2bU, 0x10ecfeea05fcee02U,
  0xe2e60d3f5fffbd3U, 0xfef0ee089ed3f70aU, 0xe62bf310e5d7ecccU, 0xf065701f21a0821U,
  0x33b29cb1a1a19f3U, 0x171a1111f6622bd0U, 0x80c0426e7eb01fbU, 0xf2dcfb060f34e30eU,
  0xfbef21f317dd28f2U, 0x2ded1905060c00c7U, 0xaaeb000164f6f91bU, 0xd2f234261828092dU,
  0x71a50dc1507da1dU, 0x81f52d00e0e35e7U, 0xf713fc2f0e1d2303U, 0x190dec08fa151fe4U,
  0xfbe7349d22ed0e2dU, 0x292e15f4ff446ddcU, 0x1451dcafd1b162dU, 0xcc310b7ee2627faU,
  0xb1ee6f3e0b606f0U, 0xce909f9f2e7f12bU, 0x1f252815a9d42523U, 0x3421432b26f9a00eU,
  0x1ced39ed1e3b3ce0U, 0x1503b220b6270403U, 0xd8e903cb0eb503f8U, 0x123f2541062fffe4U,
  0x5fedf86234a81905U, 0xe92215d00b4ed2e9U, 0xe3b8ade71767450eU, 0xbc21d0f7d3923bc4U,
  0xdc2bc611f5fafc18U, 0xce4ab2001712bfd2U, 0x4df1ddeecfc80817U, 0x192ff2e812002e08U,
  0x1c9faafbde25097fU, 0xf0ecf720eecf3328U, 0xeacecdd0f632364bU, 0xe644f126f70abbdaU,
  0xc3160819024ffc48U, 0xc5bd0cd428f64339U, 0xa7ef04030dc2e6c5U, 0xeaf51d02445b38e4U,
  0x3f38f8ecc0003ddaU, 0xfbc04000f7c5dedfU, 0x40af1d0b1222c518U, 0x364cfc3ddcea2119U,
  0x3ace40feb8d2d44bU, 0x50306e90543f239U, 0xf67dd0f915db4d12U, 0xfebb33d80cca16f4U,
  0xe2b52c02f72be747U, 0x27d6c60716441b5dU, 0xeb02e7f015d20421U, 0xc1bffdd34fb0cdaU,
  0xf528043944f7fceeU, 0x34cfcc02dfdcdb09U, 0x15fa21bfc403243aU, 0x4e54df9c082ccfecU,
  0x174dd97c37de7039U, 0xe8bbd7bb1352d929U, 0x151a1406d849c99aU, 0xfa291242e0dcc726U,
  0xf5e5222c11cf1ecbU, 0x45f3ad4814e530deU, 0xb0f02efff8f11748U, 0x1467da20cff235f5U,
  0xe03420f8e73a0e23U, 0x1894c6cf9ef40452U, 0xd71013d7ee6425f9U, 0xf500bb25e117e7d8U,
  0x7fa8d6ec27120733U, 0x2c28ece8d74fdfc4U, 0xe411f23cc0a3b444U, 0x40309b65060e1052U,
  0x51d8b5cbd330c4e3U, 0x42222c05e0affb30U, 0xc2351709c8ee3376U, 0xe21c1015ff1bf63fU,
  0x171a06cd33eeeaf8U, 0xdf410242928cf1bU, 0xb3e3f2d3072a050dU, 0x1af12408eecc24dbU,
  0xfb3b022d1ceff610U, 0xc59ece162be80121U, 0x18ab333ba1c75fd5U, 0xfc1250dfda6dff2U,
  0xedcf5b6d2e8ec00U, 0xfe2c050629f5e261U, 0xec2650c22f0ed0eU, 0xb12724e02010fff8U,
  0x14ee12eef8422d06U, 0x5631f6df0913d60fU, 0x1ddf3ac8f3e81113U, 0xdefde117322cf4f6U,
  0xfd180cb9151b0ff7U, 0x203020d2141ad6ebU, 0x17eae8f741ec18f7U, 0x3604e80607c8fa47U,
  0xfbb8c8ea19454efeU, 0x190f162abdf1efcdU, 0xe5061df7eb05f915U, 0xffdb0ac7cb34e834U,
  0x4bfe0c21002f20c6U, 0x535f03d051b604eU, 0xe4260b19f7f85c29U, 0x301eda1f3dedbeecU,
  0x21a0feefe13e7fdU, 0x120bd8e7d0e1582aU, 0x15f7eeddf7f633c7U, 0xbffbedf4fe2dfc32U,
  0xd7d53008014cc1ecU, 0xb73320f11708f7f0U, 0xb0e10143fef1240U, 0x3a5724dbe405f41eU,
  0x30ae2e30d55ed34U, 0x11f33df71ee6222eU, 0xa2cf44dfed7126bU, 0xcb142c43f5ec1b00U,
  0x1bf61f0712f9d5fbU, 0x1004e52e1a17f209U, 0x301014bde9c9bb35U, 0x3bea413d0be9fbdcU,
  0xbbe3e501e8df02f7U, 0x1e051af944b040ebU, 0x3f0afefd0ce4f60fU, 0xf6c7f8e903310f03U,
  0xfeeee4137112e103U, 0x6b330b2febc4ade3U, 0xeb2134f0281adff9U, 0x2ac9d0c0d7161a0eU,
  0x1905c804fb2408d4U, 0xece9f4c3a50535f8U, 0xccc9afe24f3d1aeeU, 0xeae4f907f1dc2539U,
  0xf82c1611c70ce62eU, 0x2812d6ea23f90861U, 0xdd3cf90ce2fbf4ffU, 0xd26d0711bd175706U,
  0x33244a1600ebd2d3U, 0xed0504310146fc8fU, 0x2b07f52ffddb1d7fU, 0x1635e4da1f22f708U,
  0xe121f00108090907U, 0x26eef5d0ffdb03e9U, 0x37dd0113280b121aU, 0x3fe27e505ec1108U,
  0x702e21e231d01d0U, 0x6db19f41e1c3319U, 0xb9de0409f7081de6U, 0x909020bdd07f9U,
  0xf42fe7f6eaea29dfU, 0x100aec14f41c08dcU, 0xffe4023ce8feebfcU, 0x19052cfd09cb30f3U,
  0x1ff5ea0e0714fdf4U, 0x37fbfde404e61fedU, 0x133b49f41604e01fU, 0xfa4811001008fe09U,
  0xee2ef0d712f1f7eeU, 0x17ee17c0122ee1f8U, 0xce023d16e91e7fedU, 0xeb05e4d9ed08d613U,
  0x4208c60b451ffde1U, 0x8f6e8b4f80ee8ffU, 0x5fb011830011cebU, 0x14e8ed08250e0802U,
  0xe426081c070b2a39U, 0xd5e110e429040317U, 0xdf11f9f74607b417U, 0x27e0dee21204021eU,
  0xbecdeee0a2e0ad8U, 0x2edee6ed305039ccU, 0xedee2004ec1209d4U, 0xd2ddf411f90103e4U,
  0xf8e40abe000a2e2fU, 0x6d309e9e4040b28U, 0xe0430e3d303e5e9U, 0xf9edf606fcda1022U,
  0x17d108c502d10124U, 0x1e518e90403bfabU, 0xb8e6ef24e91e21f5U, 0xb1301ceed79cebebU,
  0xf5fe09e5fce306d2U, 0xedfdc1f5de1e0fe4U, 0x20e3dc2b22feb616U, 0x35ea16eefaecf633U,
  0x1a253aea1308adcbU, 0xae52805dfea0ef2U, 0x3efa16e6e714eed7U, 0x3207ff0ed4f61ff3U,
  0xeffbbde6d2084d0aU, 0xd8effa3330fb09d0U, 0xd922301f1ae7eb02U, 0x1b15112b020336fcU,
  0x2ff622d31a17fe03U, 0xf609ffc213054401U, 0xbd0fdd24f90ce8ffU, 0x2808d7e71900ff04U,
  0xdcfcecf1e11714e5U, 0x170f1ef8fbd81c35U, 0x4f6eff11ff8210bU, 0xc505e3f0f613ce1aU,
  0x817072f24faccf4U, 0x1f11ee06d9e40ef2U, 0xf4e3f603ed200f61U, 0x1f1200ecdeb0fedU,
  0x2b04fcef0feb1ffaU, 0x30ddb716cb33253dU, 0x7e7e602ee3023e8U, 0xe311bc1431ca22edU,
  0xda033cf606cb061fU, 0xc7eef929cb12e6f4U, 0xfbf602f6fe200c2fU, 0xe6e7df13d1ddfbd4U,
  0x38d23fee4d20f91cU, 0x1bffffeb23010fd0U, 0xce108ec08e20b09U, 0xcf18f6e71bc4dffeU,
  0xa7041baf1db6d0faU, 0x11edebd70c0ded0bU, 0xfbfbe214ede4153bU, 0xf6d5e7f8fc3112f5U,
  0x2edaf6012ffc29fbU, 0xe4251123232b2d22U, 0x174bf32546c8ee0fU, 0xfc1d0fe9bc112105U,
  0xee1affeeda1ffdd3U, 0x223267154124febbU, 0x19d90ae1bb1e1508U, 0x27be071cb9242f19U,
  0x2014ddf6eefb24ebU, 0xd3fe10ddb02db1bU, 0xfed23fc3cc32fdfeU, 0xe7b2f4fe18361e12U,
  0x53fd53153d2fcffbU, 0x4131bfed1ec0821U, 0xd0de33de36bd340cU, 0x8f2f0c303d5f468U,
  0x3d2abec121b70ccbU, 0xc933f2dbfc43cae9U, 0x102e015d02517edU, 0xd1fd30d600fe2544U,
  0xf70af90cf120ccffU, 0xe1ce102ddae5eb2eU, 0xfb24e6e0ee1806e0U, 0x7fcce0db3b0cf1c8U,
  0x5f908020d41fa00U, 0x210f142dfa4bfac8U, 0xe316cf09dff5ed18U, 0xdb32060cead626cbU,
  0x2e07cfd31cfff0a4U, 0x2ea2e0b10d415f4U, 0x1321cde8fee0efdeU, 0x19e2f2e02255f304U,
  0xfceaadf002eaad0cU, 0xc1031b2a01bed704U, 0xcbf823e8f013f510U, 0xf1915f709f62ed7U,
  0x1cbb1120c2f0d8feU, 0xf7dac405e01be0f2U, 0xcf070213fa0cc600U, 0x3015231f59d7ca0bU,
  0x1204f512f4eb11c6U, 0xc3ef0c19d0f010e0U, 0xadc15ee17272d25U, 0x162e4bda40eee7deU,
  0xd2ce051018ec3325U, 0xd521f9f4e217fe03U, 0xd751f80f0f0318d2U, 0xcef6faf5e8d8f6cbU,
  0x1019e8efd0dc1bf7U, 0xe40b19cae6f33912U, 0xe0b171e0d1c1703U, 0xfbf8e604fcceea02U,
  0xb3801f3f107ba0cU, 0x4dcf8c4d6ea12c7U, 0xffdcdced22f303dcU, 0xce123fe712f4d3f5U,
  0xcff7e80bc423f9f1U, 0x15f1181df024ed24U, 0x1213f7bd16071802U, 0xecf718f5eefefbf3U,
  0xbafc1014e50df4eeU, 0xcada10e3dcda0720U, 0xe2032a0df70b3bc3U, 0x8ff0704d6094cU,
  0x72cee1dd2eaf307U, 0x8f844f6f3f30bdaU, 0x304d12c150321f0U, 0xd48130e3ecd90df5U,
  0x16eec1091005e64bU, 0xf1edf932f7032313U, 0x4220bce200911edU, 0xfbf1d23409e6350cU,
  0x5bbe90811e9120dU, 0x34f22812ad0f0b24U, 0xbbdc0ff438fe1fU, 0x23ef0f0e180f01ebU,
  0x19d2ff0209c008dcU, 0x1be1071502e630dfU, 0xe219043405171b17U, 0xf05c2efa13eae8faU,
  0xc0182e03c2190be5U, 0xf40714f5200b1509U, 0x90b313d090cccfeU, 0x24efec13d5dcd922U,
  0x1d3321ecf20411e9U, 0x729e7f1bee8ea19U, 0x3bd9fefe28ff0d2aU, 0xca331a07057012e8U,
  0xe0f8f71717f417f1U, 0xf6cc1e2ad1fed215U, 0x27fb1316f110e909U, 0xb4130dfc2bfc4126U,
  0x15290a1102ce08e5U, 0xf93400de16280207U, 0xe41211fd13f0e31eU, 0x2215d110d5f9f6d8U,
  0x17f8ed0625d3e90cU, 0xf02edf701d902fbU, 0xf115201bf7f6c6dfU, 0x5050d112cf7f8fdU,
  0xf810fde42047d61aU, 0x308c82d22ba00f4U, 0x262a1705e1fbeafcU, 0x10d7eecf12e219c6U,
  0x1c153114f80afbe1U, 0x18ef0a010d3002ecU, 0xddffeed9231800cfU, 0xfac24fa08e70d01U,
  0xd808ffe1f21e370cU, 0x1b17182e0e17e9faU, 0x1c260d0824ff1b19U, 0x40eca21f92d3b19U,
  0xdaf8e708fe07fcc1U, 0xf4ff0309da180d1fU, 0x3d28d3f502d8f93aU, 0x18efc6282ee7b81dU,
  0x1dea14edfe2403f1U, 0xf0cce7e5bcde691aU, 0xf29d89828ef0d02U, 0xf71bf8fd0ffb09f7U,
  0xee4efa1b00ebfce3U, 0xc2edf7d60bfef813U, 0xc4f9d54ccd0f0d0cU, 0xe8e0cbd31cf3fde3U,
  0xd95100c912d307ccU, 0xa40217bf33cceddaU, 0xb011125e5f0dfd3U, 0xdd1a30382339f7ffU,
  0x341e0df7f7f50a15U, 0xc717fbe2050d0ce7U, 0x5e30e40e506080cU, 0x13f307060e037fffU,
  0xfba31c10e403b963U, 0xff27002c0adaf4ffU, 0xe10fe02bed02e805U, 0xccc2c704d11e23fcU,
  0xccc231958decafdU, 0x16f9fbd621dd27e3U, 0xf3ec0412e433c111U, 0xbf8ff1a04e124d0U,
  0x32e8e6fc2732f521U, 0xb3ef4301324dc0aU, 0x25ff2f09f2072300U, 0xc2f117df17f40df8U,
  0xeb0ded1d35d31a02U, 0xf013eb2e01d42005U, 0x422e2de4f71d10faU, 0x372a0835edf202e7U,
  0x70f24ed15f132e2U, 0xe3501633bb1209f9U, 0x481a12ed0b58f513U, 0x59f8edf6e6decb0eU,
  0x160bfb1ce6f4043cU, 0xff36053943ef0bfbU, 0xb6153208f208d1cfU, 0x2af02556c40a0029U,
  0xbd1004d71701cd0cU, 0xfef2f10d0ce31af1U, 0x4af800bb09fce6deU, 0xd138cee3e519072aU,
  0xe5e53cf1462607beU, 0xf8d503142f07e1a8U, 0x3556f3081033fc22U, 0xe1321feeb04df05U,
  0x261f1723edb522eeU, 0xdf117ebff06d9f2U, 0xfbd1de24e112fde2U, 0xfc0d18ea5016fce1U,
  0xec0ef5d5e609dafdU, 0x18f7f4c9da1aebf8U, 0xd2e400f114161d2eU, 0xecf336e64918fe1dU,
  0x20b6f1cf10061718U, 0xe4c625e5e53ef5cfU, 0x2ae0d419fa53f5f9U, 0xe108f6ed09f522c5U,
  0xfe14ce2f21070b15U, 0x23fa04d9f6070cffU, 0xe5f3e3f5f7da07f1U, 0xcf01ea192400e611U,
  0x1ff60e32e6f8f409U, 0xe7df2603e9e01b11U, 0xcc43ba1675131bfeU, 0x1de8ef2521f6e52aU,
  0xf51e3dda1a273922U, 0xbc0e0ad7c9eac12cU, 0x2304091f0022fc24U, 0xec0cf43fe90d0cf3U,
  0x81c100de1f5dcafU, 0xe6d616bddfdd0df6U, 0xeb0a1efe34e303fbU, 0x1a2337e9def600e0U,
  0xbf16d1192211e4ccU, 0x260b23d9f01fe9ffU, 0xd33835e9f8c80ebeU, 0x11e6f2ee3ad72a18U,
  0xc7e7fc210d0815d0U, 0xe6e10815decfb7c4U, 0x100ee4f30f2c1904U, 0x8f5fcf90d1c2f17U,
  0x432d4e9f4e5dbedU, 0xe190ffbf8237f0fU, 0xf0a3dc00f9bd4838U, 0xd4dde4faefb5c5f8U,
  0x2a01f35bdd442d14U, 0xd7bee40b361df3fcU, 0xee1ff3f820f104c3U, 0x5421cea1112e848U,
  0xe049a321f3eadc3cU, 0xffe9fbfbed310bc0U, 0x71e07b9f4f71610U, 0xfd0022d32b1c0ffdU,
  0x1cf3451c10b0272bU, 0xfff0532238ecf135U, 0x2a04e33710bceef9U, 0x1eb32019d804eceeU,
  0xfaf2d7ededc6d91fU, 0x44c5d32133f91ddcU, 0x12bc1b45ebdef9f1U, 0xecc532efdae7f51dU,
  0xa4120917e6e9b1fbU, 0xfc0c050fde29d3faU, 0xf8e3cac9da1a3be5U, 0xd1350fd51ae0deddU,
  0xb1c1c35e839e70fU, 0x51ec2201f2f7f19dU, 0xfebf2da1f2efae3U, 0xdff1faef183bd5daU,
  0x24f5c821120cf4f6U, 0xf80cd206c0fff3deU, 0xbc15e9e9fec53904U, 0xdcf901f531f5c918U,
  0xe3f8fcf9f508d405U, 0xe7e80b0615e60820U, 0xeddb0ac51724d0d9U, 0xf907c349fbe80e13U,
  0x5902f61b082e3e38U, 0x2c91fa1d0cc11f1aU, 0xe1200e17e338f3edU, 0x6dec8fa0a101f0aU,
  0xc50702fdd0fae054U, 0xeeb002de29121d57U, 0xc95cfcef0022fbf2U, 0xa9d61ac73d40efdfU,
  0xd51ce42d5c21ef1fU, 0xfefee4bac0f3c538U, 0xce7239ab12e6f89fU, 0xfe6111d13151738U,
  0x3081af37ae1f913U, 0x2e22cdd5f7090e1cU, 0x47f22325dbeef6f4U, 0x2af4eb9f0f1f03f7U,
  0x29dfce0f431f07f7U, 0xe03620d020c5fc02U, 0xfe1cea189fde4fefU, 0x2b0bd9060b121a05U,
  0xd556e2f23558f5f4U, 0x5fceffa18d7fc3cU, 0xc62b1fdfeb1630a3U, 0x6ff45e2032b6402U,
  0x2ba91c074cde3033U, 0x30a3c322f0be015U, 0x1658d9f313db05f2U, 0xf2df0c17e05c0111U,
  0xc5eafacdd5e0f137U, 0xf4e0fecbf84be6cdU, 0x18fc21e6dbbf5503U, 0x29ea0a34e6d000daU,
  0xd7b9efd1fff11ff6U, 0x1ce2f0dc0f1aedd5U, 0xe9e64cebfe0c28d6U, 0xeedde6f71aeb131cU,
  0xcc13eacd0e9fe1faU, 0xd0bcc29d01dfac4U, 0xfaeccf1c60d2095U, 0x60b11a24dbeb0225U,
  0xf1efe339ceb235f2U, 0x42e9ed101c26db3aU, 0xcaf80825fc2321ffU, 0xd3271ecdc748cd35U,
  0xe902f0de2321eceaU, 0x40da043aef96f600U, 0x4f2ed041f415fd8U, 0xe8c8fcd90f3ae71aU,
  0xd9efb9e01e09b1ceU, 0x2e27f8bcaafe3c08U, 0xbf4308b6a1224e1U, 0x15f2e6b8fbf60005U,
  0x7fc23f7191f2c2bU, 0x660e152724180eecU, 0xeff8f8fe12f2e80dU, 0xdeff2f2826812219U,
  0xd1e50253eaefe4d8U, 0xb22230ee0c1af91aU, 0x2bba96d3d7c1fcfdU, 0x269824e12aedab05U,
  0xf4dce51ef7d43d0bU, 0x1fee01fcc20de8ffU, 0x8ed1fb8d46740f4U, 0xde0ff0ec922c00d9U,
  0x23cc0ffee108cc37U, 0xd0e74116050e2de6U, 0x6fcf20e101fe1022U, 0x56c537df33f1498bU,
  0xf2ed1362c9e4f5f1U, 0xe2c70e15e0fac8edU, 0xe6e2edc309130529U, 0x20053a1b21ae9503U,
  0xf1e9ed0626e5932eU, 0x2aee2fea0532eac5U, 0xb6e3eb1ad6ed0825U, 0xe61a13d22c201b3fU,
  0xc2fcf31a8d240205U, 0x1fe9f71efddeea16U, 0x25f0fddad50829e0U, 0x14411be6eb08f231U,
  0xbdefd0bf8f3f8f3U, 0x8f37057f15e5f8fdU, 0xfeb0f2cfef028eaU, 0x2640e921f2f5fe33U,
  0x30d0231522b4e802U, 0x39010d720d10b522U, 0x2ccff2402abd40bU, 0xe4fd0bddc93a2518U,
  0x53dd1116423a37c3U, 0xd131f1cda2708b6U, 0xc60af10cecbefa31U, 0x2acbf2ef02e60414U,
  0x242e0a01021cd004U, 0x5e3e90f3c021fceU, 0xd17ce1d1835d3ecU, 0xc3e6aac11a0801c4U,
  0x16390bf00547d80bU, 0x28a1b728dd02edc7U, 0xeceee42ef519d649U, 0x23eaf7131016fbbeU,
  0xc9e3f6faf823edc4U, 0xddd1171e22fd0be5U, 0x3c00db15f6ed09d5U, 0x2e0d4c04ff21f495U,
  0x1c0806f526fde9d7U, 0x5021337c4e32514U, 0xdaedc8edd0f21cf8U, 0x2109d6d9eebd192fU,
  0x1f26e7ee01ff05b4U, 0xcbd609eb12eef6f6U, 0x2b0b36e5163ec703U, 0xfb3328e3ccea3039U,
  0xcfe629c410121afaU, 0x21cf612002e92af8U, 0xdbd6e0c9f10c0048U, 0xe2da193526d2bc07U,
  0x6cd15183307f6e2U, 0x2313cd92f4c116b3U, 0xf7579b292e36a4d6U, 0x13ff25c4ecede42aU,
  0xe81f0500ed0e37b6U, 0xcce606061b05fc43U, 0x1eb54b17faf51b12U, 0x821151dba0d392bU,
  0xe03fbf1aff0701c1U, 0x3e16fff042f3e0efU, 0xfd18362c1a04210bU, 0x171ecb0ae5e5cd0bU,
  0x2b06e92bd4d6b8caU, 0xef4de007f7ffecebU, 0xfd1ef0d7f6401f4aU, 0xae13f038dee527edU,
  0xeed2f230fce6cb2fU, 0x333ddc82017e646U, 0xed2ce9defa03c820U, 0x37f3ffeeb1fa0700U,
  0xf7f323ee300713bcU, 0x62abea0ae337412eU, 0x11f839131f1f2fe7U, 0x5db2b33c62138ceU,
  0x1c0608060daa4138U, 0xc1c2e80ad4f744d0U, 0xeceaeaee5bee0619U, 0x457423fef2ebbe05U,
  0x3c40220e3fcf2d0bU, 0x26dacddeefc924ebU, 0x19fe07b0e341d8c7U, 0xba030818fe53bad6U,
  0xe8d2ea06fc1009edU, 0x22e1f8bd17b73847U, 0xfb2450bdc4baef0eU, 0x3ca91721d7eb1bbeU,
  0x321d1fec0dad51cU, 0xd4c8fbf6c2464304U, 0xe6dd03f2f32c2edeU, 0x92bdcc6e9cf24e5U,
  0xf6dc24f02ffe15f6U, 0x2af2f53ed8f402f3U, 0x11c410dcbe8c0f3U, 0x44145534f43205f3U,
  0xe546e90b4439e361U, 0x385f087f1f26c720U, 0x14eaf805d1243dd9U, 0xdae9223d2bc20ee9U,
  0xf5092a2220db0597U, 0x17ddfeb6f9f2cad0U, 0x3513cb2dfd4acffcU, 0x6fce312e6f4f51cU,
  0xdc040e2bfaf0f125U, 0xf5eeb3390bfbb504U, 0x15e1ffeaf8d21635U, 0xe1f2050c311df72aU,
  0xec421d0a320c0a58U, 0x1813fb18ddec320dU, 0x2eea4bd1dbe01a8eU, 0x28040303f50625e9U,
  0xf518dcf8e5001f22U, 0x481a18e20223067cU, 0x18fdebefe2fc0ce3U, 0xfffe274e1a08f5ceU,
  0xfd38ec0414e00abcU, 0xf10f5cdf0fd2906U, 0x990dfd14fbd0d92fU, 0xf5253efbecf2fb0aU,
  0xe0c1171bdcfcf4f1U, 0xbb1222371e0fde24U, 0xf84d24e90d1dc124U, 0xfe2d28e401ba2215U,
  0x7de1a2803131321U, 0x51f93e2bc1171549U, 0xe5a3dd12ecf90de7U, 0xfb3bc7f242210a12U,
  0x15e3df00f4c90cd7U, 0x2de8cec6f9e8cc0fU, 0xeec3fff7e21f16e9U, 0xc3ef37ce1213eb0aU,
  0x17dc01f0004df8eeU, 0xfd1d0bf2dedd03feU, 0xeb16f25b20db09d3U, 0xb3cdd63f1321081dU,
  0xdd9907d9f7f3c720U, 0x2b1fed33eab35e2cU, 0xb2e732102afee70eU, 0x2824f730062517cfU,
  0x70e09ed031c18e5U, 0x1a14f910f2af33f6U, 0xfced5bbfd0461d21U, 0xfa391358f00f9901U,
  0x1a051b4e1d0c48e7U, 0xe5ebef0cdd18dc04U, 0xf41f06d7dc31ff30U, 0x1524ebfff1c2f511U,
  0xd5d4d40bc629d444U, 0x7f228cdf70e4f21U, 0xef5f9210d27c3e2U, 0x1035b5e9eafbf2fbU,
  0x5e0a9132bffb4deU, 0xf24c43fe181926f4U, 0xa34b0eee9460cf4U, 0x1639dabdfd162d9aU,
  0x21d43111efb85626U, 0x50e0f0f10ede8822U, 0xfbfcd82430f6fd4bU, 0x1d4c00cf02cfff2U,
  0xe91006fc132bc324U, 0xcaf504f104d61233U, 0x22e3f2d72a1b19f1U, 0x1e13ef0fee27c815U,
  0x1bf6fdca30e4bd08U, 0x42fe24cbf3fddda6U, 0xf0d2fcface101732U, 0x36061c05202200fcU,
  0x1be521faff180ffeU, 0xd2d6f7e249c33d16U, 0xcbfe0df0e3c4d133U, 0xe8f0c703f395c402U,
  0x1a0efed0eafde2d2U, 0x2cc99fa17a9b84dU, 0x5fbaa30190f24cdU, 0x261ee2fed025fe2dU,
  0x5407510fbe0c4018U, 0xf4051c2916fe023eU, 0x3af336ece3de2d39U, 0x10f12d06f221e943U,
  0xf605f4d5e1bb15dcU, 0xcf3c312612eccdd0U, 0x2bf2dcbddfe31cfaU, 0xcfbdaf8eee9d11eU,
  0x1f35e111b21d207U, 0xdecca222781aaf1U, 0xd15c2e39cc1aba17U, 0xe9f0dbfefb18f7cdU,
  0xd5e6340328c3e639U, 0x1e09fde3d6f1fe1aU, 0x1e3bf0e41378d609U, 0x51c40ef3ed277f1U,
  0x144415d405e1fc18U, 0x132ab9ed173ce31cU, 0xd0df2609f45bc138U, 0xe5dfcf0a0ed6e0ddU,
  0xdc1efee1dafffde5U, 0xf8ee339f212ff71aU, 0xe60717023829f82aU, 0xec00d0d5d8ce15feU,
  0xeacd00f0083f24e2U, 0xe30fda89cd080312U, 0x2e261d52f0cfc2f9U, 0xe6370aeb18d62f19U,
  0x35e13ae9dcbce9faU, 0x3916e30d10f6d129U, 0xd137135de513ffe1U, 0xea3d1404eb0cf44bU,
  0xf0f3d80ae11f210dU, 0x4c2123e0f40cf724U, 0xefc1ed06bde9b15bU, 0x225017c8e62fd305U,
  0x263dd2dfffffdf09U, 0xae72d17a2fe39f8U, 0x14f4262b4f0e0ef3U, 0xc1afcefe5e833U,
  0x4d55fc0df2211c10U, 0x2407d42e10e745fcU, 0xe4d8f0efe005f103U, 0xe10e1af60916130bU,
  0xa906f5124a021c04U, 0xcecb0c11340bb8f4U, 0x1713b512e42e0ffaU, 0xa05120ffa3e01feU,
  0xbb24fb1df3fddeU, 0xf632cfe537280c35U, 0x7fcf0107fde6d70bU, 0x104c340c283afd40U,
  0xd5f90cfde40d0fedU, 0x4b0a0bd7c6c9dadeU, 0xe5d2ddf4e145d6eaU, 0xc4d9f30aebf010e8U,
  0xd7d537d53bfd33d6U, 0xd9fa0e17f2c3f042U, 0x1131fe142ffeecbbU, 0x1a90ae60cd6cbfaU,
  0x2aeb14d3f5f5e903U, 0xb0f4f92ee0fdeafaU, 0xe4032410e81afbd1U, 0xea18f237f0de0128U,
  0x15d6f04906f80ac7U, 0x504f1e0fed30c09U, 0xc6fe12efbcfc2422U, 0xc5d209ddc3afec3aU,
  0xcf1f9f2f7f7d30cU, 0x2f281debfbcb14d1U, 0xebf0f8ec220cb4eaU, 0x1714fd162309f1dbU,
  0xee2e0ee41debe31cU, 0x12e3231ec02a2402U, 0xf40a24e20cc0f4b1U, 0xcc040fd5fad2ed05U,
  0xf5070cf80415d63cU, 0xec213bda23b617e3U, 0x19182699e9131ffeU, 0xdad226f54ee3dce7U,
  0x3527293a0609271dU, 0x503e0b1bcb36f7e6U, 0xcb0eae0259ddec20U, 0xdf929f8f3030a2bU,
  0x191ae71320da0ed6U, 0x19fcfa0936de23a5U, 0x22b12f0bd3016f8U, 0xfbeccdd8f70a29e2U,
  0xe70feaefd7daee30U, 0xbc3219280bfb3fc8U, 0xe7fdc5cf0a002adcU, 0x81af406e12d15f0U,
  0x5132f85229011d1dU, 0xf202150a0c0800U, 0xd80932200ecfd41eU, 0xd61409f8e20a2c15U,
  0x2841cdf906d8350fU, 0xfff5cb141dd0c4dbU, 0xcd400f62b16fac1U, 0x19e6a90446effab4U,
  0xf613e6f32f17f0fbU, 0x13eff8f3eb12cbacU, 0x7fe5fa1d33dbc906U, 0x322e4615e8eff6f4U,
  0xeea5dfd917defee6U, 0xddfb12f9f40f527bU, 0xe6f6ed53f81e1df0U, 0x1a30fd131c36ebf6U,
  0x16101426e2fcd20bU, 0x254611370a012fe5U, 0x5dae41cf906101aU, 0xc1d10527d9ece302U,
  0xdbd904230bbfbf31U, 0x2d0ec30804d7051aU, 0x1b029b1d36df97d6U, 0x64c270f1dc2e4feU,
  0xa0724d852032f38U, 0xdfbc04f0da0305f1U, 0x1ddab645dfffe1f6U, 0x872ffcfc38e72df7U,
  0x70ab09d30e90d14U, 0x154606e8c9ecde2dU, 0xdf12d93d09120bf7U, 0x150502b4d4e70a35U,
  0x1ef1fe3f1d3d0feU, 0x1717c7e81e0ece53U, 0xfd03fc7e605da00U, 0xbd2e5e716101427U,
  0xc8f72c13ec0eed00U, 0x3fd08e131f2f238U, 0xe4d3dbe5e708f221U, 0x1c09e249fdf2ff07U,
  0xdf15baf8e5e35b2fU, 0xbee0291610f51027U, 0xfc07fc110fed07faU, 0xe20bd3f1a1cdafcU,
  0x2e1114e3e1ffcc0dU, 0xf6ec10e4260630f7U, 0x1a3a0c1210132e20U, 0xc31f01324023735U,
  0xecf4bbeb061dfee0U, 0xf6033409fb42a8e5U, 0xec06e20e0cf509dfU, 0x20511fdf908fafcU,
  0x32e0e83807ca4a1aU, 0x122cfe233adbf1ebU, 0xd21220ed1725be4cU, 0xd40920d7d6efdcd5U,
  0x315eef51ad10105U, 0x20feb2f70129dd17U, 0xc743eccef5ea00c0U, 0xb3fbdbbee50910e4U,
  0xf82d0bc2fb0ee211U, 0x333312da34c7fb1dU, 0x3003f9490dfae6f2U, 0x3a182707cdfe1611U,
  0xd410f4160f4750bfU, 0xfe0e04de1fd4fa05U, 0x1e2fcbe7d9edf73eU, 0xe0fdf42f0cfb55d4U,
  0xe3fcd30eed00acc7U, 0xc1f8070405e72211U, 0xcc2ccbf9e64831d9U, 0xf6e3e109cde724f2U,
  0xe0632422f21b05d6U, 0x79edf8f0411cb106U, 0xffd614e80e14e302U, 0x452ec2f202e2ea09U,
  0x3e0b4fe3e32e621U, 0x11fdebfaf6f713daU, 0x28fc0ff91ebec50bU, 0xdac6e3e1f80309d6U,
  0xf3040f16fc0cfbd4U, 0xf45d18ea3b239d03U, 0xe6e2b1fac232140cU, 0x2aea2b2dfae9e513U,
  0xecd12b0725c72918U, 0xd707bfcd280ff5f4U, 0xc6dfa1f070d00f1U, 0x32329d41df825dbU,
  0xe9f12c26f7e0eb31U, 0x391ecdec223f23ffU, 0x4aebf8eff70fe70bU, 0x6a14e0f6b1ee1221U,
  0xf4231beef311f302U, 0xf5d20ac717e10ea9U, 0xe40daf23060f5212U, 0xf6e56bd834befa12U,
  0x429be12f1a332b7fU, 0x48f407180bf4e93bU, 0x3a233606ee0111f1U, 0xe8e61e062a0914dcU,
  0xb5f2e0ed081f0ffdU, 0x5c20fee0a171202U, 0x32193d04144ceeeaU, 0x3128d519039b2716U,
  0xf5fb0a1a183701d1U, 0xc5fc4138ebd4e118U, 0xf025153a2709d3e1U, 0x39010d131e12dc23U,
  0x5f2010bfee2bb35U, 0x1cf8d53fdd3ae9b9U, 0xcde102de22b09d4U, 0xecf3cff60421ec6fU,
  0x9ee0806de26182dU, 0xde1bf32606080e3aU, 0xedf318e717f711fbU, 0x251ded0edb210415U,
  0xfe1e1dd5e4f705e9U, 0x7f002eb16170df2U, 0x301aed3c0e38df16U, 0xf7ff30e9ef1e2d4eU,
  0xf2f1e7fc21c3fca6U, 0xeae8fc48a248f238U, 0x3261ad5f2fbf901U, 0xe1eef7daf524ffc8U,
  0xcc2808f937d90110U, 0x8ded19e0afc0a1dU, 0xf4d5f6db99fea8d1U, 0xf834180b2b0be3e8U,
  0xbcdb373de7fdfeU, 0x3bf7e9cf3e324051U, 0xd4f35abf394c2450U, 0xba3251214aef927U,
  0x300e76f8dad9cf20U, 0x103930e3faeac711U, 0x4f7fbf0c4d03138U, 0xfcf514ecf9ba1be2U,
  0xf2fee3e8f2eed525U, 0xeb37da16fbf9eafaU, 0xc5eae3151cf0dfc5U, 0xd9e7fb2806e805b2U,
  0xff326d122d1a4ddU, 0xe6a6c50ec2fffb60U, 0xe7d0051300ddf374U, 0xdae61ff3c7ef0718U,
  0x11dddf07132afcffU, 0xb30161e23e9d9edU, 0xdf4c3af51bce84cU, 0x2f80dec0d14231eU,
  0xf02108ef2e0d231dU, 0xd84260eb1be7e7e5U, 0x370bfe0ef016f612U, 0x4029d8dc2dc97f03U,
  0xe0fbfa12d3ebd414U, 0xf2cd9e6f748bde3U, 0x571b1a8b2a27efeeU, 0x3a53e91018fa0d09U,
  0x24e7f211d8e31401U, 0xe924f7db4b2828e3U, 0xd539daf802000ef1U, 0xec35030207f663dcU,
  0x2108faf41fca0022U, 0xfaed33e0e606ca03U, 0x3a06f90b23fee1bdU, 0xbe0be7f50a3c14f8U,
  0x2d2af8d5451810f7U, 0xdef549d525ca0c2eU, 0x19ed230b2410fd09U, 0xb30d4fe4125f6e7U,
  0x1219c121e07f0ad9U, 0xf63bf801e4fcf9beU, 0xe62a1ed2061ce2f6U, 0x1d0fcc02b22503feU,
  0xe9e1d85032c80b23U, 0x65eef9c00be20d3bU, 0x500e308114dfb29U, 0xfed4eaee1332fe2dU,
  0xa0de60fa3ddf4eeU, 0xe20def2b25e4ee31U, 0xfebd0ad717001510U, 0x183d20f2240601edU,
  0x38fcfc4ffe2b1b2dU, 0x19dfeffeec0210d1U, 0xf7ef0b40f819c2e6U, 0x20f0fc0901ec301eU,
  0xd62e0b290c15181eU, 0x24f7ea2f0eda23d4U, 0xe01cf8e6260bfb00U, 0x2e1bbd1bcfe32418U,
  0xdf192505beec16f8U, 0xebe1fe27f61d3be7U, 0xecda1ae6fefdd7c6U, 0xeb3d28e20da81731U,
  0xf8d1f818400315edU, 0xf7e9e1f11c2921fbU, 0xe3e4ffb019fa37bcU, 0x1913102650d2bc1bU,
  0xd408e320f70211U, 0x32223cfeaf21505U, 0x9b5fbf2313c0804U, 0x19f3ea1e0f042bf7U,
  0xbbfd1f1df9ef301cU, 0x4223192ddf26eddcU, 0xfa051a06ffc2c9d9U, 0x2ff147fadfc51445U,
  0x9edfb237fdf007eeU, 0xfee1f0eeee3d23cdU, 0x492acafa4b10ea1dU, 0x10f3eefa07d3050fU,
  0xf611cd021d13fe13U, 0xf30d13291f09e9d9U, 0xefdefaecebfaf6dbU, 0x3fb900e707f4d505U,
  0x72e3a35d9e21509U, 0xa2aefeaf8d3f7cfU, 0xb3004cc8070801eeU, 0xb10d0fe5fc051010U,
  0x8ea29d9f7fcf0feU, 0x7904200cdc2d3527U, 0xec230c51a44162eU, 0x3a342a43e633fb27U,
  0xe6262c08dce5ec1cU, 0xfd3545fe2afee902U, 0x17f0de260c101fe7U, 0xf9261330eeece1e1U,
  0xf70aecdd1af2084eU, 0xdd1f0c04e9141dc0U, 0xf15d53fd833eff9U, 0x180b0af4250e1ed1U,
  0xe957f9fa1cf80863U, 0x16da08022c248117U, 0x1fdc1e29081901aeU, 0xfafe01f2211e0a09U,
  0x1dec85d574c14ffU, 0xc7f4d7e1bafafc96U, 0xfdcf1d1a08dbecd7U, 0xf6f3db122fce3d13U,
  0xfcf3dde411ec1e12U, 0x163ea7fbf5e1e3bfU, 0xd0e418c225f894fbU, 0xf6f2e3c1f8c3f215U,
  0xf820310ad71704ffU, 0xff19012707a6ff25U, 0xfee0c9bfdc2cd802U, 0x9f0fb0d1ed7f8f3U,
  0xe611c228e715e0efU, 0xec1aff0d0fe904d1U, 0x11d7fb1321ebf80dU, 0xc016d21bfafe11e8U,
  0xf3d8dbf3a40c2502U, 0xdee7b6ab103f47eaU, 0xac3627351a3dfee7U, 0x371ef52c3a46d400U,
  0x22cb1b99e2e0e920U, 0x2c18040e0dc41a43U, 0xba010ad91fe8cbe0U, 0xba2fd0fafe01e0ccU,
  0x8ea0bea09982139U, 0x6e61cc5dfe03a1eU, 0x280f420f27d3ea48U, 0x1f01bddd1ad2cffdU,
  0x3c0edd1bfa55f109U, 0xcf05e612ba27052cU, 0x63523cb3946fed9U, 0xd209034ceb00ae28U,
  0xd06418fb02df01eaU, 0xfdb828307f03ded0U, 0xb0f3ebfc2b0419ffU, 0x38db10eb260ae2f6U,
  0x39f01aeeb44727f0U, 0x13f50bcaf30dd796U, 0x30101f10c0b1df1U, 0x41efdaf1e50606edU,
  0x31203b2f42acedeU, 0x2fd0a26dd351dc5U, 0xf0c6080fc9f2f865U, 0x2d4ee11febaa9feU,
  0x1cefef091df21608U, 0xbc2228eeff2d10c1U, 0xfb01c0de3e8daddU, 0xfbc565ab0dd3d1a4U,
  0xd917eb040d36ed0cU, 0x15210dfde8fae30eU, 0x161a28fed4ddaad5U, 0xdad028ca0ff9e7cdU,
  0xc260ecafbefdd2dU, 0xf5714001de803d1U, 0x2defed42b2ef4dbU, 0xf1460ee8f9ac37f3U,
  0x16dce225f306df1cU, 0xcdf52ee84dde14dfU, 0xd00a32301bf31519U, 0xd906ec0ae61309ddU,
  0xf3c6071af822faa8U, 0xdb332d52e7e9e3deU, 0x145acb29bfcb0e38U, 0xad1526f20af23f0dU,
  0xb1321e2ef13d713U, 0x2521dd07b04148f2U, 0x35b841d3efbd0b01U, 0xeada2feee2e7d51dU,
  0xebf11b29f63604d4U, 0x104b325e318d1e0U, 0xd66637bceae2f03eU, 0xea23f41b45f7f5eeU,
  0x47eb44db07f8cc11U, 0x15d40b25e6b0442fU, 0x2a43e8d1d7fb34e2U, 0xfa32eb01c7cf1417U,
  0xc557030b0b0ddae4U, 0x1ce221e2cb98c8feU, 0x523ee4b5d4d803cbU, 0xc8d8060ea226e2f1U,
  0xdb4505044ac02d01U, 0xfe08ed28d213f926U, 0xf3ca17bf20400207U, 0xba1f0605ffe3f50dU,
  0xf23a0aa92321daf8U, 0x5c53ded3a35dcf4U, 0x224baf42373df3e1U, 0xc8cdad0adde10218U,
  0xe8315ee5ee0fda1bU, 0xcad4fae4e12eaf18U, 0xfc5dcfda54e10105U, 0xcff10f19f1d804faU,
  0xfd0948ff2a3bb503U, 0x3b09e81e0eccf7b2U, 0x2817143b0ddc09faU, 0x5e151cf01b420bd3U,
  0xe4e52fcb1f0c04ffU, 0xd8f5c81004cf2a47U, 0xaf1825f70dcc21f5U, 0xe8e63fcfc0e9f110U,
  0xe357dbfd282c1b13U, 0xeda652e35cacd34U, 0xf0f91017bb2a4602U, 0xeca10c282b32f732U,
  0xf21dd9cbf9e1e92eU, 0xf415fbf14f061e00U, 0x3ee005ed34f62eecU, 0xc5e211c50b2b1345U,
  0x5fcc43a26914ffeU, 0x31181718cf2b0de1U, 0x27142bf6021ddccbU, 0x10fe1210d2111d21U,
  0xf427f7abecef0befU, 0x7c1ca08f20af89aU, 0x1b3381c3b70afbf6U, 0xfc2fff19ad3d0d23U,
  0x1bc836a5350bcde1U, 0xa4e32dd9e6ea1fe3U, 0x1525e90ed233e900U, 0xb456323e1ae52ebeU,
  0xef2d37fdf31f09f5U, 0x1bcb0b07ecf7f03eU, 0x2629aefc271c2801U, 0xcb03190fe04afffdU,
  0x390028061bdbd0d1U, 0x17f5ffd3e8e5f325U, 0x3cf200d423f7f4b0U, 0x4a712515bd0707b9U,
  0xc7c69c2f45561009U, 0xf4f09ccc1ce6fdebU, 0x1bd2d000050c3864U, 0xbebf2bc4d0f33329U,
  0xfdf2c503d417131dU, 0x132537419500b7cbU, 0xbc97fbd619bf37f8U, 0xf5130b102b36372cU,
  0xf7065cdd312322ffU, 0xcfc119305cd6f90aU, 0x1b3eb607e024d1c2U, 0xe9c3c3175d3cd3feU,
  0x43dcce01faf534a3U, 0xd2e7bcdc08dc3d0eU, 0xc64e30ee1d72d213U, 0xd01451042325f8d7U,
  0x16e5baf9f70ff709U, 0xe714effee317e8f8U, 0x39200bfbde1f1a04U, 0x110ac04e4f814fcU,
  0xedd86921dae797f8U, 0xbdde53ad20f3f03U, 0xe80004e81c230b31U, 0xff124ff50d2dc0d9U,
  0x2739002ae41de6e3U, 0xf9d9fd19d816eaf5U, 0xdd15f5b72de0db14U, 0xf026f63615eae9ccU,
  0xe20ae71b2b5c0401U, 0xcee106130c00d0f9U, 0x1593f00d1509162aU, 0xea3e1f2425f9f622U,
  0xfadbd927dbd8f737U, 0xd5d7f311e7c2f62fU, 0xdd25c81306d734e7U, 0xff191c2bea0a48d4U,
  0x302a281904b2cd0fU, 0xfc03cfaede4bfc3aU, 0x27f8de2fd801f401U, 0xef0347ffc3dcfeeaU,
  0xdc46211edcc633f1U, 0xfdf00dfd4e7e3d9U, 0x3218081e2f3b3018U, 0xae081cec2e2bf031U,
  0xfe00d627d9ef1ae2U, 0x4d9efe6fa201beaU, 0x5803d902f9eb36feU, 0x41f3f90cf1dce9f5U,
  0x3c36c6e80f17fddcU, 0x801d8c5e51910f9U, 0xfc00fb01c9140defU, 0x3ed82135cf241c1fU,
  0x21e4dcdef2308c8U, 0x42b5f6f4063a02e0U, 0xef1dff4e30c21fcU, 0xcdae0919d0fdf9e1U,
  0xf8c53400de15ebd5U, 0xe537e01429033d29U, 0xe2b41e23f6e5cf0cU, 0xf11defff3202ef0cU,
  0xe5eddbe40d0efd2cU, 0x290beddfaf001f2cU, 0x1b4f2e0323c5e804U, 0xd0d6e9dff6d420fdU,
  0xfdfd040939efe6c4U, 0x222afde5bc051d2cU, 0x16dde927edf2edf5U, 0x32d1f800e61be6eaU,
  0xc31621fde62026f6U, 0x1809b8f3e21c2414U, 0x7c508f3162fd830U, 0x220fef0d181d680fU,
  0x310cf3faf9e145e4U, 0xf29bfca634103445U, 0xe900f71c0b1b32e1U, 0xdf1bf1dd0d4500e2U,
  0x160108ddc513121eU, 0xe5f3ccddf7fef303U, 0xcb1fee1cf2120006U, 0x817810dabe4eed7U,
  0x18e2fa7fecce1f02U, 0xad5926c224ed3cU, 0x140ec018c2fe27b7U, 0x45401e0dfa0c0827U,
  0xdbff1a4dffb11728U, 0x36222ddf8f34be2cU, 0xdd040e3613c00d3bU, 0xe4f121352f06a33dU,
  0xdffad519bb140501U, 0x501e4f916b6f218U, 0x7baf4351a09de09U, 0xdf34e7fc12f7073fU,
  0x21bd29ec0f36310eU, 0x350dfcdef125b1fdU, 0xce31f3dcd21b0b0dU, 0x47a0cfd0949082aU,
  0xed202ff108118838U, 0xca2ceebdbf06e82bU, 0x55f8f0f11f032311U, 0xf90c21fef9e5e8dfU,
  0xeeec3f1c0f80f36U, 0x4b292ae60e32fee1U, 0xd6e7010745422d2eU, 0x4f8062429b30bd0U,
  0xf9fccb50c918f8dbU, 0xfcfefee6e30329beU, 0xd72e060928b44e17U, 0x1916fa2ceb13fa46U,
  0xf927140ce6041f03U, 0xd44ae9e0222ef529U, 0x47fbd72b27f7ec10U, 0xeae0e628ed01f439U,
  0x27b19a1e092d232fU, 0x938f7ec06f5ef19U, 0x9e6c0011020c7e6U, 0xd0601072a28f1f1U,
  0x407bf1ed8130309U, 0xaff0e1f61e0beafaU, 0xf6201efe21b92e13U, 0x1d3817090fbd1b1cU,
  0x704c9250f4ce4f8U, 0x2f38ff14260ef122U, 0x3d28d433f3bb6c14U, 0x10c705c5283913f2U,
  0x146dcf70c171538U, 0xd5f02fc1326ffb4U, 0xfedccf02f21be020U, 0x3df6fdb004d9ecddU,
  0xc2f10dbfd47b32dU, 0x23f1d70f112ab7b2U, 0x232fd437f0f7070fU, 0xc9dc5c0afef20ed6U,
  0xc9ecf9331dcee8f4U, 0xe8fddfeeb10110fbU, 0xfd01c7f633ad082cU, 0xcdea2f1afe3517f0U,
  0x4dac9e5e80a10fbU, 0xf847fbd517b2e92bU, 0x2a25054abcde162cU, 0xf1fefb03aa48d7fcU,
  0xf41de5f117040015U, 0x25331fd520430504U, 0x270be8fcdfd82107U, 0xb2c16defe0c11e9U,
  0x7f0004d740f2e016U, 0xaaef4f0211e6ee33U, 0xd523f1e541fba012U, 0x16efe04af60224eeU,
  0x3dcf10b54f52dfdU, 0xe820ea28f0201102U, 0x1fcd0ad6beea2112U, 0xc3e1afec2a17191cU,
  0x8b01d161a081c00U, 0xadfe0f03e666e2e9U, 0xe920d1dadd4821b9U, 0xec04075bc320cfe7U,
  0x13042c3097100f12U, 0xc1020337de11bc30U, 0x13f019f7d6d6ec30U, 0x2cc6e1e02061303cU,
  0xe570ffe72c0afc2cU, 0xdd17c2fb21ee2a0aU, 0xe8fced1f28b8edf5U, 0xd6f91df8fb1ab911U,
  0x333712d5fb18ff19U, 0x230db111051005c1U, 0xee00fffde2e105d5U, 0xed591a0d362e1abdU,
  0x28040bded8dde9baU, 0xde1d9f9fc21f946U, 0x21e25553c536c616U, 0x4a1ab7e025af7febU,
  0xcffb303805251635U, 0x12fd3911db329008U, 0xbbe808bc11dcf8dbU, 0x1201d51364f1a292U,
  0x23e83cfb1e35f614U, 0x3fd13b26cd2acad8U, 0xfae4ffec34f0074bU, 0xcd6fbe6f00fe3deU,
  0xa342cc1b1b25c204U, 0xd5e4e8c019ff0d1aU, 0xe1f708cbe708d8ccU, 0x54d50517382a0de2U,
  0x210ee1ed39180eb4U, 0xcdf729ea79cbc407U, 0xc27f71527ead9c0U, 0xcfcdea4d19332924U,
  0xf1dcacb0e7282951U, 0x4f0340b32f5e5f8U, 0xe2facf12e60235eeU, 0x68122a1819125820U,
  0xb0f2a12b3d1bd8e8U, 0xea49bcf7ad0ec7f5U, 0x2e11e9f52bd306f1U, 0xf426e6e3ebedb923U,
  0xc3aac6df020ef117U, 0xcbe2f705eefbf9f3U, 0x1fe8dbde335540ebU, 0x8e809faf62c48b8U,
  0xf012ecf706e7082fU, 0xc217220bfe0fd8bfU, 0xf514c3c24eef1f0cU, 0xfe0aeae4cbe5ef1cU,
  0x1e3afabec40fb43aU, 0x16f19c70b06e5ceU, 0x4715020efee0e2d1U, 0x5dfe091807fa3723U,
  0xe408cbfa24f124f5U, 0x26f92be7db01f11aU, 0xe4dcf5d901f4150bU, 0x1c0f18dd0ee3bf08U,
  0x706f88af8e25a29U, 0x9c6d9f7a430f11bU, 0xe50acb01cc3af4d4U, 0xc8e4e6d9f308c60bU,
  0xfbabe5072b0516c1U, 0xf2f0f92ce520e308U, 0xedd2c4431acfc05U, 0xe1100fe608fad92cU,
  0xe152435bfcde430U, 0xef100e01e6fcf2cdU, 0x2fe8315721fbe9f4U, 0xfaeff0e10a083b21U,
  0xfcdafb091c1c0bd8U, 0x100e19fceb260808U, 0xb8fb172623ea0af4U, 0xf3043716bde9f118U,
  0xff04ee02ff32f611U, 0x209d538d0ee06f8U, 0xe0f4041f1056ffefU, 0x4c82408372709f6U,
  0x11130e03e8e7f003U, 0xa15f74413f3030fU, 0xa1e30ff0e33f008U, 0x1b0628460ffc1116U,
  0xf4fc5600150f1803U, 0xf4f62105e9080e0aU, 0xf5e9592120ef08f3U, 0xfd1e11de090c0d05U,
  0xd5f8f6c809fb39d5U, 0x1eee451ad6161627U, 0x12400be8110ae4e4U, 0x111afb81f22407U,
  0xe1eecaf327dcebffU, 0xf9e54afe021ad829U, 0xff0fa1cef103227U, 0x803d22124213ee4U,
  0x111110402ce607f4U, 0x1916eb0afe11daffU, 0xb2dff333f100ffedU, 0xd090000f0dcec0bU,
  0x332a372716e43520U, 0xf3fd21051efb3df5U, 0x3431f3fde337d2d5U, 0xa0bf2b6dbdf1dd1U,
  0xa03e1fa2338ed08U, 0xc1d61f36291034cbU, 0x2e0becd4e7d06203U, 0x9160d25ffe3cc17U,
  0x222d23e8dc18280cU, 0xf722e159271301e7U, 0xeedc1ace07fe013cU, 0x9c01116f1eacfU,
  0x17121bdff11041f5U, 0xcd171603354813ebU, 0x90ccdf92115f228U, 0x8df0527f7ff0204U,
  0xec28181d0f142405U, 0xef09e9310dc6da06U, 0xcdd4ef3b14f12601U, 0x4601b3dae03225b6U,
  0x4dcf5e3bfd016ebU, 0xd91edd24f10330d5U, 0xd7d81504b000b80fU, 0xfde0dbf7ff0214fcU,
  0x106030e0023f50bU, 0x2eb8d33d0001a0e8U, 0x2ed8d00012f2c5dcU, 0xe817f1cbc70717ddU,
  0xceea0d050e06d31cU, 0x8eedddb01d32d1cU, 0xdeebe947ed073401U, 0xeb05fa1ee3230621U,
  0xfaf0f42511fe45eaU, 0xf50827fa084513faU, 0x152ee13009effb1eU, 0x38e91c1c27d9e023U,
  0x23ed04eae7c9f40aU, 0xc61fe212cb25e6e6U, 0x3af6022da536251cU, 0x13f83049102224e8U,
  0xf0ff1cfd05f5f5e7U, 0xe82af8eb011ffad9U, 0xeaeeefbfdb1c01dcU, 0x2823140a0e1b0e14U,
  0xeef504de290ad7ebU, 0xde34e2ed2df0f621U, 0xfdf918f21b0a24eaU, 0x3004041035dc18dbU,
  0x1ffaf9e8db3d0403U, 0x50e39f112ecd9f8U, 0x2bd22534e3f70c33U, 0xfa01f01026ebdb01U,
  0x10270fcbf424d6c6U, 0x80fe409db04f0d7U, 0x93018d7e0c1f6eeU, 0xdd10c333bffd906U,
  0xfe50ed2eaeefd0eU, 0xac14060c48e3f7ffU, 0x1dedf1b51bc20f1aU, 0xf39f80f11def4f7U,
  0x304f20f1807e53bU, 0x22ff1de7a80f0dfdU, 0xbe402837f7fee023U, 0x291507e3d9efee2aU,
  0x108edfae9fa1b06U, 0xe9a52c212328e737U, 0xe80e1fe12304fc08U, 0xa9e308f205d91a17U,
  0xdf5fdd0cd3bf8d2U, 0xf22bfe22050500bfU, 0xc8e4e7e2cc1df6e3U, 0xf5efffc9f74a12beU,
  0xd2c3f1daecadf203U, 0x1709cb5c3a601f1fU, 0xba80e043df7d521U, 0x230bd4f40d00f713U,
  0x16fb31e617c50806U, 0x3b0cf51a00fe16e9U, 0x603e8e200fbc4eeU, 0x2409f9f51fdad70fU,
  0xd7cff0fce02c1202U, 0xf903deeffc22b82bU, 0x7f111705f2fdd6f3U, 0xd90a1fd32038e41cU,
  0x6eb1dd7a71dea23U, 0x20e4fd27e412faecU, 0xfceb09e32907f7e9U, 0xafded035600fcfbU,
  0xdcc4cbe23601243bU, 0xf9f634dae5f5efe2U, 0xcdd9cb0cdae3f701U, 0x10e5da20f627ca0bU,
  0xe7d8d40ce7ce3409U, 0x90ffdf036ff1d3cU, 0xbedde727defb4cf2U, 0x2f081fe10cfacd39U,
  0xeeed21d1f35d1f6U, 0xfafbee331ce2f2e1U, 0x4bfc2de2b9bcfcdeU, 0xeedd5fb3f63016fdU,
  0xf7ffa91ff511bc02U, 0xf0e3f1d911f61c01U, 0x49c42c03f66dd705U, 0x180827b9d41a5e03U,
  0xac18d204e6122fdfU, 0xcdd12208ec09c6c1U, 0xf070e26f5ddf9f3U, 0xd821311df90118e2U,
  0xe110ecf9ad080320U, 0xc5ec2626d6daf8dbU, 0xf5fd45bdeb17a8f6U, 0xb60edae5fea5ac21U,
  0xcb0b021941c60e2aU, 0xb0aca1aec812a64U, 0x1410e30139ecf8c2U, 0xf3032cc4fceffdf0U,
  0xf6f4ffc4304c1bd3U, 0xea1a02122f0cf21aU, 0xedcfecf7d3dafc04U, 0x4b194a01f822f1f2U,
  0x24d6180100dff9fdU, 0xfbfa07164b124bf6U, 0xf82ff70532bf15ceU, 0x30f0165614ec0ff9U,
  0x1cccc934dd1e0ea3U, 0xf3dcf3fe3431fa0cU, 0xfa10e1f8e2f23ae1U, 0xd40e09251a3d11f7U,
  0xe911ea2e202edfe6U, 0xd0262f06379cd118U, 0x2e504ded8c1ed01U, 0x2620f9c4def82af6U,
  0xfaf4cd22e900c399U, 0xfd0fd4420aa429b7U, 0xe8d8550d2fc512ffU, 0x7f4261de11d11ecU,
  0xf7121ecb110de1faU, 0xec06e3430b150dcbU, 0x60cf8e806f10bcdU, 0x3cfe15e8dcfd72a3U,
  0x1bd90cc8eb22242cU, 0x6f6f2d73715020fU, 0xef94dc46cae60409U, 0x2bf6faea54f7a6d5U,
  0x2c04c20b021b4dc3U, 0x3cde1b2ad603bf1bU, 0x1afdc42ad5f8200cU, 0xd12a40fe154f2a9U,
  0xdb0941fc01e6d9feU, 0xf526940123e9fbfeU, 0xe71cffe617de11e1U, 0xeb051641e8d02102U,
  0xf1090900114a2b05U, 0x19db2a17f50d3261U, 0x20f218f2bf0fffeaU, 0xc609fa02d9f9eee8U,
  0xe8d9b50e0a2f0c03U, 0xefe2ebdb04f1e00fU, 0x4b1ee7d325241ed3U, 0xa2e2427ddcfe721U,
  0x30c315fd0ec8fe2bU, 0xf6dfc40a203d15ceU, 0x3334f5e90af80329U, 0xe3061bf02626ed09U,
  0xeb0c1f0c5adf620cU, 0xe2caeae5ea1dd22eU, 0xbe241d3ff5d6c710U, 0x92c5d18f5fef502U,
  0x31cc1dfccc24c909U, 0xefb402dc12212d07U, 0xe421eacddff8161dU, 0xa39f6e6dd15ea01U,
  0xc03e03eee600ace4U, 0x5ea031207224b2fU, 0xe63c014b5819070fU, 0x935cd39e2230ed2U,
  0x2ec417b41100342bU, 0x2e0229da31e4e91cU, 0xcad70e1327ea1213U, 0x18ebd2eed4000b1cU,
  0xf1dd54d8c61f0e02U, 0xfd00ade8d1eeda12U, 0x27efd2dd23ce0bf6U, 0xcb642f17c91bf4e8U,
  0xee21f1feffe7e8d3U, 0x11c23fd143a51fcU, 0xd3effca1fc0e0ef1U, 0xf865f3f204a51e00U,
  0x14f8dfd40a2d1b08U, 0xdb0ad91fde1b4509U, 0x184759f2cfabe5c7U, 0xde3e7e4d7f60cf8U,
  0x131402d634d31befU, 0xe211020230fa37fbU, 0xe91a3a34030bdc5cU, 0xd06de41f9320317U,
  0xfad6fe02180d01efU, 0xf83218c502a32716U, 0xfa2623fa0125f9fbU, 0x64cd2443302c0e05U,
  0x40107ddf606afeeU, 0x702201efc061b3aU, 0x4dc1dee26fadf01U, 0x19eafe0d9d440bf4U,
  0x242beb201634ea04U, 0x1e40dce4cf05f3fdU, 0x224dfb81f3ed0807U, 0x22454de30f72506U,
  0x2954bffcf5e6dde9U, 0xdef8dc1404ff2249U, 0xe01ccefdf4ecea33U, 0xefdd46de0fe20bdcU,
  0xd9fb143e15b9f65eU, 0x2c9ee230eec10fcU, 0x6fc1337e9bffb25U, 0x1ddcc828305af818U,
  0x2439f1d8e20331e3U, 0x4b29423dea05150cU, 0xfd2525d403142fefU, 0x3ad1eefe0ae8f206U,
  0x17defae71f25f10dU, 0x5e407f2083d0e2cU, 0xf6d0e40ad6d5fedaU, 0x9496f0d40704fc2aU,
  0xdfa00c2d1f8c819U, 0x1ae51b8cfd46ebfaU, 0x31b8d2f9c930b1fcU, 0xdc60df5990710d3U,
  0xe8d2ac051606ec0cU, 0xb5a618d4bdc80d28U, 0x1c0b0f14f1ea050bU, 0x1328210bffde14ecU,
  0x7c020329de25fc32U, 0xabe2b0f1ddf92b5dU, 0x15171472eff823e0U, 0xd52d8afaeb2e200fU,
  0x35e9eb2bf0bbd404U, 0x2bd2090d72f52e51U, 0x1f5df15dc0ed422U, 0x182d6324c54a4df7U,
  0x5c02003ac3fdb8b4U, 0xb9d83005d9ec16e3U, 0x5bfcd0154a006301U, 0xfee620f219d2f01fU,
  0xfa54c744e4fb35ccU, 0xdcfb1200f71c5518U, 0xe90a00cc2035dcd9U, 0xf4d3eb28cda240f8U,
  0xfdc96ece00eae8dfU, 0x8001fdf15451ef0U, 0xd1c3143cfd08f219U, 0x17fac8cc192b0c07U,
  0xf8dd051a1af401f3U, 0xb5ff22d3481d29c5U, 0xf5efb1080fb5e6d2U, 0x945801c1fcefd0d6U,
  0xcebb4522dee64dc2U, 0x1bc6ed10c322e41aU, 0xb42307c014b4dacaU, 0x15cd111319330efbU,
  0x273bb2183beee70fU, 0xfff408fcfefd393fU, 0xf8df270202ed0c1fU, 0xe059d73bfcc80927U,
  0xe7e4390c29d615fbU, 0xf6ffe3bd1f03dff9U, 0xcdacffdd5d1d508U, 0xc5f62eeb12fe2d1cU,
  0x122681fd1ef61cf5U, 0xf6eb1f6811e413f3U, 0xf4e1ddee251bdedbU, 0x34270cec360dd1daU,
  0xf85d120309f2e30eU, 0x180837e60928e8f3U, 0x54ef0cf918b10aebU, 0xe9fc0412472ce02aU,
  0x2ce1f5e9415607f6U, 0x33235041ff103e2U, 0x7d032040f260f19U, 0xf6ee0cb4f8e30cf5U,
  0x1652e922ecfbf71eU, 0xebbce733a3230148U, 0xf6f40c2719271df3U, 0xc331fc02e5491103U,
  0xc9da41f10b00f90cU, 0xa7e91ff1180c1923U, 0x18dbfd112afd10bbU, 0xe633e0f2fd6fc600U,
  0x31dc03d0f4cc1621U, 0x28f2e5fb412a2611U, 0xdd2add0f25e91224U, 0xd4ce0cf7ae3b03d4U,
  0x2a2009091ffcc3f1U, 0xd714f5f71d070fbcU, 0x6fc1006d8212147U, 0xdff93900baf1133bU,
  0xe0183edf370ee325U, 0xf4a2e94dfbe6e413U, 0x1e04bf2400491adeU, 0xd27fceb27e710eeU,
  0xd72bf148d6214944U, 0x16fbf70800f6f601U, 0x22d4a7f409e1e2f5U, 0xf5fc10f8f7ea0e14U,
  0x2ee5dd14d303240aU, 0xf0bee6c59dcf38e9U, 0xe72f3feee8c8c00cU, 0x1512f4071412c904U,
  0x17150bc952683716U, 0xed030de639f03216U, 0xe2e709dc09e60a01U, 0x18ec32060cde23c2U,
  0x3416dc48092348f0U, 0xf2bd12d212c2d552U, 0x16f70df809e8aebdU, 0x41fc1fc042f1608U,
  0x160be3c7ecdce7f3U, 0x74506ef0bee2206U, 0xfae11bf0db191bedU, 0x20ddeef4e704e9ecU,
  0x2ef001fb16fbf2efU, 0xfd0601370af3bee8U, 0xdde3160e0b2a4313U, 0xa39c7e1d8fcbef6U,
  0x1cfae615d6d7d2d9U, 0xa1d800d400030d26U, 0x2e0bf7060c08e726U, 0xbe20c2d4fecf005U,
  0x10d132afd1e511c4U, 0xc205f2e6d84146cfU, 0x3df62e9ff2fbf609U, 0x25e74e2621e8c808U,
  0xede9cd24210ddb0bU, 0xec290f00c8e02135U, 0x1bf60d0018d213U, 0x204af5accccfe7e0U,
  0x2ba2e709101a1df1U, 0xf330e1030fed0903U, 0x4d022bfde87ff215U, 0x1cf6f9f0f3fc1900U,
  0xd5e012fc1ff0d708U, 0xae092bdb01091a32U, 0x12c3a70620d0161eU, 0xe7eec3060205faf7U,
  0xfbdc4bfbe132ce01U, 0x511ff428fd14ed03U, 0x1129c9feef00ec81U, 0xca1df80de3d60addU,
  0xfae3e8f4fda91827U, 0xef73d629fa0b2147U, 0xf175fa0424fb2d02U, 0x2ddd2af11eda0903U,
  0xfdf5f7dff8f3290fU, 0xb507fc26b53df3f6U, 0x191b27f202d2f558U, 0x3057d9b4f7e00ad9U,
  0xf0d4f913f8ee361fU, 0xf011ecff34ecb9e9U, 0x71cd080ee31da519U, 0xcadcde1c49fd36dfU,
  0x140ce5c0e7edddedU, 0xd566dde7fd122a0fU, 0x11af80814c2f600U, 0x16b021e838cc0de9U,
  0xa4d71fd9dce1ec01U, 0x4fd10cfa1fde1600U, 0x2aa8f8fff0e1fce2U, 0xf002c4cb09f4fff1U,
  0xfa024e16d8ca12U, 0xe203160800edf510U, 0xe908380a11fed1e8U, 0x26de331703c2e5ebU,
  0x23012b160529f6bdU, 0x4bfc02dc05de47e5U, 0xdffeebfbbe03bce1U, 0xd415342bff09093eU,
  0x300b3356d90505e4U, 0xcc03110519165703U, 0xe2ee0aec04171bfcU, 0x1f292eef05fb1402U,
  0xeb200ea50ae7f1feU, 0xf6e8f422ff0217d4U, 0xde47c5fde2d3b5f9U, 0xede008e613fa15feU,
  0xc8111e4a05e6f0ffU, 0xb01ea404df94aecU, 0x1fefe00f2e09fb28U, 0xff111ddf00e4dc2fU,
  0x17f6160d22220304U, 0xe8f6f5dccfc82ee3U, 0x9010fde00d910U, 0xfade1a0628eb0029U,
  0xd805ef15d2e5cbc4U, 0xd5c6283920c14ddeU, 0xfb00daf71df1dff5U, 0xe11d339011d1c16U,
  0xfdf5092fd0032005U, 0x1d1135e214f81ccfU, 0xcbc41d29410e190cU, 0xf20cfcf0f1d92308U,
  0x2121e81012df0d23U, 0xfefe03ded9e4e30fU, 0x191e1db1e3a4ed1aU, 0x25e0fff043cf070fU,
  0x350ece04144e07eaU, 0xe9e9f832f727e4efU, 0x113a0a0e05c1e6e0U, 0x3e5fce942243af8U,
  0x7e80f0402192edeU, 0xc6f509f3fc0ff9ebU, 0x1902c2ec0b1e0d31U, 0xcfecfbe2f8f2f9f2U,
  0x9bb0cebf808f9f9U, 0xfee114010ff319f6U, 0xe7de27f6082809edU, 0x51bdd0901fbc8efU,
  0xdbbfed330eedcddfU, 0x151909ebcf03ec2fU, 0xdc26ff48090d2cd1U, 0x3120f6e1df0be51bU,
  0xfb12c0f6faf9c5eaU, 0xe0190c1b18131e0eU, 0x51b11ca18ef2cfdU, 0x3d41e25e808ebfbU,
  0x13b7cee9eaef13f7U, 0x326d938d7ea09f3U, 0xe812d1fefff812e9U, 0x4a1e14fdff02fcf4U,
  0xdc12f8c7ff2bf610U, 0xfa010706661aaa1eU, 0x420bf0f6e1cf25e9U, 0xc42cea46e826ec0fU,
  0xe5e307e2dfcfcdd3U, 0x100a021741d700ecU, 0x47d403f6081b24f1U, 0x722eaf7f7e4d408U,
  0xcf070e1f0b140ce8U, 0x43f5f92ef3d81330U, 0xda2802e9c4fb032cU, 0x280c1b33962e1d14U,
  0x4afde2f3faeeede3U, 0xe730100a0df9cffcU, 0x20053932e534d1ebU, 0xfd140011e0dcf630U,
  0x2ff2eaf32f040c15U, 0xdfd8050e813de2f2U, 0xf111d5f1f2e702e6U, 0xdd1affe2fef712cbU,
  0x42c1e9f43b14db05U, 0xdfe3050ee1eff8f0U, 0xc21d2d91ee82b11U, 0xde407f033e32704U,
  0xe52cf41712020a2aU, 0x241409360ae09f05U, 0xfff1fde62ec5ea05U, 0xf33427e705c10ab2U,
  0x3ee14342838ff02U, 0xf2f51c451fe40518U, 0x301f0e5fdce1ef8U, 0xfde52c0deb03fa0eU,
  0x24fffdef16f21606U, 0x340f2d14083210e0U, 0xea13111105f20231U, 0x14fa13ee07f5e408U,
  0xa81ae8e129040a14U, 0xea14fdf2f304fefaU, 0xf3e3c30af9e31413U, 0x261c220cf01cf703U,
  0xf224f228582b19e8U, 0x6922040bf9170839U, 0x70cfd483e06092fU, 0x1d9385304320d0aU,
  0x133ff828de35160dU, 0xee0a2bca02271947U, 0x33201826d8f0aa02U, 0xcff421ef3615eb05U,
  0x29e70afc2c0620a8U, 0x214fdabcfed9d832U, 0xa5122af4c2100822U, 0x16b84648df903ae4U,
  0xe835f4be16ab1229U, 0xfdeb193929e9023bU, 0xf2dddd282029fc2aU, 0x1918dafb03d20b19U,
  0xf61cfddee7effacfU, 0x114f93cec0c0b0bU, 0x2d40240edcf45d3fU, 0xd03561320f7ef03U,
  0xed4c3107dbee30fbU, 0x46eeea2bc3e03bfcU, 0x1ecaece1dd2821dbU, 0x30fa0506d8f60bfdU,
  0x3321fcdd21f2f40dU, 0x92ce9b3c4c1e198U, 0xf750d024adf22640U, 0xc509ecda2e19ffdbU,
  0x2817e6e524022113U, 0x1414d9f6d4be3cc6U, 0x835f04c3402ff2cU, 0xfb0f04ce2c370b6eU,
  0xfb25e5cab51ce544U, 0xe8cbe0ebd1c855ebU, 0x3ce6f1e22e1d3a26U, 0xb607eaeffa2adbe8U,
  0xb6120a5f2c310df4U, 0x1d57dcdcda0822f9U, 0xdf3cd6f0eb7fe258U, 0x1cb6e9dac2256aeaU,
  0xeee4e602f13600e7U, 0xe2ebf009ced5defbU, 0x3d0fb3eb0405c8dbU, 0x2842bfe14118feb5U,
  0x38200ffcea084f3dU, 0xd84c152000e9abffU, 0xe1386f30ebcfffb4U, 0xfbe206061c25ecf2U,
  0x13f30f63e61d300fU, 0xf00f2bf5ccf5f70cU, 0xea1600571014ea06U, 0x2fcb23f0dfd616d9U,
  0x2bd5150501cdc712U, 0x16d9a51df102e031U, 0x95de30826ffd8c5U, 0xeef91bc81ac01ad4U,
  0xa3a96e510dbc6cbU, 0x12d8f0271c14f00bU, 0x2410ffef3713170cU, 0x162aefe9e8bddf0aU,
  0x16170bd8d212af18U, 0xd697da3809450a52U, 0xe5101a0554200904U, 0xeeb3cbe4caddebd4U,
  0x5df0ee7fec0dcfcU, 0x1d38e253c701eca3U, 0x45d1de40212de104U, 0x39ef312ff3fc4223U,
  0xfe0bddf5dfe46d15U, 0xfa11db151904d235U, 0xf550f22907f509ffU, 0x923ca9a28211ce8U,
  0x13f50704d4f7c5f7U, 0xda481309f5041f00U, 0xe4dceccdf8f7083dU, 0xffba05d8efe2fe16U,
  0x44bc9f71aecd91dU, 0x232b17d915d7110eU, 0x5f0032b08d0adcdU, 0xfaf2112b0815bc22U,
  0x25e5ea14401f0537U, 0xf6c108d050170d10U, 0x111933f8f0070635U, 0x282b09012640e6e7U,
  0xce0dc8ee3515fd4bU, 0xf103bcf9f027251bU, 0x29f5d213f6f2ed30U, 0x94aeb1cf81343f8U,
  0xc47fffe81810fdf8U, 0x210810ffdbf7110bU, 0x21f004dc8ee9c1fdU, 0x3df827d6f2e7591eU,
  0x481fd53408135703U, 0x2339083c19f11c0fU, 0x2defb170f1ac701U, 0x24e0f6d4fbf5e349U,
  0xf182fdf290edd13U, 0x35f0ef0a14d9d40bU, 0xd22cb30215d94ae9U, 0xbaf92b19e7dee013U,
  0xe4f14ff61bfdfeebU, 0xb9faf1f3dbf4c7faU, 0xf0f52dd419200244U, 0xe5123e38d4fcf70bU,
  0xc42b0afeff18e6e0U, 0x24db08010c54e1ecU, 0xf8160af908d8f30aU, 0xea3708fcdafd321cU,
  0xcb29c2f8091ce609U, 0xd43fea0ae5161deaU, 0xb0be9191206f810U, 0xe2042ed3bfd7f5e2U,
  0xa19cffd17fd0f28U, 0xc50004eded0a0b1fU, 0xd7f73609f618da11U, 0xf2d20ff8d4e2f0ebU,
  0xd2eaf9e620283802U, 0xd0d5fc222427e8edU, 0x260b0e250efb10f8U, 0x600f13313fcddf6U,
  0xfdf330af7d2fde7U, 0x140e14f5efbae934U, 0x3ed5d2d9e9f41341U, 0x1711f36f10d422f1U,
  0xdcb164115f1d836U, 0x110f42634d5e636U, 0x29e8f832e81519daU, 0x21311000f0b6f6d4U,
  0xd6ddbe00313c0f26U, 0x30de61d23fb05fdU, 0x3bc1030a10e505d4U, 0xdb1bd22cfdfb2f00U,
  0x1fd7f10cf41be3f3U, 0x3302bc21050809c4U, 0xd1b8090e1c1bd401U, 0xeef101150726d3f8U,
  0x9151ee7effee619U, 0xef0005a7e2d2370bU, 0x2c0c01382eecddbaU, 0x4604d7d7d6fef1U,
  0xe4cee7ebe61ef416U, 0x1a0ff03ed0bbff06U, 0x342ffe330b440918U, 0xd04202ffc8262efeU,
  0x20bed0de104c8d9U, 0xdaeceb27fcd9e246U, 0xfe06f0dae3fc2831U, 0xf22a04e00b0326eaU,
  0xfffbf090feaee0fU, 0xc03f3ffd5dcfd06U, 0xfb041beee60cfe13U, 0x215091cd8e1f403U,
  0xe1eec54ed05e5eeU, 0x4d2b1803ff03197fU, 0xd64b000a110dd4f2U, 0xaf70fbfdf090f12U,
  0x427ecd2082703f6U, 0x19b8fe07200bf80dU, 0xd3c3cdd6fff5e7ecU, 0xdc082507e4e4160bU,
  0xcbfa111e2f25d4ceU, 0x1ff418bdfd29f5fbU, 0x200b15fc9d11e1eaU, 0x1526070ff4ea1b05U,
  0xfb1024fcda2f0ee3U, 0x2505ce2bea50e73bU, 0x4f13ed191d1fe7c2U, 0xe9f54c1e13cd35faU,
  0x4e00cf8eaf814f5U, 0x2ae814e2d621f2d6U, 0x4c21709e91c00b4U, 0x190bd5f4fa1a1809U,
  0x1c1bf5fadae812f4U, 0x211fed26e4eb87f8U, 0x1d1728ecf5ff01edU, 0x16420c23ca1bb8faU,
  0xd2e91f101302cc35U, 0x1cf4ec16c01b321aU, 0xdafae318f0f9e60eU, 0xf00a07fddfce0aeeU,
  0xf00ad2e8d2c7c0f1U, 0x1c25fae9efdcecfeU, 0xaa2cde05dae2ea1fU, 0x612519e720fb25b6U,
  0x36cc270e1eebf619U, 0xdbcde21213ef07efU, 0x33d407c2ff23d6f6U, 0xf6d3085121180fdbU,
  0xdd0bff000deffc36U, 0xdd0d04c7c7280e0fU, 0x1915b7f0e0040415U, 0x900dc1dfdf2cf16U,
  0xecd405f516e5dcc3U, 0xb9d4fc01e425060cU, 0x13011d0fed16fa12U, 0x31eb4ff5062dd30bU,
  0xe2df18de08d31b20U, 0x293a07070614dbb5U, 0x142d1bb90aec3323U, 0xf9fbf828ddddc7e9U,
  0x3e601f93bc5cf2dU, 0xf437fa2ad8fbf6ffU, 0xe81b1e54fcfeecf7U, 0x11b86309d423e2U,
  0xff0f0506e726e4cbU, 0x62b01e307232305U, 0x10d8f922c8100c29U, 0xef193eeb6b0c09caU,
  0x15c11e10bbd50743U, 0xe702163711c9e205U, 0x38e9def50e2bd813U, 0x1c026021ce2c0ef8U,
  0xc7edd30b1b0a17e2U, 0xf0c10a1f31a14d5U, 0xf13d7f2f2f3d0e1U, 0x1b37240230dce132U,
  0xccf7ffe56e4101f9U, 0xdedeeafbd1fc19e6U, 0x11ce0bdf0df9e6d3U, 0x1b0743fd19e703ffU,
  0x1bf7c4fbb131ee1eU, 0xd509d8f3fa06d205U, 0xf924b8cce312f2e6U, 0x5da04f4fc19010aU,
  0x40b04373be0f418U, 0x390ee52924d9ef27U, 0xf413410c013700f3U, 0x2417ed1a0a21050aU,
  0x1ae319edfe221a08U, 0x2410e4fe6293400cU, 0xcc330fee2e1615f8U, 0xf40d36e1efa8eac8U,
  0x4f1fc19f3ab0ab9U, 0xfa210716c005e327U, 0x316cbed10ff7f18U, 0xde21b4230e04102cU,
  0x382eb7e0e5070a24U, 0xd95af1318bdcda1eU, 0xd4ee0529120f0f31U, 0x2a103122f60b0ce5U,
  0xf7fbd61e254714fcU, 0x3dfd3ed618d93413U, 0xffea101df000ff17U, 0x1d06f9db21dc2cb8U,
  0xf5e90e42290a02eeU, 0x3503342df90ffa00U, 0xbd8c29fa10fd13dcU, 0x13205229ec45dfb6U,
  0x31c4e93923f62f1eU, 0xe0052d2f2db7200fU, 0xfcbe0a3300e90928U, 0x1bfd0332e94ee6U,
  0x1cdc0ff0f2f50c64U, 0xd60cc932f44d08ffU, 0xf0e12aff3c003b24U, 0x150441ccde0c1f52U,
  0xfcca590cf32bef13U, 0x52061c0fe0ce320dU, 0xe7da39ec061be0e7U, 0xd6efb0bf062ffdfbU,
  0x32a211a071d15f6U, 0xf016c4ff3c10ec37U, 0xfdfec0d090eeaffU, 0xe32ff4e96839f513U,
  0xfce8e512dbfea1e4U, 0x2f50900f5162bfeU, 0xcf09a6f34eef41baU, 0x38fcf9f8be30fdf5U,
  0x6b2327ebfe0bf700U, 0xecd52df3eb2205f2U, 0x43cd18fee5aed236U, 0xf350f4e5ea1d26feU,
  0xfcf8e5e708fe27e2U, 0xc40db2162a0b2ce2U, 0xaefed8313bf1cd3fU, 0x49a6f9f199ca0bfcU,
  0xef28022be2d420ddU, 0xdff440f3f03de6e5U, 0x1fdd02106a0c2ebU, 0xdfb90abecdbce719U,
  0xd3d612fe1ffc04daU, 0xda78ea060feffd21U, 0x9ebdebacd0eeef1U, 0x464ab92af55118bbU,
  0x2529f601f10ff0e3U, 0x1d0b1704fffaf409U, 0x270410c7f4290bfbU, 0xa5cff3ff2e35fa48U,
  0xe9b801d8d7ece804U, 0x712eb01810f18c18U, 0xfbcfdd17a3f21d19U, 0xaef3516292afff1U,
  0x5be30dbae4142ce0U, 0x3dcc9624813542dU, 0xdf083a1bf248fd05U, 0xe1093537d9c10b11U,
  0x3237de12d9de26e5U, 0x1608ffc30fe8fce8U, 0xfc06c31030f62e0fU, 0xd5e70aca1202cdf3U,
  0x511f3f6e9e7f5e6U, 0x14f1070a16cd6946U, 0x519ffc812e2d3232U, 0xd7e9091fea14e5efU,
  0xf92e26db333cdce6U, 0xe2021a14e60ebbf9U, 0x44c1bfa1725e5ebU, 0x1a77f9bf4831ebffU,
  0x806e80500c722f9U, 0xdbed1e1cea09bc04U, 0xdcb1fcd1329ecd3U, 0x2beee2caedf94814U,
  0xdd1e2d706c6fae6U, 0xe2ee06d7fafeb9faU, 0x16b8f038e5e40e0fU, 0xaff81c323c04e0d9U,
  0x112ae83118c6ecf4U, 0x45fd142beaeae3fdU, 0xdcf5290301080c02U, 0xf5fe42c8e3d90227U,
  0xe1f700e5b2feffeaU, 0xfae3350ac8282b35U, 0x14b032eb0e09caa6U, 0x7e817c917a7fefeU,
  0x4d25bc0a041a12U, 0x93d2e91318f9640bU, 0xb40fd537f10e3eebU, 0xfbc90116d8fbfb17U,
  0xe4de08f32a26c23dU, 0xfcdb462700efd6ceU, 0xdb1c1fe90a080aefU, 0x15fd021a041ac1f6U,
  0x8150413d6ec1823U, 0xbfcb6f3c71ddafcU, 0xdbf916211d06e019U, 0x1fec0af8212515f1U,
  0xc7fd0a253e28b50dU, 0xe405e3f93cdc24e1U, 0xecec1eff390459f2U, 0x24d9fa4012df4ec6U,
  0x190435280526f030U, 0x1eec0415f7f913f2U, 0xf308e2fee21002eeU, 0x2718e4ebd8f60ce7U,
  0xec0f0923f03d2700U, 0x24050e2fa20543e3U, 0xa11ede140d4e6e5U, 0xe72c40fe00111212U,
  0x5eddf60e581ae946U, 0xbad2e8bf47e723e3U, 0xdfb4d60a04daf0e8U, 0x921fe30f6ce1c08U,
  0x15c6d5eb1211e1d6U, 0xeed1f232e9f80ffdU, 0x21e8c6c7b1dbddecU, 0x2ff62302f610e60aU,
  0x2404f1f8e8f02edeU, 0x1b452dced6d81ce9U, 0xe70609fedced2bfbU, 0x26ba3e09fefb3bd9U,
  0x521f2a14ed1409c3U, 0x1dfd02ca5d2620f2U, 0xccf8f2253c0ee9faU, 0xf3541208ec0f3ee3U,
  0x5b1f02a3c401226U, 0xde3efe531c427b5U, 0x20dd0bf22202f7e9U, 0x221b00192913e315U,
  0xe306dbd4c504da30U, 0x1515e544b310f92bU, 0x2f1ef4fe2bed1f24U, 0xa2a141df0653427U,
  0x2f3162bc7f5ee04U, 0xe34524e5e3ffe60bU, 0xef0ed8602621ee08U, 0xff0df8f77f0e0422U,
  0xf5123015e71af229U, 0xe75411110e270213U, 0x2522e5d80826d128U, 0x1dd5d8f91b3d3af4U,
  0xd1112d2909df02e0U, 0x66206fb25316d4d0U, 0xdef3e422f2c41dd5U, 0xfe2620ff3ae4b4efU,
  0xe9db1bcc0ae20af6U, 0x2ef617332b096307U, 0x111b12ef1f0b10ddU, 0x14e5ff19ea34f7f9U,
  0x23abf73a1314fa0bU, 0x195c2ca324d51d17U, 0x211ae60817f6fe14U, 0xd0e5c9e713eafbb8U,
  0xdb06d0e023009bd0U, 0x131f1b11d034e105U, 0x90ad61cff36f105U, 0x252fe64cca3eddfdU,
  0x24e6a1f8c905dde8U, 0xfe190e0bfce82000U, 0xee1f352c9ef9ff11U, 0xaf11628effcf6f0U,
  0xeb1dd01901e008e4U, 0xa2703e332fe1903U, 0x3e70bffe3211f3fU, 0x23151b30dc1fffd7U,
  0xfadc671081b705f6U, 0xd80ad5e20909361aU, 0x240a26fc27f3e404U, 0x2af721c3fe2a10f5U,
  0xc6ff24e20813ecdaU, 0x4f006141016db3bU, 0xd5f8380deaf91be8U, 0x1f2ec981d682be9U,
  0x201e08ec0b10d4e3U, 0xffebfdb2fb320febU, 0xc33dd3de052fece6U, 0xee1d04daf70df733U,
  0x241cd1d618c2e8deU, 0xdfdb061cf4d80bd2U, 0x1d03e5da42f124e3U, 0x1616f6f44f0f1525U,
  0x1417d1f027e45d05U, 0xdb05e7e821f805e3U, 0xbd20f3de0229e90fU, 0xa90301f9faae48f5U,
  0xd821d6faf00d040aU, 0xd4e5edd4d3dc0de0U, 0xd2c1010a01f22e9dU, 0x291a00a9f716ebd3U,
  0x33f2120110f318ebU, 0xfad22f1911c90530U, 0x1c13301b01c9fd0eU, 0x3af60044162f0ed3U,
  0x2e18fff33510d8e4U, 0x605995ff322f33aU, 0x1a03020008d1edfdU, 0xdecdf1fcecb9ddd4U,
  0xd926f5cbf0ecd84cU, 0xc324013b12dbdc04U, 0x16920d0d19fe0c25U, 0xf5ffe60309d9160bU,
  0xf8055d2425e51df7U, 0x19cff1fdfb101516U, 0x8102312d634fcdbU, 0xed261115c810e2e4U,
  0x5322c4ce7f95aeeU, 0xaf7e9c6f3b6c0e1U, 0xdf1ae4fd51c2f7dfU, 0x20f190d091d0cbfU,
  0xec500f2cfa2f142cU, 0x1217cece4319c6e9U, 0x21f301ffef3a1cd4U, 0x1efa0b020a411ac7U,
  0x93c1416d315fed8U, 0xee0ff5f6f514f20cU, 0xc8f136c8d4dbc304U, 0x273701dc0aecf51eU,
  0x70ff1321f49e1fcU, 0xa510eb50408e7f9U, 0x3b16d107e3fc14d4U, 0xe5c900c8dd1127b7U,
  0x23126504040beeffU, 0xe0e29fcf5ed1c15U, 0xdbf7e3c7f302f422U, 0x1ad40c32012c4ffcU,
  0x2f2f11140002cdefU, 0x10272fefc54428d7U, 0xe45dd1cf808d300U, 0x1d1130059f81f39U,
  0x2be4dcf9fcff1dcfU, 0xa34d60128e7d7c9U, 0xf4f0e32127ef0718U, 0x9231809dd371029U,
  0x1be004ea2e0ed0beU, 0x28e91910ec08c251U, 0x40f7f0fde0ee57ebU, 0xd8e738090a09e6e1U,
  0xf0e3aef6cd4bc2U, 0x1516fecf0af60604U, 0xfef1f401cfe4c9f8U, 0x1030e6f30a1b1a13U,
  0xe72e03e3fe0814ffU, 0x1d1824543fe6073aU, 0x33f6eafc0df9ffebU, 0xf05fd2ef1f44fb34U,
  0xe1bb2bdff6f5281cU, 0xe4db34fb171410ecU, 0x5f2deeb1ce01800U, 0xa30cfff20a3e292eU,
  0x2503da0cb2fefb3aU, 0x1235f0f727ede6faU, 0xf0de10e5d70a0acbU, 0xf9fbe3190d3f0a15U,
  0x4030fff6060c0629U, 0xcc3338f3440f13f5U, 0xea1e2e1fce14fe1cU, 0xc0f2f54de935dbceU,
  0x20a36d6c840e00fU, 0xf7040ce51f1413f8U, 0x34413e3f516db2bU, 0xe6f4cb15fce8f91aU,
  0x151af5c3f8e31c1aU, 0x9bde5ffdf19ed4aU, 0x22f528c017171305U, 0xc802e3ebfd3a2ecbU,
  0xe0e308e1faf9b67fU, 0x2244e3413af8bd1dU, 0x2fd1f70938e46213U, 0xc1101d21e0dd31eU,
  0xecf3d81d6e23f6f1U, 0x110ce806e9d700d2U, 0x1209e6035c40f05dU, 0xcefd0b1313ce02dfU,
  0x1f0ff5e862210fbbU, 0xcdeecd0334dcf507U, 0x420fe7edd90d1240U, 0xf00e10e8d45d0de5U,
  0x15dae62bef10df0fU, 0xcad7621ffa05062cU, 0xb8a100021927fbfbU, 0x4a03f3bb06fa21efU,
  0xeaf0fa0b1fd0c918U, 0x4408fc3620f3e11bU, 0xd91de6dd06afda3eU, 0x26d8e7371213fdfbU,
  0xf11e1f7fe0c0c06U, 0xf6ba24d9ea1df5feU, 0x4901c5461df552e5U, 0x39d5f3ed0824d9c9U,
  0xc0cbbfc30325e4f3U, 0x311a3f11310fe737U, 0x41fae2c7f3e94ef1U, 0xfae3e919340f194fU,
  0xcd4ddaef2f26d472U, 0xd9dd09ec2dd4dd0fU, 0x91d6592ad60e2ffaU, 0xeff7e4c7fde20d20U,
  0x4cfbf82df0f00afeU, 0x270cfe23e1ffe604U, 0xde0a0297fbd7f0daU, 0x47440d40015ffee3U,
  0x12bdeee4deb810fcU, 0xf67f2df309725ddcU, 0xf7edcec2fa0b1b1dU, 0xe5dae6ef05f9110cU,
  0xd7361efe25f9fdbeU, 0xde71d28bff9dd13U, 0x109d7def6190118U, 0x3925f9f4da1201dcU,
  0xf9e0f5adeed3f2e4U, 0x24ca122cff0426edU, 0xb7060815001bb4b7U, 0xf141517353fcc13U,
  0x16dac4e41fd91b32U, 0xd31919fb19ebc9daU, 0xf4c8d71f2cacf332U, 0x152f1c0531072f14U,
  0x3610ecbb1e1be494U, 0x321d0d2e0609c9f3U, 0x350e010519e82009U, 0xa6efe4a8052c071bU,
  0x30fd5201dcf2d5d0U, 0x40c9aee1f9d8e224U, 0xecc0fe0612e307efU, 0xcdfbd0f2fbdbe804U,
  0xe5f21bfe1911f4c8U, 0xcffb3af2fa030a0cU, 0xe2eafbedd407e2edU, 0x22dd191aeeff1f07U,
  0x3929e62726f9d917U, 0x27f426161c38071eU, 0xda2dec19126cd1e6U, 0xf6f03a0c36ee0a1cU,
  0xee150cd721eecbeaU, 0x9f02bea18e504f7U, 0xeefc0cd9d21de9e9U, 0x92e0515ec20d463U,
  0x162f1f2cfea3f206U, 0xf807110c7f0ffe0eU, 0x6e5f100080fe0f1U, 0x8f2d919df0131c9U,
  0xd10e11ef44f0160fU, 0xf3a8ed1a03e61517U, 0x28022602e6101addU, 0x14d6059e29101f33U,
  0x180adc19d0141912U, 0x6f4f5cdf5dff13cU, 0x15d0f2e31929f8adU, 0xc1fdfef1a1d8df11U,
  0x1614030cf4464c21U, 0xc3d8e21925f800f1U, 0xede8cc0fbbd3f6edU, 0x2deade1630fbcadeU,
  0xf0d1ebee3c1b1fd2U, 0xeceddf2fcf29f7e2U, 0x2f113a17f92f2df6U, 0xc13d0cecccf804eeU,
  0xadddf0370f0a21dbU, 0x212409ebf1f21423U, 0xdc091a0612192b45U, 0x30dd43eb34ecf821U,
  0x30809e4341020f2U, 0x1406e92dfcfc40f9U, 0xdb16def6da25e712U, 0x30eeef4d0322f002U,
  0x86eb19d9f5c307f4U, 0xa7ece4171302f4dcU, 0x1ce906fb2810cdecU, 0x1ceed1080abd03d2U,
  0x9daf6f8bc420008U, 0xe0034eff7cd0122U, 0xfb58fdd5fc2614d9U, 0xd9d9d2f8e0fb0f04U,
  0x3e0f8f60be4d404U, 0x3e04170e3cfdc205U, 0xcdd61938f10edab7U, 0xfbeed4eecedb222bU,
  0x300b02f210ed1cc5U, 0x1ec1ebbfe9ca01f8U, 0x5fcfef110d191bb6U, 0x1a0c13c8cb003be3U,
  0x2a22e909483ae9e9U, 0x10e70b0854cde31aU, 0x9dedbf8d3f5010dU, 0xf12bd608fd4ffbd3U,
  0x1f1ae3f6b730e716U, 0xf307f92227110e32U, 0x430bf6eeefead5e6U, 0xe4f99ff623163ddfU,
  0xcaf1d2fa4122f5e5U, 0xf7d2ee1be6063421U, 0x1bcdf2c82548e3ecU, 0xf7f9ec0fe31caff0U,
  0xf42ff410f6f2e7c3U, 0xf82aeb230bfbcfe8U, 0xd6ba071719dc1120U, 0xe1e1de21caebfdc7U,
  0xaeb22cd2000e9e0U, 0xfb14e23724323a1eU, 0xb0e2bf9bc1cced4U, 0x2404be262afc17fbU,
  0x10ff63bf1ac11e3dU, 0xc44c7171cd8d1faU, 0x5c499a1b0beaa5d8U, 0xffc45d3bae7e1d6U,
  0x203a61effedb9df4U, 0xdbf6afdf4af1cae0U, 0x25fa0ac1201a0c23U, 0xf1daffa950dfad2aU,
  0xc81cf3ff1b410c0dU, 0xbe081a03d56a702bU, 0xdef2ebfb00d8ffbfU, 0xc211302ef9739f57U,
  0xdcfc4822234afdebU, 0xaa22dac401e5ce36U, 0x43d8e6070be81ff2U, 0x19fce4cdde32eee2U,
  0xd82bf40cfa0baf3eU, 0xfa121ae11e022311U, 0xef141790ffbdf917U, 0x36f6fec1eb02e257U,
  0xeae44d32050b41c8U, 0xddd30939ef410131U, 0xafd226d900bfc7f0U, 0x4f0c50d1badd1deU,
  0xec3df01837ddbf11U, 0xed29e4ce0bd103ccU, 0x3a4190fd04c07faU, 0x396b1e071ceb1ae8U,
  0x2bdea0d33e129f7U, 0xcfcfeff7d4e09903U, 0xe0a1e65a021c1302U, 0xdcff5357dadd1f5bU,
  0xc911dcf234f9a761U, 0xab8c04f7cc40c02dU, 0xeb1d2ddcf6e2b87cU, 0x86e3ffe9440be1b1U,
  0x2a2ae0d5f6d40503U, 0x36115f2a22259723U, 0x12fc0bfbdd36fb26U, 0xd9fbff22036050efU,
  0x50a3446f6fef63eU, 0xb9d2ec020b26d111U, 0xb11083b32ff0dd9U, 0xf7445ae8f90e15e2U,
  0x39e2e505ed05e305U, 0xf917eafaf7cb151bU, 0x7cb16464f01f359U, 0xfdcff0cae22e2550U,
  0xecdb1dd834e1affaU, 0xe8c1e168db0c0cdbU, 0x603da2be9d11002U, 0xd25c0c6616413ce7U,
  0x8623e8092407e7a4U, 0xebd1eff54c2edec4U, 0xa46fea0aff14f326U, 0x10cf0740d907b012U,
  0xf8ea083ff2b4b32eU, 0xc534f0d935ae0229U, 0xfc49f2ddcc0ffde7U, 0xc0727f4eff003902U,
  0xf0e6c1e2f1f6f422U, 0xf864bdb61b181709U, 0x36dd1bd0301c39d3U, 0x311db4f6992d9d52U,
  0xe71cf90dfde7faecU, 0xf5e80c42391a16daU, 0xeaf8c4c3cbf506b8U, 0x2d20d304be23e4ecU,
  0xfaa30418f538eac1U, 0xd9c3fc53e448f435U, 0x2753230e100c5859U, 0x2c2d0dd8eaa7d9ebU,
  0x8064a582e1933f7U, 0xf979da211c18f72fU, 0x33cb0feed4f3e764U, 0xdd63d208410bca14U,
  0x50bae5f80e09bfdfU, 0xf2d724bf3bdf06f3U, 0xa3d6d5503a23d71dU, 0x2ed6e243f13cb9e5U,
  0xfce7b5f9201ffdc2U, 0xe4d7d1f7f11d66d8U, 0x3416930df4082455U, 0x3fd14cc0636c007U,
  0xf2010aece2870b28U, 0xbdfa99053df71447U, 0x2225211914ed2f0dU, 0x26e524c44515f9faU,
  0x15cd043bf1ffcad5U, 0x18a8e9f9fdf7392fU, 0xefb52525ffccd528U, 0xf5cf0cdf47620525U,
  0x1ef912feed23d0a7U, 0xc83a082c1ee245fdU, 0x65e0ffdfffda1b0cU, 0xd6ef1847e220c1d3U,
  0x6c4ff16e4cfe860U, 0xff1d2132aae8e439U, 0x1bc003f84111fc04U, 0x4618f1139dcf14d4U,
  0x380bdbcdfa0b4005U, 0xe828da04d99a17f2U, 0x3073335f005d5e5U, 0xfed7ebcbef4b12f2U,
  0x38f6f0f509b81996U, 0x513bcd992ea2fe0U, 0xb4f60ffcf53c0d0cU, 0xfab4f1dd0e19e50cU,
  0x32a1202808523826U, 0xd2f7ff083d0d1c1cU, 0x4d120522eb523347U, 0x2f291d130a181d04U,
  0x1f30d6c3ddf7d8f9U, 0xdd05f1dd8a3ef45eU, 0x3469c70106e43dd7U, 0x21e81134eacd0c23U,
  0x12fdf60d17dfd91dU, 0x3a4a45a91d16f21aU, 0xc6ecd4e1e2209c51U, 0xfafdfd2a11da23f6U,
  0x34f8e636ce2f291cU, 0x93f3fc3a3ded0af1U, 0x1f27f62cb0060100U, 0xe9b9f23e05d1f203U,
  0xe91323c662c54bb7U, 0xdcedfae0f67f2c01U, 0xa51c3cebde34ced6U, 0x4f303cf2a6e2d3e0U,
  0xec26cafefcdbfe4dU, 0xeab912dec610f2e3U, 0xaeded4d3aa7ec9eU, 0x1d4aebf607f9fedaU,
  0xe02e76e30e2e3e1U, 0xd0da056134a9ed15U, 0x4a04d9e7c80cf1eaU, 0x17e8f3162e1c04b6U,
  0x3bef83e4a502fe1U, 0xc8ed2d07c0231223U, 0x28ecf9ef7f20f754U, 0xdd2b14f51f44ec45U,
  0xda2d14d920ceff2dU, 0xfbd035abe3cbf602U, 0x45223a9c26ead245U, 0xd323e9da2040a0b7U,
  0x187a05c92e5fe30bU, 0xb9be5eecbd15715U, 0x1709280fd0dbe015U, 0x47ce0de20fc4d62cU,
  0xba6aee030cbcd7feU, 0x17663bd9df0a15ecU, 0xfa161c04e3022bf5U, 0xfcfdcff7cdd93c6bU,
  0xdc39d6fc3ae4f2ddU, 0x211819060ef5f42bU, 0xdb25e90efbf3b6eaU, 0x1ce4f011c83fbb1aU,
  0xec45eaec022ee22cU, 0xedf015f12812e0d2U, 0x22d160634062910U, 0xc8fa0ed700fe00c4U,
  0xda0cf5f7bfd62ca4U, 0x7fecbf64cedebdaU, 0xf9f7f79cc423e905U, 0x120809e8e728bd4bU,
  0xec21eed0490ed07aU, 0x20263cce1aafd135U, 0xc0f231ffec907c6U, 0xa20839525d10ed1aU,
  0x28262230f28fde38U, 0xcff90711fa0725c5U, 0x20e9faf205322ab3U, 0x2af21bda1ceb59e5U,
  0xead2facd15f4d20dU, 0xfddf6ca02310d31U, 0xd32c3725ecc31f19U, 0xd123050df09dfc34U,
  0x23f30631ecd7e4dcU, 0xc6bab1e526f356d5U, 0xe1ac1f40ba73a15U, 0xff201deaaffbe627U,
  0xd5fc05f7ee2c1f0eU, 0x1f2c1420f8040ff2U, 0xcef63900b92f20e3U, 0xa7ee0023271e35cdU,
  0x100f2e11085919fcU, 0xde1dccf60e2e1112U, 0xf527d40608f6c2faU, 0xe41734eae271cd3aU,
  0xfd7807fd0efedceeU, 0xc712f396ead02003U, 0x14d72a0ffb2ee41aU, 0xaf833192eddf9c0U,
  0xf1e205f2ff1cd811U, 0xec1b07470a3f11f0U, 0x2b202520312722ebU, 0xe5f05cbbf3ec00c2U,
  0xf922f024a900f908U, 0x2e3ce0d9bfcdecfaU, 0x31fbe404c6f33c03U, 0x120e2dc12e3cf12U,
  0xefbe082f3255d6f3U, 0xac9b859231fe9feU, 0x3c9dff00fbd320fU, 0x109f3b060ad4ba4cU,
  0xb339131bbffb3335U, 0x8f2d1d0fdf85d17U, 0xdf080cf4be29ce1bU, 0x24a5efc0d064a09U,
  0xdec50b0c140ce32fU, 0x13f3c63549fd21f9U, 0xe03afe04100d32ddU, 0x3eb21f1e12fd2bc2U,
  0xeaef22c6e3e8e512U, 0x1130bfd106f161feU, 0x14cef8c3f138d71cU, 0x59140018b9944202U,
  0x39e4c50ffd090eccU, 0xf42df1418f11160U, 0xe8f302eec6ce410aU, 0xf91e11f60a07ddc6U,
  0x599f25f227efdc06U, 0xeb4d25c30d16e5cfU, 0xda0511302bf8f395U, 0xd641dd2fd8baea2aU,
  0xf4e1f220e9a20538U, 0xd0dfed41fd7cb3fU, 0x35cadf1d7ffd12aeU, 0xfecde4ef2a01dcfeU,
  0x3814f0d3b7052838U, 0xcae51fe98f223ce5U, 0x22fc03e81ee30090U, 0xfe9fc4c00e07b29bU,
  0xdcd4d1b8e20511c5U, 0xe9f02422333d4e14U, 0xefc031e06e91b02U, 0x3ecef7c751c1fdfcU,
  0xf5d1f1c92e1101edU, 0x12e4f80f23071eeaU, 0x107e71949584319U, 0x50dc9140f150833U,
  0x231910efb2193de5U, 0xea0aebc3e70adde3U, 0xd1fb11270ef6ec16U, 0x4810dee11620ce28U,
  0xdfcff70d1f262aedU, 0x75c419e2f003dfb5U, 0xc5f6e9e20700f411U, 0x1bc6dae806c12502U,
  0xe6bdd9f726b693d8U, 0xc93320edb3241137U, 0xf3d6b0c41c031524U, 0x19df2efb03d397f0U,
  0x1ad93138ca12cf20U, 0xcafb212b0ffaf318U, 0x20cd4fd2bf310baU, 0xf117c73106071e27U,
  0xcfaeee9d0bcebc8U, 0xd7cc142326200bcfU, 0x38fb0ef5b91e031eU, 0x49eefe2e03fdd111U,
  0xcdb2ce6191346faU, 0xd2df332f3338bf05U, 0xe0c7bb06daf0f81cU, 0x90a12ebe59df1f9U,
  0x194937e6fde01009U, 0x1c4afec714c7bbf7U, 0xddfde9d3fdc505e2U, 0x28fb16111520d726U,
  0xe74135d3082e0a0bU, 0x2c00200340c819f7U, 0xe5caee2130fe0c19U, 0xf3bf1a2be404e945U,
  0xd142c71a03fe29d6U, 0x2f312bb0adb0351U, 0x45d42d2200d50deeU, 0xf9fcf0e115123efeU,
  0xf602500b20140bd4U, 0xfb0a2449f218ffe4U, 0x23d7fdfcd0d6dfefU, 0x45d5c70221330a19U,
  0x5be6cec9ed25d5efU, 0x1fdf25d799f064eeU, 0x172fd943113ee1f4U, 0xf6f2a06e0721f806U,
  0xce8e746ca22f4faU, 0x5f005ae27141112U, 0xd7de81ebec1613d2U, 0xca08c900e69bfaddU,
  0xf501de0dea1d0bfbU, 0xdf01846fa220507U, 0xa19c8e0d10ff6d6U, 0xfe3021d2f50e1733U,
  0x49ec1a02f3e90203U, 0x1919f5c3fe020d31U, 0x1b0bf504fc200921U, 0xe64de9081ee7e516U,
  0x2ff5d401e8ee0be2U, 0x221537fbe9561bfbU, 0x209d7070e23f225U, 0xe9215af1fddc1014U,
  0x441f0e09dc180217U, 0x2500f105429decb2U, 0xe4ddc8df01f8fdcdU, 0xe6fd03eada41d3f7U,
  0x2a0605f60af39d12U, 0x31e6c3ba114846e2U, 0xd3cd4e4f5bee0f4U, 0xf812fc35eb0f07d7U,
  0xf52d19f2fdf91df4U, 0xdeecf7071a08dadaU, 0x26cc4027d02a421aU, 0x4ae9224efff21c02U,
  0xe8e5062323cf09daU, 0x1244fff3f3aef910U, 0xe3d28f22eb656d0U, 0xfe3024338ffa16e0U,
  0x251a125ef0d5f416U, 0x244128c226dd1f20U, 0xe20a063619def8f1U, 0x40f111fa6b261a06U,
  0xecfcf306f927ecffU, 0x17d2e204ea47e1d3U, 0x2eb00acec80c0abcU, 0x54f9ea130dd80622U,
  0xe5ee2558364db8ebU, 0xd0aeeb6b6be22efU, 0x3730d2cb3ffc0145U, 0xdbfe1027f4be0d1dU,
  0x28f1bae5472ef2f2U, 0x5123707ddeed250U, 0x1da4430301120cf5U, 0xec11e7d7141b39f1U,
  0xa0dd00f1150e3102U, 0x5f809e31d95e5d1U, 0x3608e617ebf71cd9U, 0xebd60122e3bd0b32U,
  0xe7ef81060bbb6afcU, 0xfcdc22f62ef8e40eU, 0xae51013380dca19U, 0x18da24e01ac235f7U,
  0xf019b0dd090111f9U, 0xf30d10f627e00adfU, 0x18e41901f127e931U, 0xc1ee1107281c09eaU,
  0x9f0f10229faf8d7U, 0x17db171110f12c4cU, 0xe309d9d54e3d26b5U, 0xb9f6463800c00ce9U,
  0x3a14e10103f3300cU, 0xf699004e05282ecdU, 0x18751f120e281be2U, 0xdc081e2e7900193cU,
  0xf96626eaebf1f732U, 0xbbe5d31f15f5fb02U, 0x94090ac50c2516f4U, 0xcf5d02305032df5U,
  0x143f1ca14244705U, 0x22eed0eee94f39acU, 0x15df01c3b8281c00U, 0x381b42e3d81b52e6U,
  0xe93313f91333f73bU, 0x46943401c73a2b27U, 0xe61bdd1409f60cc4U, 0xf812260ef559e010U,
  0x35f50ad1bf130fc3U, 0xfa0dd528022beb11U, 0xec3c2528daeb01f7U, 0xfbebf64fcfc618efU,
  0xc9d9e4f9f1121e05U, 0xebe90fddb5f9e869U, 0x20d32dfc091f46f2U, 0xf6dbdcf3d70b4fd0U,
  0x1fee19c92ef21afbU, 0xd1de725e21b09f0U, 0xeafc20fcfeff3208U, 0xfefffe614423806U,
  0x23c2e004e7e6cc07U, 0xeecce2e639f4111eU, 0x2515c61d08f3e6d7U, 0x10102143cfe6e00fU,
  0xc4fbfad311f6a6f6U, 0x24f4d3f4edef0109U, 0x1be00edeb408eb7cU, 0xbe0d73a36d246afU,
  0xfc0cd3d701c5f6bcU, 0xd12d91440e73511U, 0xfdf826d3dcd33015U, 0xe7200338edde3104U,
  0xd3d5f3111dc8e4U, 0x2e1ff142cd2f1614U, 0xe702fe0cc816ff1cU, 0x120ebf6c9f222beU,
  0xffd52bf5035f2d04U, 0x5d263005f2daf91bU, 0x10d45111fef8f1d4U, 0xe4e22371f1414508U,
  0xfa02c772e400fbd6U, 0x15c0db9009000bfbU, 0x1ce0e6bc5fd253bU, 0x233b6404b6eafa06U,
  0x3ac9331e46d2e300U, 0xb278dfd9a0df03d7U, 0x1afba60010eb2bbeU, 0xff8341042123e39U,
  0xdbbbf5030dd5b8fdU, 0x36330eaeebe04412U, 0xfa1a3319ffc9ebc8U, 0x4d4d63d111ebd0eU,
  0x45f30615f81a0bc3U, 0x2b0d003f53bc4206U, 0x1ed6af0bcf4afabeU, 0xf3d4279bd80c5e22U,
  0x68d70b10156d0ee8U, 0xe9ca08fed8091efeU, 0x4d1c13e8151cdce4U, 0xead4041ef33cf01aU,
  0xbada3fdff8e3010dU, 0xd9042453d53c320cU, 0xf6024903ef181dccU, 0x143e21cedf1077fU,
  0xfdf0f4f816ca23deU, 0xea28d4d2e45139f8U, 0xe5e1eff8272a14U, 0xa05e2aae4d5e93dU,
  0x1af335befa1912b0U, 0xda273cf222fee1ccU, 0xdcaf21fcfce4ebc3U, 0x2820eee445f013daU,
  0xd81a3e0cea0b24d5U, 0x8d93e4e03d8fe19U, 0xece82ac301cb2623U, 0x2fff45bedafcddeaU,
  0xf4353d1dd3d2da45U, 0xdbe736a9c25aeca5U, 0x100ce0c7d013e9adU, 0xa7ef0dc1f1534f8U,
  0x39e7e6f61df30ed4U, 0xdd0fcd61ac54f021U, 0x2f262af3ea45e62cU, 0xc1ca12ea9043d3edU,
  0xf43cf6c21bda0232U, 0xf1ef000a2ddcd932U, 0x26ddc454cfc10bd5U, 0x4b0020843a2fde7U,
  0x3a03fef0f51ca5d5U, 0x1fd284f4f3cdf7b9U, 0x241b10ff4e0cca10U, 0x290927d0e319e840U,
  0xe11d902e0f4efbeU, 0x10faea14bedd03d7U, 0x48cddaf40e071e0fU, 0xcf40d1cdd001df8U,
  0x1df9f149d4240fe9U, 0xffe2e9f10dea200fU, 0xf6ec1315e905ee29U, 0xfb13efb8fa2104fcU,
  0xfa341aede3e50e14U, 0x14e1fef3f70c0316U, 0x1bf12ff702071a18U, 0xeb07f70014cc02e1U,
  0xfd00d0ebfd14eb05U, 0xf05fe03f80310eeU, 0x2422fcf2ede3dd1fU, 0x10ed091115271811U,
  0xeee8f13b1106eef3U, 0xf3e1be1add0209faU, 0x14fb15fff4eb20f0U, 0x9e2d7f9c6e91f02U,
  0xbfaf30ed8e4eab3U, 0x82af12ceef90d33U, 0x11e447ed00ffed13U, 0xd722e7e61105eb07U,
  0xc0060bed0402fe06U, 0x34d031b0bf90dfdU, 0x152ff3e2e928f60eU, 0x9d602061a3b07ceU,
  0xfff1e24b29202ae3U, 0xf7d239100b04fb19U, 0x21182ce306eb0efaU, 0x4f1fa0cef0110afU,
  0x12e0dbd9eff41412U, 0xdfebf40c0004ee2cU, 0xf81d7f1d1ce712c6U, 0xc000950dde6ea18U,
  0x1fc21f802fffdeeU, 0xeafbf026de2af4f5U, 0x2f08330d0c17e204U, 0xec231dc41a15220dU,
  0x2e3105f11d0ff0U, 0xdefcf50c06edfd11U, 0xeededf7f1f91af3U, 0x112cf431f5d2ee1aU,
  0x92eee391cfef802U, 0xf90001e51debc0f5U, 0xe0e7f5e709f30502U, 0xf60fcff10a110f07U,
  0xdb0524deeff71ae7U, 0xed0fd90fe0d0152cU, 0xef36521312f72425U, 0x1dedf92a46ec2713U,
  0x41aec07dbf3f7d1U, 0x3ebf6ee0cf517ebU, 0x5d3fff1ea09f0e7U, 0x9fbf6f91c2220ffU,
  0xf609e6e7fcde180aU, 0xf514ebed3929def0U, 0x3b0ed8fe2113ed22U, 0x815eafafae83f00U,
  0xf2e810e9ef0e1308U, 0xf028e8f204061d04U, 0x2ecf41d08f61f32U, 0xde292c111a06e40fU,
  0xfdf72d2ff9331a06U, 0x19f511e80be12847U, 0x47060812221504edU, 0xf7f9142247dd190aU,
  0xdd52916a5ec08e6U, 0xb70e1cfdf0080e64U, 0x10d1f80ec4c1e426U, 0xfbc336e8f8c7db27U,
  0x1ed4ded1e3361950U, 0xb1ee0bf6f2ee2fdaU, 0xef4734dc23f4f114U, 0x30e309043edf062fU,
  0xe70210e5080ecb0bU, 0xe0fcd824dcebc9e1U, 0xd15ab0e1b207fa60U, 0x6c916e109f4fed1U,
  0x1b0112d51637111aU, 0x2be8f5f3cf04ede3U, 0xf01ef9eaf7e6f045U, 0xd307d228f510e9c5U,
  0x100ced083aaae3f2U, 0xf403f2eec70dee20U, 0x2caf27fbd0202918U, 0xf1c13405e1f8ea49U,
  0xfcf0f43c10c42bf5U, 0xedcbcfefedef5edU, 0xc9bcb413fd1c4e53U, 0xf725eef4d7ec0af1U,
  0x33abfa10d7e707f2U, 0x173534bfd00bc7ffU, 0x1bce23ecf9f932c7U, 0xfcf3f1ede5f5e2ebU,
  0xfcf5260727bafb22U, 0xf7ea41f224d002c0U, 0xeb0e414dddf10812U, 0x34ec13b3f806f0f9U,
  0xfb06453e49e2e920U, 0xf6da0926201cf015U, 0xeeff0a8108ff1905U, 0xde890c612f415cbU,
  0xefe1ec23f424d416U, 0xe5ccecf6d625b42dU, 0xe3fa295df7201dfeU, 0x2332335b5dd5ebc3U,
  0xdb1b2bcb3d1011eeU, 0x8126e52a15f6faeaU, 0x1cd6d6c1eac3002cU, 0x2b041a0989dedcf4U,
  0xd7350c1bfa4628eaU, 0xde33d0f128c32cf7U, 0xa4dce1df10babf3U, 0x1c2ac42638250518U,
  0xf011d1f3f3fcd615U, 0x1201c92f010c52ecU, 0xecc9482f1919f4c3U, 0xec47132c09052106U,
  0xf420d50f0c263907U, 0x3819c29d2a26e4cfU, 0xef066510f42700e3U, 0xb900471cf1fef52bU,
  0x1dc2c7362f1d050bU, 0xd3514f81c27f53bU, 0x1238f4e9d62217fdU, 0xc2a344df1e92b0fU,
  0x90dffd2c7d5f90eU, 0x2ad822f8d4362ed9U, 0x1922202c4d00b303U, 0x3ebd8ecdfeccfaaU,
  0xdeea0118e3f8e81eU, 0xdc15f2520f014915U, 0x26ed0c3cb8086946U, 0xaff71b04e50ff4e7U,
  0xdaf91f03bde802f4U, 0xe9550506d2afc217U, 0xe8c7d849dcfff41cU, 0xcc0af1223ab8ffeeU,
  0xdef63313a429eb20U, 0xf31ed813e6e60102U, 0xfa0fefc94b0f35c8U, 0x1ce00b014d15f6c0U,
  0xde38f630511f0d1dU, 0x2d48d6022032e7dfU, 0xd905d233effdfb0eU, 0x186ad00cb8dbffeeU,
  0xb8fdbeff0903d3d4U, 0x2329d01b0202210fU, 0x15d91ce1fae612faU, 0x20fa0508fbea20c5U,
  0xedf80b1f07fdf71aU, 0x1fe2defee9475d2cU, 0xb27311019fa1281U, 0x3cb0c0d2d15aac8U,
  0xd4df0ff74329e3fbU, 0xe50914e70604e80aU, 0xff1b46ea09d520ddU, 0x4c2702e8e21e0588U,
  0xcdcd2d0260005eaU, 0xdf07260dcdfd0edcU, 0x1532e40de3f10b1dU, 0x18f3f514fe36cdd5U,
  0xe11b13fee907214aU, 0xae32d1d50b6300a7U, 0xf28110706daef9fU, 0xea1e12cf28cb1de3U,
  0xdc37df1907f4262aU, 0x90b02fb15c92856U, 0xfa00fd07faf9c6dfU, 0x10e8ef3af7f1d43aU,
  0x1bcff6582dee0bf8U, 0xf4ead0111f29e2f9U, 0x34fa2a02de201d20U, 0xe1def20e0ce57e22U,
  0x1001f311c093612U, 0xa2e126f28eb405f5U, 0x17f935fdde05a835U, 0xfb40fb58d71d20c4U,
  0xd63903d9f0e1ed08U, 0x1ae8f521005f2efaU, 0xba17ecc2203df5efU, 0xe50ed1e4df03c205U,
  0x38d8e7dd08fefd12U, 0xd31bfd13e2fcede8U, 0xeb0c4906022d1e0cU, 0x31e0f213203e60dU,
  0xd8f60ef5f6f3084eU, 0xf60df133e8f9f5f4U, 0x310df5b9defdf779U, 0xdd0910f44d291510U,
  0x5223f2f703f616caU, 0xafd07ee1fdb2316U, 0xf81ee6f3ed19fe14U, 0xfdf3de35d1d90d03U,
  0x70102c1c3bffc0bU, 0xdcf6efb0d42bf3f1U, 0xe129ed02e731e926U, 0xdafcbfd5c614fe1cU,
  0xe62ac8e3f3c223beU, 0xe01fe8111deede15U, 0xe033c8fa27f80e49U, 0xf40c23063fd6bfefU,
  0x1eed71f161fdb18U, 0x112fe738f61634fbU, 0x52905031feb0b15U, 0x8d009f4e70726e7U,
  0x3035f3e4f7c6db14U, 0xb04dfeb2f1def1aU, 0xe741ffee02170addU, 0x4c1e17f0f7ff00bbU,
  0x821b40f4403faeeU, 0x180a0434e1fce5faU, 0x16ca00f7011403d5U, 0x11182005df16f23bU,
  0x19ee07decfde13e6U, 0xf61efcde2625eeb8U, 0xee0ae411e132ebe7U, 0xf2f0c347e706f4c1U,
  0x34072d01fefe1ce6U, 0x2e2d10faebfe15faU, 0x1e0136c8c708f93cU, 0xefedaf7e828fb17U,
  0xe9cfd20c12e81328U, 0x2e11c8250009faf9U, 0x809ef01fd0cebU, 0xf8233de80d2efdbfU,
  0x91af2cfbe4b2b28U, 0x41e7ec1cea02e113U, 0xfcefe4abff7f0a08U, 0xaefdd13608e905feU,
  0x141ce61f15f41555U, 0xc304b7e425fb182eU, 0xa39f8c7011c2ff8U, 0x2feedb2720f6040fU,
  0x30b0ebc12fb050cU, 0xe725eaf250fef1feU, 0xe3e809ed290308cbU, 0x32321e29eee6e616U,
  0xf62df833c0d1fc18U, 0xf709f7090b24c80dU, 0xff2314f22c06dad0U, 0xbece61110efe6ffU,
  0xce11d08dbfffe21U, 0xf4e3205915073f0aU, 0xe638a43f0bf7e00eU, 0xc00e7cd0ec8434bU,
  0x1f5e70514f9d8f8U, 0xd30404bfd7fcbcf4U, 0x366528efdf14ca18U, 0xf1f60fe7fdbd0c02U,
  0xfe06f7050b0e1b0bU, 0xfe55191ae5054208U, 0xfcec182eb20b172eU, 0x3efc11e338efdb07U,
  0x8f705c6003c032bU, 0xe7f73c19ecf424e0U, 0xf019ca141d3fea21U, 0x80726f7a124eaU,
  0xe8d91bf921ecf9fbU, 0x10c6e5ed15fb1af1U, 0xc31fffecfceb1ef4U, 0xdc1822d207dbdbe2U,
  0xdfe5ec410d19030aU, 0xe5e71220dfd92aeeU, 0xdcfbd5d5f348fd0bU, 0xba1d1906f70cc4d6U,
  0xff13f300e15eea29U, 0xd6dd1e17ecb60723U, 0x12ceeb353af5ebe7U, 0xd935f608e8f82631U,
  0xefbe1f5ee1d03dcU, 0xebff144aef0d1020U, 0xd00dea2b00072702U, 0x3f44edf815e9e0e2U,
  0x1d0be4ff06d10807U, 0x14082f210aea1847U, 0x8fdc4f02cce0417U, 0x2d970938faa6fbfeU,
  0x2ec70b1a12e3eadfU, 0xe70f0425390a1b4aU, 0x9d02191ab5251d17U, 0x8f1d72e070106e9U,
  0xbbf802fc01d8127fU, 0x44323907e5000cefU, 0xe82c38f731cc0bbfU, 0xc4353806004234dfU,
  0x1818d944f2e322ccU, 0x5940ee2ceac910dbU, 0xfce720122242d9ebU, 0xf607d1f114f5b637U,
  0xf0d025f622142bc7U, 0x19eae60e13f04615U, 0x3537270c3adf0d00U, 0xf50f51dcfcfbfa9fU,
  0x2d3806f807de0df9U, 0x1831bb17b736bee9U, 0xdbdfde01102d22f4U, 0xd1d3b62121dc1a0fU,
  0x2022ea6101fef41cU, 0xe7d20cdc0807cde2U, 0x29052fe7e108c408U, 0xfec2ed1a0407c5ecU,
  0xe182e5fba1e714c8U, 0x18da454c1cfa58e3U, 0x4e0a051b0bb3b225U, 0xdd020fded511331cU,
  0xc91ddfd916b509ffU, 0xe04d6b00d0eedb7U, 0xf80b253400e3d11aU, 0xb9f4f729e716de35U,
  0x11efde241af7cfceU, 0x2b0bfed620f2f82eU, 0x29dbb7c0dbf512f8U, 0xd0f2809262c22f2U,
  0x29c8d8df0b2c2860U, 0x40ff04202032fb43U, 0x4c3224f7da245040U, 0xdcd808242be9ed03U,
  0xe0cf08f913cce41bU, 0xe70b22281502a23cU, 0x3955053eb3f2e722U, 0xfb25e9e4c926cc22U,
  0x229b0c09a5001bdbU, 0xf8d20006ca224dddU, 0x683abc5907e60e19U, 0x18e441452204c1U,
  0x262bb2e508c49d2aU, 0x530f31f1f61b1b04U, 0xdbab71f4e7e71a40U, 0x2221ff8615cb2ce3U,
  0xf4cd15d3170202dcU, 0x2867fefabdee1b03U, 0xc229ffc729f42159U, 0xc2d90a0efc2bcfceU,
  0xcc115f440abac821U, 0x5015153b42c3081eU, 0x10cf08edd64320faU, 0xbaf2e532fae435beU,
  0xd497f5e0eb2e00b3U, 0xac1f02ad9d7bc19U, 0x25d6fc02b8391b0dU, 0xc51599ebf1ebbe27U,
  0xfb21f404f4e3fa20U, 0xe7e9efc445d3c52dU, 0xddc432e3f3433c1aU, 0x5346ea4b1401bf24U,
  0xf536ce03a141b9f2U, 0x5fa2618e4e7b7f3U, 0x191f09d7e4ff0d8eU, 0xf5150f43dd3cf1cfU,
  0xe701b2c2e84cc1fcU, 0x30062f12e9d5b8f5U, 0x10ef43fff630e9feU, 0x140d103bfd19490aU,
  0xe90865f2f2e60c24U, 0xfe7c6000ae6162bU, 0xb809f6fa140107bcU, 0x1ce618381425eefbU,
  0xe62b20f5d70723dbU, 0xdfe6293efe2b29f6U, 0xd87811e6d1fa9affU, 0x226e8e67fc4fc49U,
  0x51dc70bf6ead1c7U, 0x5826041e241aeae3U, 0x17e1edbbf90df7efU, 0xda033de80fc1fb2fU,
  0xf070f1df10df1ec4U, 0xf5444522c1d316eaU, 0x8115a091712f405U, 0x191622e5f9a807f8U,
  0xdde52500f8321c0eU, 0x45213cede6971528U, 0xfb1a34f629d92107U, 0x8d1232b82c80ad0U,
  0x15f4f6d616eac04fU, 0xfb250c13c9eefa23U, 0x3ce40af4cbcee8fbU, 0xe116d8455712dff7U,
  0xbc12fc00dff4e02cU, 0x772cdd10270fbf3eU, 0xdf9f2ee26b62546U, 0xa904b2171101dcfaU,
  0x29e0b70ed9efea45U, 0xb835ddb21a282817U, 0xae4bf200af6fbc1U, 0xe3e4c7ed213826ffU,
  0x46b75f35ef0cfd0aU, 0x2414dff415e5efe9U, 0xd9270c57d013e5ddU, 0xecd19221fe06fac0U,
  0xcbe19eef813d9e1U, 0xe7cfe010f31fd0dbU, 0xf22e06ac81705f0U, 0x15f913f33fe82b2cU,
  0x2c292128e0240748U, 0xacacf4b3153df807U, 0xd83e19c327c7befaU, 0x733e9e15207f0efU,
  0xc40739071be33024U, 0x212913efccf7be0dU, 0x5f75c22f222d535U, 0xceb11cead9eb0ffaU,
  0xc904b022fe5f516U, 0x19e10c590323183aU, 0xfdd520050529c926U, 0x59f3c5de3cf60021U,
  0x5c9ff0ff6a1f811U, 0x917e5f51e0ead32U, 0x54f0dac4d2db2c08U, 0xf8fdf8ffed1408f7U,
  0xe60c0ecdc3d3f6ebU, 0xbbae8c62cba210fU, 0xf0dd05d81440e004U, 0x41fd1f1c1c41203eU,
  0xe1733edc6fd08U, 0xf009de810db4dff2U, 0x1e31bee04a051adbU, 0xec180604b7f22024U,
  0xb6fd063a04cc5e43U, 0xf8330f2506e1d515U, 0x23cec6b01225db27U, 0x11eb0733fde02a3bU,
  0x20f50cebfe20f3f9U, 0x112c5104f3dbc3b9U, 0xe2c1c10d0b0f0628U, 0x1b06ee0a2512e8caU,
  0xeb0303dc36f319fdU, 0xfd11fc14fef634d4U, 0x91b22a4eff105c5U, 0xf404b91910fcf706U,
  0x26fc2e2e0ba3ff10U, 0xc41ef6d2061f23c2U, 0xe1d421ea0cf636efU, 0x2029f2181f5d0ea2U,
  0x11f1222b0e13e92cU, 0xde0e2621d4d13827U, 0xe6d71debcca7e812U, 0x3e63dfde7270ef1U,
  0x34062a0cd8fa15e6U, 0xf43e0addec2c07d5U, 0xf0e914fb1fe2f904U, 0x46d870dc24cc2728U,
  0x192f050e010febe2U, 0xf143d130eed5dfecU, 0xcddfceffebbe1132U, 0xed1f24e5d3190a07U,
  0xd1fdcf38feff12U, 0xf81115b7de57c9bbU, 0xfc0ee615e7e4e030U, 0xc0a73462701ed13U,
  0xe0d3e62511171a23U, 0x1d0edfed3df840f1U, 0x380300311fdaffdaU, 0xf250f721f72cc6e6U,
  0xde31d4ecbc31dc2eU, 0xdbf409190430e3f6U, 0x15ec13fec01e17dbU, 0xf8e80226fd2ce6e0U,
  0x60cf8f9252e12efU, 0xae26fd12b33eebedU, 0xf20718235c1715f7U, 0x3e41de3da273829U,
  0x1419dee1eeea2217U, 0x14cffc071ee03012U, 0x17cd191ac3caab3cU, 0xfa0eee5af3061fefU,
  0x197ff3fcdefff49dU, 0x26fed41eecfcb9e5U, 0xdafbfff6fd321ce3U, 0xb156edffc0ce1826U,
  0xf727cc0a2f01b536U, 0x1335180a1b2d66d2U, 0x7e5e301f8bfc4f0U, 0xf0e436de2c10d30fU,
  0xe50cf42151d40cefU, 0xef0dc90f083fa108U, 0x32ee00f71de20fceU, 0x1bfdbe37f9a01afbU,
  0xf08260ed3facd73U, 0xe824dc976334fce6U, 0x4df25f974ef01cfU, 0x20ae3ee8dee1f837U,
  0xf5ff35be1a0d0d03U, 0xdecddc29d529122aU, 0xbde2e5d72419e8dfU, 0xee20f3540d33f3deU,
  0xf9e5f60ff5f9ccf7U, 0xee4da1ab2eae313U, 0x28e64cf91a20e0e6U, 0x404feef72cf0f5ebU,
  0x31fbeccdf7f3e71eU, 0xebeb1a00cff8f3d2U, 0xcc1712013511031bU, 0xda1ad5f418f8c8faU,
  0xd9f517cb2cddd007U, 0xc213ee0ee426ef8eU, 0x2d7043df0f525d4U, 0xfcb61fdd26d1f6e6U,
  0x30ce3f61e0ceaf5U, 0x8f5fd2316d7f915U, 0xcbefcdee9bad8f9U, 0x11ea41b0f708032eU,
  0x1ede08f310e5dce6U, 0x3b03fd16cefbf64aU, 0xd4c3d1b2c129a17U, 0x1524fc0d142dd5f1U,
  0xe92d2db305e3cae6U, 0xc6d0e2fbd9f0bbbeU, 0xf70bdc10151a27f8U, 0xe71fc9e4f9443c1cU,
  0xbdf5fac8b21ae2f3U, 0xe1da25100d4111b1U, 0xe63bde05d812f2bdU, 0xfc070f0022f8e7f2U,
  0x31d2e0e903e60e0bU, 0x2b26b615fc05e901U, 0xf0cb130cee0affd9U, 0xeacdee18fcd7d8eaU,
  0x4af9d4f4d0cddbbfU, 0xfcf1013414100838U, 0xf39e0f02260414ecU, 0x332b143825f2271dU,
  0x20c81407d01af330U, 0x29f3d50807ec12f2U, 0x5de06ffddf7eb24U, 0xe92ed13e4fb4f8U,
  0x7f0df835e8f9c710U, 0x22051fd62207f351U, 0x131c25eb1b2cc7c2U, 0xe40921cbd4ec03fcU,
  0xe7f704eaf6f811f1U, 0xf7fffc050f0cb61aU, 0x1f22372323ebe0cdU, 0x3710e6fcf8db1845U,
  0xb80501cdf728b6ceU, 0xd1b228e91feff5dbU, 0xfd04e711b31913fdU, 0x45e8cd671ac41be7U,
  0xeffb16fd0c0f46e9U, 0xebf51303e4ed3ce4U, 0x1221b91aef0d12bcU, 0xf70ceaa90a0844f9U,
  0xeeda2d27041903a5U, 0xf327ddee1a2c1ff8U, 0xc1b27effeedeb15U, 0x19d6f6f60efa09b1U,
  0x45ed3115b6d52feeU, 0x2a161213eae0e805U, 0xeec917f9081af5f6U, 0xeb19e4371dd3cfe5U,
  0x3f8df32d0f1ffd8U, 0x48c812f407fddc0cU, 0x2b0b160ff9fecfebU, 0x28251dfc1fdb2a4dU,
  0x239e5210fd90d00U, 0x28e41be42b08c7dcU, 0x2df120249f9fbe4U, 0xe748293cfe22e1deU,
  0xd60617e2e4e6f400U, 0xd1d10e24062213d3U, 0x71dece1e3050414U, 0x42efe8f027222d06U,
  0x72009e61cfbe6f3U, 0xfd14f1daebf8d50bU, 0x1d2ddfd6ee0b2a10U, 0xefe2ddddfabc0262U,
  0xdd1201adae9c2dfU, 0x291709fe0dee04f5U, 0x34eedef00cd4be8U, 0xa3704fa30140f09U,
  0x20b6f8feec0de81bU, 0xf7f13beb0d2016f1U, 0x19b911ed361fd314U, 0x1cd10c03240504d4U,
  0xd0de3e512a13ce1bU, 0xdb911ccd3ac3e7f4U, 0x2a00f110febfb2cbU, 0x9a004af8f7e2ef38U,
  0x16b017eb2af4e710U, 0x341d1516e60441dfU, 0x4754cf0fe72a13U, 0xf2ec1029d811db09U,
  0xf014fa29e40f1f08U, 0xcefc091bee310afbU, 0xf7e6dcf10ed3da3eU, 0x31e2f6d770e3fcd0U,
  0x6dbe7f42a42f20fU, 0xc20e02faca29f416U, 0x1d3afacd48fe0118U, 0xecdd1f4d18cbdc1eU,
  0x230ffd30270200cbU, 0xf9e1ed02faf3efdbU, 0x52fa1be0f8e2da05U, 0xe8f70f39092034ddU,
  0xb9bdfa0cff0afccfU, 0xe30def1d22440febU, 0xbdd805cdd6370622U, 0x34faf7defbd2ebfaU,
  0xc0261eb000e3f00aU, 0x839e409052408f3U, 0xfedaf02a412b010dU, 0xd31d22321bb235f0U,
  0x61bf4f749512212U, 0xfb6df703dcebe4eeU, 0x2808ded4e11314f8U, 0x13e21aeedb3c430dU,
  0x1113effed6e6e1f2U, 0x712ccfcfddeadecU, 0x2a1f2816f30510e7U, 0xcddb15e9e62bbde8U,
  0x3af0d9d1ee0e4d3cU, 0x2106f41520244b2bU, 0x3822fed21f9817faU, 0x15dbffd704102905U,
  0xf912f6ede1da10f1U, 0x71c14e9b7fdb001U, 0x3d540ebdf70c1b27U, 0x24e9f2fe24fef40bU,
  0x2509e50ff1ee140fU, 0xe4b3db09f632fd00U, 0x1725d2e9dcee3181U, 0x33cf55e4eb24000eU,
  0x716000c2711e3deU, 0xa037cce8071bd32fU, 0x27031b1ac9281349U, 0xe0e322e1eae20b1eU,
  0xe13ed7e3e7161e28U, 0xf31f35ddce190257U, 0xdc094df7eff92405U, 0xf7e6e0ff402811f6U,
  0x3e075ae7c41f1cd2U, 0xe7e50b07471beffaU, 0xbb0810e629fefee0U, 0xe5ee2714f6e6f813U,
  0x6314def02eacf82cU, 0xd91341f400ece2fdU, 0xf84001f708fd18efU, 0x2f07d5095a0ed325U,
  0xdd00f8e6103af7d1U, 0xda20264c0ab11abdU, 0x2bfeecf12015e514U, 0x2f92fecd7f4ddabU,
  0x14f0fbc2c8011207U, 0x26b906e73a34d8d3U, 0xbf02181aa7d206fbU, 0xfb00fee32a1302caU,
  0x40e00022ef0cc20dU, 0x4713f24103fe2d06U, 0xf329bee4dac10bdeU, 0x5afa30f82f13091fU,
  0xc32ad2f508d16416U, 0xc6062feb1d29ccdcU, 0x29484a672af91d9eU, 0xc00a111cf82c140cU,
  0x3ccc391853e2bc22U, 0x160b1a50d8001715U, 0x1f6ffb136d238d6U, 0xe9ff27d853eef044U,
  0xaf916cedb42f4daU, 0xfffc380aee02f9ffU, 0x37dcf81ee82ceaf7U, 0x3618ff0ef51ce9f2U,
  0xf3f208b9d2fff5e1U, 0xf62505f1fbe10fe8U, 0xf7d80a25f1160150U, 0xfff5313df510eadeU,
  0xe0cf1b0c391215e9U, 0x23e802071747031aU, 0x70df4f31fda19cbU, 0x162ff5bfd1f10b4eU,
  0x2ce6088a16f703fcU, 0xd24817e4231efd16U, 0x15d53d19002f213fU, 0x63dd30110a1b1a16U,
  0xdf090109ba00f510U, 0xea01d33cfe1d140dU, 0x27f3fd15dab32a06U, 0xe6e815fef562d514U,
  0x1efb1719142d03fdU, 0xa50013f8bcb00046U, 0xc4b800c7ec20d725U, 0x20def8f4ae23cfdfU,
  0x9ecad33f4a232c36U, 0xea7fc21651a73e5bU, 0xede0f63c45f93205U, 0x46da32edf932e40bU,
  0xdafcbd1fb6fe11cdU, 0x30afe7f047482cf1U, 0xe60d03390ff755e9U, 0x29e0ea26561b160dU,
  0x100c17141e1c090dU, 0xce0600ef0c04defcU, 0xcfbd9e212dff407U, 0x55ddfc15f1ffb5c9U,
  0xd3f61f0be0d845e2U, 0xed1cf0f606c8a8fdU, 0xdfe0fb1b4cfc9b12U, 0xfb280efd1534ece9U,
  0xdb11c50730e1f22dU, 0xf4d7f81119490f42U, 0x36e7e733f6f91ec9U, 0xf9e4fff132bc0216U,
  0xf2e903b01716f430U, 0x48f3daf8ccfaeeedU, 0x9e80a2e580f3cd4U, 0xd4e61a1ddd3a1aeaU,
  0x28e7e732fef7101aU, 0xfa070a000331f768U, 0xf820d3bf0c0f00fdU, 0x505cc33efc5b32dU,
  0xe443f20afdd33a1aU, 0xe1e8f5f9f31a172eU, 0x2a5b4008ee1123d5U, 0xdbd2e5fcefeefa36U,
  0x4a2363f930332738U, 0x17030d161b14e8U, 0xc1e926f13019f302U, 0xf346c6cefdf00cf8U,
  0xf71ee7effd33c4faU, 0x334ea2ae80e2a08U, 0x34f22cdcf435dbf3U, 0xf1bf4ed0a1a0751U,
  0xcfe02be40fd1033bU, 0xceafff2e71ada34U, 0xf9f130cd4390deaU, 0x6e100170eef0123U,
  0xce0d09272acaf01dU, 0xf81fd4ecf20af4cbU, 0xe1c70adbd0bff1a8U, 0x8fecee32d9e631fbU,
  0xfbc60450db4edc1eU, 0xfc18fdcbbadce725U, 0x2ebd1e1500f521f0U, 0xc61614ff432df5f8U,
  0xa9e9523402c1dcecU, 0xcb2b39fdef34bae5U, 0x73de61b213128feU, 0x4206d530cfe31443U,
  0x28fc1001f4f51709U, 0xe6c71715c33d0840U, 0xf4de134e7fc1323U, 0xa1ceb0a132b090cU,
  0xe10d16e1e82f1001U, 0xfbfae0fc050267faU, 0x2931dff8cd034033U, 0xeb171a4138ef2338U,
  0xc5ceac0c2eea1d0fU, 0xb9d1050ee3f83cfdU, 0xcdd4bf151d2ca11eU, 0xa115250841dafbe3U,
  0x13f43e1ae50a2f14U, 0x223801045adfe510U, 0x4eaccfcf7c528d1U, 0xffdbe81cd4effa28U,
  0x19fa44ca2c260848U, 0xede2f33e6fd5c312U, 0x17110fc8ffd91be7U, 0xc8fed3dcd1fe00e1U,
  0xeb08b0d014052f3bU, 0xf82edd1b0402264aU, 0xb8e3e35734269afbU, 0x2105dfc7015ee1dU,
  0xf3c228210929cd19U, 0x251cc2810af1e9c0U, 0xf8e8fae4e725f5aaU, 0x1d0f21ed081326d3U,
  0xfc17b1efc0fc20b9U, 0x22fe2cd50f10ee0aU, 0xf4d609f500ef1a32U, 0xf805f7d3e70d07f6U,
  0x3649d127f2feb3ebU, 0x2a9df7b5b9fc24f3U, 0xded0bd420de4a03U, 0xf20d4cf7e6ec18fcU,
  0x140812030602c40bU, 0xcb12c9f9e8ebcd1dU, 0xfa1aece8c4e7d6ffU, 0xb2234dd19f31022U,
  0xc3eb67c320e8e7baU, 0x32ae04da500821e9U, 0x553622c912e2cc1aU, 0x3331070700e5ebe1U,
  0xd818192f06fbc204U, 0xcc706eb30c4d825U, 0x1dfb0ac2ce4d81c7U, 0xc3272105bb239d27U,
  0xc8241700280d17ceU, 0x1aea181e0be9221cU, 0xedbf929080815fbU, 0xc6200a10011010ceU,
  0xddcdfdfe020cf79fU, 0x18d322ffa2f3ee0fU, 0x1c1f1918a6d332deU, 0x320eae709bd1cf0U,
  0x9e27d71d585206ddU, 0xe5f2430dd830002eU, 0x10f5ed2ff62c9226U, 0x9c216cf34fc3d1eU,
  0x3825c80f10fb05c0U, 0xf15fde2f7f0e83dU, 0x1dbafbe1eef61df5U, 0x9b2f2aeee7191a0eU,
  0xf11f4cca07d82204U, 0xed92dfb2cdfc7fdU, 0x1bf6ea12fb30e812U, 0xe2e9f84fc9213a48U,
  0xe00ad927d321f522U, 0xcd38f900a9dc15deU, 0xd214dded0309f42dU, 0xf0dce5ebc6fcc04bU,
  0x1b05f9dc0200f421U, 0x370dbdd5072df8f9U, 0xfcf41f4bd81b3fbaU, 0xd5c6940cf507d4c3U,
  0xf3171dc0ea04fbeaU, 0x1b420334e537dadfU, 0xe1e61218ee1f1ef3U, 0x32eace26f8ec05ffU,
  0xeaf4e3dfd5f8a10eU, 0xc4e7ec1f320642e1U, 0x8f229ff0e084936U, 0xffed151227e3aedcU,
  0xbeade0ffff205f9U, 0xbae717ee162703faU, 0xe21ebad4d0e2d9e4U, 0xfa123be3020eee20U,
  0xa1adacdf4f7ff0aU, 0xf63b00fb2c05f536U, 0x1d0e13fb15d8032aU, 0x8ef2aeb050d06e7U,
  0x2db9d61313b2ebf7U, 0xae08e4f3fc2a52e8U, 0xf422b71cbcbcfb34U, 0xc90009fde9fe2ebdU,
  0x5c5f4dbadf925deU, 0x1a3337eb21f6ea49U, 0x2695f5dcc9e418e2U, 0x1a37f70f37c91838U,
  0xd81d35120f38d8feU, 0x2621c5f90a1519f9U, 0xd6362bc7ba08da35U, 0xd023db22e4fe12efU,
  0x30f846cbd433f0d2U, 0x2919261002120d19U, 0xe226fa26ebb608f0U, 0x34392913f822d906U,
  0xd32e1dc6111f18e7U, 0xf44511182fcc4310U, 0xe4e200b3bc0913c2U, 0xf30cc706c50226cdU,
  0x2096d107cdf41546U, 0x350ad7772f1fa5edU, 0x16fa24ba010dc9e2U, 0xfa1df50afc09050cU,
  0x573dfb5cce33eb09U, 0x19ae13c61d13e62dU, 0x62c31e0dc023af2U, 0x32c6f222ca1509eeU,
  0xcf724e6d44b310bU, 0xed01d3fa1d02e051U, 0x353aceba073a4327U, 0xe316dbe8281301d9U,
  0xc3bdf1a0fb43403U, 0xf11530160ff03819U, 0x4f4240bed2df300U, 0x8107e5e3d70c2629U,
  0x29f4f2cabf2a10fbU, 0xbd09e1285bcc1432U, 0x23c8ea261d11f1c4U, 0xf91e09d22af4c11dU,
  0xe0ecfaec0df3fae3U, 0xefc7f210c2e13e44U, 0x292dff1312d52d17U, 0x241ff24d0c1b0841U,
  0xb93818f213ddffe3U, 0xf62326f1ebfde334U, 0x1b3cfa58110c0013U, 0x610e4f7eb55d7c8U,
  0xba3ecde52b71510U, 0xcff728d70a3c27ecU, 0x1afa1ffc3dbfe031U, 0xff18d4db14f30017U,
  0xefe20a0e06b2092fU, 0xdcfb2fd2849e3daU, 0x2027efe208de2ee7U, 0xd90fcde4640865d3U,
  0xdce60dfde1cee454U, 0xa26fc05222809dcU, 0xdea3946d4162a23U, 0x1daabbeb53e3ee04U,
  0xe3742b3017021e3aU, 0xe9d5f7d7dfc8e71cU, 0xfa3de40926540fdcU, 0xa20101eafbedfbe6U,
  0x7cfe8d3040c1d0bU, 0x29b91705eef7e2f7U, 0xeadaec032e1bc31fU, 0x201ae20c25291850U,
  0xf200beb5edccc7eaU, 0xfdd1d5f84cef2d4bU, 0xf7c834c1131b23c9U, 0xe2d84622f017e513U,
  0x10c7090b4c33cbe7U, 0xfcef04bdcd44f007U, 0xe0f82315e7c8049cU, 0xd61427caf4e101d6U,
  0xf0e507043003cf07U, 0xba20f35b07a72d0eU, 0xff1bcc2100d9f5d7U, 0xb4020c28f2411720U,
  0xf2fd08fecfc7e24dU, 0xf8f709ebeee0e021U, 0xaefbf4e219d1180eU, 0xe93638de3914e810U,
  0x18c2201915cc1061U, 0xebeae20d0d19e70fU, 0xf0ccfc20090ff2e5U, 0xf940470cf80de917U,
  0xfcfdfe4ff732da1bU, 0x3cd92cb5faf60504U, 0xf4ea217928eda60cU, 0xef000dfcef023c3fU,
  0x1a36cbf7e60a02e4U, 0x112d200e040714f6U, 0x12dfef010d0644f4U, 0xfc1c2e81f7f3a91bU,
  0xec01c7f6de35f752U, 0xad7de19fc284026U, 0x6121dd31def2bf5U, 0xe4c00e2cfbcaeb2fU,
  0xea001bfb02110db0U, 0x49ffb717b2d415cbU, 0xe4fb031afeb81e1aU, 0xf1fbeb4cee0ae3dfU,
  0xfb21f121ef3c04cbU, 0xbff2f5ed131db7e0U, 0x3d0339d9f633bc18U, 0xe0d800f0120c04e6U,
  0x3508c802e217f203U, 0xf714f4f617d6bfbdU, 0xc9f1f8f1d2eeb6f2U, 0x10d822e9d1e647dbU,
  0x13dfdefd16ef04faU, 0xed1558e3ed44f0d6U, 0x163014c7ec071afdU, 0xe13afecdc93810eeU,
  0xd050f1cf30ef007U, 0x19e409c600303b1eU, 0xe7a60bbc40fe0c27U, 0x3b49f9f1f21a59fcU,
  0x1d1df0db09f63a01U, 0x2aff0601d8aac306U, 0x2b15d1f22925aff0U, 0xf140fdde62bfdf4U,
  0xc72cd015b6eee4abU, 0xe3e5432ff53e100dU, 0xf4e2c841092af53aU, 0xf2003c04e1ca1cffU,
  0x1de712d1e4d9de17U, 0x9ef45918f3c2f0e9U, 0x98253b1015e3e10fU, 0x3311ef01ea1cd9e9U,
  0xff71bf52ae6b812U, 0xcbe1f61700f5e6e5U, 0xed0c2308dadaee23U, 0x461931f920f1493dU,
  0xeaf9d9f9e9e6432eU, 0xf8b0ece211ce0cf2U, 0xd1ae29d4ff221201U, 0x3c40170a58dcd3d3U,
  0xc7f9f6fd1fd70e15U, 0x3e4f3cbe530cc45U, 0x8b26dbea23bde9d5U, 0x2eea4537b3bfa72cU,
  0xb4da2bef2a35f50eU, 0x2b111126c53f1c0cU, 0x1ff417fc02972354U, 0xc5eae3fc09f9d2f9U,
  0xddd1b2c60bef29ccU, 0x262a01ed42ce5fa1U, 0xf9b306a6381528e5U, 0xfcde0706082b0bfeU,
  0x1fe01c7131b054cU, 0xfd1e21f91023af0U, 0xcc35e0d546b60803U, 0x9cb2c020c04bbf9U,
  0xf3b4d5ecfd38bd1aU, 0x1a6a27cbe0811ec3U, 0x1ccf280531e2150eU, 0xab00d9d627ccf0ffU,
  0x24cde5f1efe508e7U, 0xe20070a2f0a3fdaU, 0xee11d5f6121ed310U, 0x80d0ef55405bae8U,
  0x3af6ff232c410a3aU, 0x1d46521a0314feU, 0xf11c0f34da0ddb45U, 0x1214c9d6f8bac411U,
  0x344bdff1e8d4ec23U, 0xfd5128efe71f5fU, 0x2b02d5e102ef04aaU, 0xeee182aca1d20e3U,
  0x1732b518422af253U, 0xe1f7e105bc16bae7U, 0xddaedffa0c365e01U, 0xd9db18e4e4d03c19U,
  0x5e6f9fd4b050411U, 0xa7dd0fd735e9feaaU, 0x20ef0dd1d553a06U, 0xd513e62c32c740e7U,
  0xebd32c9b70152a5cU, 0xde19ffee2aba3b09U, 0x2754f230cbe5ffe5U, 0xc9f3dbdd21ec34e4U,
  0xfad8edeaed0dc3f5U, 0x431af8081639f904U, 0xf4ef385533e2d81aU, 0x1ef4e7bef1460106U,
  0xd65e350727df0f00U, 0xfa1101b9ed01fbddU, 0xe7fe64391dd3ceefU, 0xe2f3fb480814edf2U,
  0xafe59def05c4e4eaU, 0x11119b8d10cc14ebU, 0xd5fe65fc290d1429U, 0xb9f3ef292dacde77U,
  0xd63f61f02eb13207U, 0x50f392d6f3fdede5U, 0x136d2fa1231c9a6U, 0x1ac0d2f7af1fd927U,
  0xfa3be4ecb90fcbcaU, 0xd7c21315ec1ad9eeU, 0xc316ad2dceb1e4eeU, 0x6bd1218f7dcf71aU,
  0xe41a170929de16fdU, 0xf1022ad833192424U, 0x1b41042b784516f4U, 0x297633270950e32fU,
  0xbecffc00300ddc1cU, 0x8abbb05ecffdbf5U, 0xea4c59f031f6fec6U, 0x44f12d24f4e0fd37U,
  0x3811a60ae9dbb62bU, 0x3c3a755824f82d36U, 0xd8f6302c0b92f0ddU, 0x24dfd0f6cf2fd753U,
  0xc9b11a0056b53db5U, 0xfb1af90f48ea98ceU, 0xfbe31b0e18053bc4U, 0xcefce7481812b15aU,
  0xd64afef36219fce5U, 0x7f392a06261435ecU, 0x2c019703fac81fffU, 0xcadcc803c3be15cfU,
  0xe3e6c51a091702f4U, 0xb4bfd235190f07f5U, 0xed940e40131c5221U, 0xf9f917f48fe84650U,
  0x5d0ab926eeb4079bU, 0xf517fa7d3fc644faU, 0x4616e7ede3ef15aeU, 0xea2504b5f8940300U,
  0xaefb14f1f5c41cd4U, 0x3bece3171c1f16faU, 0xf607e20b0241e5efU, 0x3611000238f54acbU,
  0x55d5fac910dfe9e6U, 0xb30372758eefde0U, 0x16caea1734d6b6d9U, 0xfcda5d2d0c49f6c8U,
  0xea0ef43ddcebce12U, 0xc013230157ddc0e4U, 0x1be21ae00521202bU, 0x31511cd2e6eed322U,
  0xdb00d4cce9ecd7d4U, 0xbb2b0b9d13de29d0U, 0x16ae181942a12bf8U, 0x1959f2196a13c670U,
  0xc43c531e1aed2111U, 0xc953e7e4c6d9dbcbU, 0x693407b2c7edf724U, 0x1322dff6f1183acaU,
  0x31d7455117360816U, 0xdd45fd712630123U, 0x1fe8af32ff9f2012U, 0xe33b1b160157bdf4U,
  0xf2f923fe141dda20U, 0xe7090ff7f1daef15U, 0xd8f3d0ed241f29f5U, 0x111b013818022922U,
  0xf8efebf1112d2afcU, 0xf716f2072eed16ddU, 0xc402e9f22dfe1bdaU, 0x1c07ec25f8fd0600U,
  0xde072504f6dce1fcU, 0xe9f3faff2efe0c18U, 0xd1201fd4e60308e8U, 0x142104f207edf502U,
  0xe381b6eb19ef0dd3U, 0xdae90cc725ed17f5U, 0x428fe1e011a0a25U, 0x17e92e0b05e239e3U,
  0xf701000924010c01U, 0xfd180135000cf412U, 0xe3fa2df915f7e60bU, 0xfa21fffcf40713U,
  0xf9060dfc1d3c10e8U, 0xe0eff4dd0915fa3dU, 0x1e05f0020f11e919U, 0xe0260ff71812fbb6U,
  0x901e224d9fd30ddU, 0xcb02f6e7e3f25cd1U, 0x5e7ead40e0ad1f8U, 0xfcd5ef2ceedcfe08U,
  0x16f2eff4fbdefc00U, 0xfc21d60cdbe2fdf3U, 0xc019fcf8d4f1f913U, 0xe4d723e51d133944U,
  0xf1f1fdeccddb3104U, 0x1bd9f318f6f6f7f3U, 0xfe1904e536050ff3U, 0x36e9111212021617U,
  0xe9e0cd18f9c9ffe9U, 0xf60f10221bcc2919U, 0x1a2616f41aef10f9U, 0x14e2fa03f11217f7U,
  0xef1b17d0f2160219U, 0xea0c090dc9f2eee7U, 0xde141b02e0110424U, 0x111727d908d5e900U,
  0xf41fe3ee36f3cd35U, 0x17f8bdf922ec0a1fU, 0x8ded20139061ed9U, 0x2f703f41fc3c507U,
  0x13ead426f91250d1U, 0x25db030206fa1732U, 0xf0ce6e81839ea18U, 0xd614f638f1131fefU,
  0xfd18f41c140b090fU, 0xe2ce26e0e8f9eef3U, 0xeedb0ff4121c1bddU, 0xd3ea0b2201c127faU,
  0xadf90dd0d0211b03U, 0xf314f8e0f91ac90eU, 0x273be5f81406c001U, 0xed20ea07e6f6fae2U,
  0x19012ae3f8f623d4U, 0x5d7130c3122f6e7U, 0xb07fcfdddff2505U, 0xe809d6d50af70cf8U,
  0xd7fe292a81e40330U, 0x14edf7e825dfef1fU, 0xc6eef8ebe32fcb45U, 0xf2f40df764071f05U,
  0xfe13f0fd09291800U, 0xd1bef0544ed1005U, 0x22d7c2d617ee14cdU, 0xdd180dddeefe46f3U,
  0xeebf100bf0141f07U, 0x1a1f02ea0dd21bd1U, 0x1f0f130bd557e30eU, 0xfd16d3fa12041b06U,
  0xf70d6d0824e334d9U, 0xe20bf1f82521ebdfU, 0xe2fddcbbe5c9f82eU, 0xd61391d20ecee25U,
  0x1ce2f5fa21e8302bU, 0xe60a1fe400f60edeU, 0xece3f5090c1a1efbU, 0x22183210b6252302U,
  0xfe092214fa2de8b6U, 0x72e248f1216e2f2U, 0xe118dcd1d8e11ae5U, 0xdc0beb04dbf91207U,
  0xe5f5f2ddfb36e212U, 0x3f24c910c11bd5d5U, 0x3b072b20c1e4a31eU, 0xec0cae14fa4b282cU,
  0xe605f2f6cae9cde4U, 0x13daebf01707e9f6U, 0xeb050a2ae00ff122U, 0x190ae22c0233f82dU,
  0x100311ee13e9eaefU, 0xe8d9e304e6e516deU, 0x2a0a0016c5d50224U, 0x141d370dc3fad81cU,
  0xd6fee1dce90ee3fcU, 0xf50526f624a8b1f0U, 0xff0f1ada273814f7U, 0xfded31fae1b41e18U,
  0xf32aef280d2ae301U, 0x25e3efc9da11031eU, 0x10416d90c39f1cfU, 0xe3f32348f6c025b6U,
  0x1de3b70eedfdf1c6U, 0x193734e4b92998edU, 0xdff5c5fd34faf10fU, 0x50c0def46f319f9U,
  0xfd1e1efa2102c30bU, 0xfabcd1d341a1c22U, 0x17db1bd1e23cfa15U, 0xefd807030e12d1deU,
  0x2c9ddbecbfd0410U, 0xcaf3ed9606e4ecc9U, 0x19def5f608ec49dbU, 0xedea3e245ce8ef0bU,
  0x51600ff2208e811U, 0xa6e4df0f4ee808daU, 0x2210e1c9a7da031cU, 0xa1f1cfa640cee0fU,
  0x48e70bc3e7060b98U, 0xbe0f00c0723df2dU, 0xc4e570c1fa02d812U, 0x1ced44c8bf2c252cU,
  0x2142cfdccff0291U, 0xb1924cffaf7d804U, 0xcc00b5bf22f4df38U, 0x211e8fd3d25e635U,
  0x19e504dd53f42d1fU, 0xf00d2aa3ed3fedf8U, 0x28ff08c219fe2c4cU, 0x4fedd7e42eff0329U,
  0x8e831341b26fbdcU, 0xf4c6ff110ce8eadcU, 0x3b4e210ae8bde7f2U, 0xd1bd0640d6fafd06U,
  0xac9453f0ed4ba0aU, 0x23f8f51cf40215ecU, 0xe72b4e050c42e147U, 0xeaece7f827a8eef8U,
  0xfdb4beae2fc0810U, 0x1de214e6d3cef12eU, 0x6e9f0fde0efca07U, 0xed1dfc03d8107f30U,
  0xf8e1da05bed13e37U, 0x23edfd05c8d61513U, 0xe237190a0200fe48U, 0xe51ee703f803fa23U,
  0x15fa06e4f80513e1U, 0xdbf7e4c3f32de928U, 0x2f1031faf2e9040bU, 0xdc1f1542f9438507U,
  0xff7004e5e313caf6U, 0x8d720d80b4fa8e8U, 0xd9091208f2fb2df4U, 0x7e1e0f7d2dc25ebU,
  0x31faa4e523fd0107U, 0x44fa471fe4ed3e05U, 0xff32ccef28daeedcU, 0x980f153dd21cfe04U,
  0x3d180b0301e32217U, 0x2cf4ed151beafc21U, 0xc6eefbf20ec407f5U, 0x161fbb0cfc0d0d34U,
  0xf9e7d91e11140ce5U, 0xe5e600e0e5222209U, 0xfee0e605e0dce008U, 0xe2c50ffe1ce610feU,
  0xf421ccf2e606f1ecU, 0x30392dd6ac4a8df6U, 0x24f63c06d2030802U, 0xadcef10bcebbcd1U,
  0xe2361de40e130affU, 0xd408f823d3e3cb2bU, 0x80dc0f8d20314U, 0x22a0bbbcb56e229U,
  0x8263f0c020ee80eU, 0xf6ee3cd710f61606U, 0xfff604f401ed2ce4U, 0x9f5e60c0c211502U,
  0x19f8311be708d325U, 0x4d637fc1216262bU, 0x5d7c7fa0ffcf7e2U, 0xf0bbe2d11de015e7U,
  0xe8c405e921f9d117U, 0xe42414d217cc1f04U, 0xe41b06e904a8f930U, 0x43ec62e03ed6fa30U,
  0xfef8241befe4edf6U, 0x33110adc02d90cddU, 0x2e13e5ba0d42dc22U, 0x1ed9f23c0922f40fU,
  0x1c17f5f110b1bcecU, 0xd181f0e12ffee1eU, 0x2b06af31f62817efU, 0xb502f1981fe507f4U,
  0x17d2ee050a30f8c2U, 0xced6fef30c81d052U, 0x12b6262c1eefbb01U, 0x2a0fe8e8000a1d20U,
  0x2fae138b81304f4U, 0x6ad7fde44b14f5bbU, 0x1126df08ebf3f02eU, 0x645eed823f9eec4U,
  0x62fdef803d0c8ebU, 0x2ee419f9f9f7d40bU, 0x39f6ecc3ee2039caU, 0xd81ffee119f1dde6U,
  0xcc17d51de34ee809U, 0xeb292bef00d3e1f3U, 0xec0400ffe100040aU, 0x233261a7302e817U,
