/**
  ******************************************************************************
  * @file    network_data_params.c
  * @author  AST Embedded Analytics Research Platform
  * @date    Wed Jun 26 11:07:19 2024
  * @brief   AI Tool Automatic Code Generator for Embedded NN computing
  ******************************************************************************
  * Copyright (c) 2024 STMicroelectronics.
  * All rights reserved.
  *
  * This software is licensed under terms that can be found in the LICENSE file
  * in the root directory of this software component.
  * If no LICENSE file comes with this software, it is provided AS-IS.
  ******************************************************************************
  */

#include "network_data_params.h"


/**  Activations Section  ****************************************************/
ai_handle g_network_activations_table[1 + 2] = {
  AI_HANDLE_PTR(AI_MAGIC_MARKER),
  AI_HANDLE_PTR(NULL),
  AI_HANDLE_PTR(AI_MAGIC_MARKER),
};




/**  Weights Section  ********************************************************/
AI_ALIGNED(32)
const ai_u64 s_network_weights_array_u64[35421] = {
  0x412b411710672a4dU, 0x467f3b52590c0e50U, 0x26f91422111046faU, 0xa0fd4cc4f926eb11U,
  0xfe5aa8fc22d50964U, 0x29ca052eb8147f84U, 0x5adc10d91648aa07U, 0xabc2a2cc246e61fU,
  0xa31a43872b19de3eU, 0xe65981ed47c2f94aU, 0xde466a470eedb0b2U, 0x53787f13dbaaaed2U,
  0x2f5211d3bba5b3f0U, 0x7f332f51bcb91d2dU, 0x60104292a445452U, 0xc8aafcfffb0f0809U,
  0x1ccdd7b6adac86c4U, 0x1a6d0afc7f0b1f3cU, 0x761f013937041e33U, 0x3807621df93d2922U,
  0xfaeaf4d3afbe1c3bU, 0xeef6a0818d3a534eU, 0xfec0c2bc5e6b7405U, 0x300e0a37505b0603U,
  0x4bf87d3f4f7f5e1dU, 0x4266e2075f313366U, 0xf8e4222b15205a19U, 0xb2a69c9a84b6bda4U,
  0xa0c0e0a040703b1U, 0x615c7f3c3a4f0604U, 0xf826b6cf294a3b5bU, 0x1c9bc71cd51614a9U,
  0x97c30cbbee0681b8U, 0x614fb1d4f98abbf9U, 0x76d1b0c1f7e7e946U, 0xa18399f6e2e76e7fU,
  0xcddaf4f1f8395148U, 0x27148d5e04bc39cdU, 0x36815419b72b16bcU, 0xbf0d1ae2fe28b226U,
  0xd1e435e120d40838U, 0xe860baf719e6ed4cU, 0x41d4fc33cef77fa6U, 0xe0fb1fe8f249cff2U,
  0x81a7085d33205626U, 0x2826f0b7d3701ed7U, 0x35bdabfa12f81c19U, 0xf4defa020b0e4e3dU,
  0x81d6faf5fd06120dU, 0xf504030b0407ffe2U, 0xa0bce109050af5d4U, 0x2d10eb0e59d93d68U,
  0x46f62216067f43d9U, 0xf1fb27ee1ceff43bU, 0x13dbfffa8c08U, 0x400002137U,
  0xfffa5864000000ffU, 0xfff912fe00002342U, 0xfffea37b000002c1U, 0x11ee000020a1U,
  0xffff9b3f000023e2U, 0xfffedd3a00003fbbU, 0x2d0030cedf8e802U, 0xe3e6f2c513f4fc08U,
  0x2c0011b94261303U, 0xfff3ea0ff6eafd23U, 0x2c40213ac101c04U, 0xfaf7e925dab8fc11U,
  0x2da0212d7fde702U, 0xe9db06b82fe7f90fU, 0x18101fc871c1a03U, 0xfaf5f1082390fb31U,
  0x19b02f29c093704U, 0x500e41c0788fc24U, 0x1fc0102c3e5e703U, 0xe7de18e508edfb08U,
  0x1d501eabafbf101U, 0xfcd3f61300a4fa21U, 0x2e402f1ccf60603U, 0x2dff315fad2fc15U,
  0x20201f8032fcc01U, 0xe2e2f7f0ecf302fbU, 0x2f903f70611a201U, 0xbbc5bb1e87f200f9U,
  0x1f804ee02f00002U, 0xd1d9bf09f90904fcU, 0x1f701fe0a0e4b01U, 0x2c1742fa4bfb0402U,
  0x3fd0102f540ef02U, 0x506ef0cebef06faU, 0x20303faff18dc01U, 0xebedc926adf207f1U,
  0x101020409814d00U, 0x3e325002380e050bU, 0x101010e03d83501U, 0x31323ccb60060608U,
  0x103040004f7eb03U, 0xfe0ffdea07000801U, 0xfcf501f1d52c00U, 0xee0df338d9ffeffbU,
  0xfcf803f4cf6000U, 0xd3140a6cc1fcf1faU, 0x3f9fefded3600U, 0xf50c0136dafaf4ffU,
  0x101fef903faf701U, 0x4fe03ff0503f700U, 0x201fefb04f3fc00U, 0x704fbfdff02f6ffU,
  0xff0001f503f7ff01U, 0x60006000300fb02U, 0x10108f90b34d802U, 0xef213c923feff06U,
  0x10409ff133ba201U, 0x1be7fc813104fd06U, 0xfc0af80119ce02U, 0xbf2fdcf21fe0102U,
  0x522ff3c1a814402U, 0x6094434ce56f73cU, 0x4c3001309de1804U, 0xf1f0150cef40fae5U,
  0x7d201bed46db003U, 0xdefdaeaf0807fbb6U, 0x50cfe4139a37a02U, 0x1e05414edd6df74fU,
  0x583fff515f30704U, 0xf1f41afe0740f7cfU, 0x5c0feaca27f8402U, 0xdf1298ac0204f88cU,
  0x4ecfd1f24ba7202U, 0x1ef8ff2a0250f91cU, 0x5a9fefdfa0fe402U, 0xeefffdf31e2ff9f4U,
  0x5ee00d3c9659403U, 0xe72b9fe11525f7ceU, 0x102030808bdfeU, 0xff5ffa71901fa01U,
  0xfff701ffff0afefdU, 0x104020c08fbfcffU, 0xfefe0100f1dc44fdU, 0xf20e014bdbfdfdfcU,
  0xff000001102a9fffU, 0x18f100812d00fc04U, 0xfdf501fbfc0d03ffU, 0x5feff170bf7fb01U,
  0xfff90100f1ca55feU, 0xe70e005cc5fbfdfeU, 0xfffe00fe0417dfffU, 0x1fc09ce1900fd01U,
  0xfffe0203f80907feU, 0x302fd1a07fbfe00U, 0xfffa0100fee21b00U, 0xe906f91cdefcffffU,
  0xfffc0002e80a26ffU, 0xfb20fc13fb0cfffeU, 0x1b02f73109f8ffU, 0x5d8fb0a03c901f9U,
  0xffd9030aeef3f700U, 0x90212f2f82902feU, 0xff0601f8d10a1fffU, 0x2ef80af2fbfff7U,
  0xff2802ef5900f2ffU, 0xfebdf1050e810009U, 0xad01fce6f1eefeU, 0x310f6e9fa250005U,
  0x90000d70e0affU, 0xff35f102eb0201fdU, 0x2301e33cf8f4ffU, 0xfaccf9041cb50106U,
  0xffcfff00f9eef0feU, 0xfe0cf3e8042eff07U, 0x8fdeb190ae402U, 0xeafe01ebea06fa04U,
  0xfffef407409d01U, 0xd8fdc0dfebf4fbfeU, 0xfff6fef808458101U, 0xb3e1b3f6e3f8fcfcU,
  0xfefeee10e22400U, 0xfc0905e6fe06fb03U, 0xfafff8fb11cf00U, 0xd1fdd2e405fcfc0cU,
  0x2fffff613a101U, 0xade6c2fbdc00fc0bU, 0xfefeff06da3201U, 0xfcf40d06effdfdfdU,
  0xf80003effd0302U, 0xe6e5f7fd03fcfd04U, 0xb0001f8fec702U, 0xb1d4dff9e0fffe09U,
  0xfc2847d36807f3f4U, 0x74bc3256d9003a34U, 0x11056af55518e104U, 0x68a43949ef486846U,
  0x6df7fea6004d30dU, 0x729b0a4c3b443f2fU, 0xe1123a05540fd9e9U, 0x2cb7203fde1a4511U,
  0xdc134fcf5512ce19U, 0x40d70a42ee265e0dU, 0x1fd359066e05ed11U, 0x58dc292a0f09551dU,
  0x10ff3bc03009efe7U, 0x4ec9043f06193d1fU, 0xfff4540c5f21c506U, 0x5fde203a0f446a35U,
  0xbdb36c15711f4f4U, 0x61ba0e292d33523cU, 0x4010436fd0b1a02U, 0x1cd4f41c19cd03cfU,
  0x39e02b152ecf504U, 0x20d6f8fb1c480118U, 0x3ee030dba00d603U, 0xf26816f7d22f012cU,
  0x22f02169e1a1604U, 0x4222010f3d101c3U, 0x229021d35f32402U, 0x1fa3ec0e53a40195U,
  0x2b802d30fe3fc02U, 0xf8f5f3ef022a012cU, 0x3d103ede60cdb02U, 0xca2cfef1c331022eU,
  0x4540257b8260104U, 0xef4109f8e4ad0281U, 0x32501e62fddfc04U, 0x8c1e7fa10d003feU,
  0x11b021a1b06ff02U, 0x4f8e708f4c400e5U, 0x9002e8edf3f701U, 0xfbf4ff000223010cU,
  0x120103060d1e01U, 0x1518070307ed0406U, 0x240114f9fe0500U, 0xfc09f5fef9abfff2U,
  0x8100dc16e3e900U, 0xffcee20209300114U, 0x601ff00161100U, 0xe2d15f802ed0201U,
  0x2e0011ef030400U, 0xe00dfefcf6da0202U, 0xda00e10fe0ec00U, 0x3c4ea0808210209U,
  0x2000deb1b0300U, 0xfe310df7fb0204ffU, 0x105021ef74df100U, 0x47f6d0eb0d0b01f2U,
  0xff0c03070622da00U, 0x41f9ddc9f516ff00U, 0x402f706de0e01U, 0xfe0efe04ff1200feU,
  0x8ff21043e9effU, 0x3f09079e05fefc01U, 0xc0009062e81feU, 0x330807810103fcf6U,
  0xff0601f301e4ec00U, 0xa0e060becfdfcf9U, 0xffff020afd0cd100U, 0x31b37d70902fa0cU,
  0xe01070a07d500U, 0xf71532cb1404fa06U, 0xd040b01e31c01U, 0xf51b243cf2fefb00U,
  0x1fe04f709774902U, 0x741b3be54b000afbU, 0x2fe0407ec0a3900U, 0x43336ddf57f20a03U,
  0xfb03f2fbf2f700U, 0xc1e291301f40bf7U, 0x20f04e0f9182f00U, 0x53223af768f808f9U,
  0x10502e806b6f401U, 0xfe0526ff22f606dfU, 0x10404f20bfed902U, 0xdbebb636de0105f2U,
  0x803fd0be8cdffU, 0xdbeee7f6d60903f6U, 0x2f605fef3dcb500U, 0x81d2b906890a01e4U,
  0xff0302f305ef00U, 0x8ad48a16b61200f2U, 0xe3ae45f60e13a4d4U, 0x2194ce07f58732c7U,
  0xf1953ef8160bb3e1U, 0x3184badfcfb112b0U, 0xe0a835042c1eb0ebU, 0xf9ab0effb9f2be6U,
  0xe7e23840f90ab6d7U, 0x129aa5dc03a216b0U, 0xf9b21f290504c7e9U, 0x1a8ac6fbd5aa229bU,
  0xfbae2d4bfb19b2daU, 0xab2cdefefa2289aU, 0x4c22ee6e8119beaU, 0xa83c1d4ea810fb9U,
  0xfe8723f61834b2e7U, 0xfafb8e1ffa50fbfU, 0xe2ac36dcfa2baecaU, 0x685b3f5e7a92fe0U,
  0xf104ac1d94bb5421U, 0x945913e619259418U, 0x1ee3bb0f9cd03109U, 0x9066220fe3229d1cU,
  0x22ee9a13adeb2a21U, 0x914b2610f858810dU, 0x61bd0fac4c0311fU, 0xab4c3e1bdb1e9f1aU,
  0x27dbabe2b1fc210cU, 0xbc4a4f09041cb606U, 0x1fe39edf93ce1e1cU, 0xb65b521f071e931fU,
  0xe1eec8e8b4d05823U, 0xc3573429e553aa20U, 0x1e03b802afa42d17U, 0xa55b200fe51b810fU,
  0x2de1afd9aac0332bU, 0xce674a33ff5ec4f7U, 0x1090308080e2000U, 0xeff0ce4260c0106U,
  0x10a02fbffef2c00U, 0xcefbf844d10800f6U, 0xfe03fcfae21701U, 0xcce9e258810502f2U,
  0xff0800071707edffU, 0xd0420c2360bfe09U, 0x10fff070bec0b00U, 0xd503ea0cdb12fcffU,
  0x10000ff07da1400U, 0xcaf2db258b06fdfbU, 0x9ff040f0bebffU, 0x140a2bc92609fdfeU,
  0x112ff061b17ee00U, 0xf40b09dc0b0efb06U, 0x109000c0501e801U, 0xe0f8ecf3f60bfc07U,
  0xff27fd0d81d725ffU, 0xa9340cf2decffa11U, 0x65fd00dcf5efffU, 0x160219fdf588041cU,
  0xff6801e8301aec01U, 0x54ce071d219d08e8U, 0xff4cfcf2a9d91affU, 0xaf550df6c5caf637U,
  0xfe5affe90408f1feU, 0x11fc09fbfe87030bU, 0x4902ee2328f600U, 0x4bbff31533ba09c4U,
  0xfd0f00fb0bf911fdU, 0xc222f100eaf0f61eU, 0xfd0101fe0512f8ffU, 0x2f5eaf10ee503f6U,
  0xa02f7e110fb00U, 0x13d6d8f816e208ebU, 0xfff101f6cb00d7feU, 0xf1f9cb14badd00fbU,
  0xfeeb000df8f8c6ffU, 0xcfec906c0f0fef2U, 0xfff90104e6f1dbfeU, 0xe20ade13e11401f9U,
  0xfffc0003e2f70ffeU, 0x318e5e82906fef8U, 0xffeaff07d4ddf7ffU, 0x1b2ef1eeebf1fdf0U,
  0x1a0004fedff2ffU, 0x32cf6fde705fef7U, 0xffe9fe02f8110fffU, 0x905d708ee02fd00U,
  0xffe2fef6dffdffffU, 0x1711e51381f6fb00U, 0xfff8fff107f3f2feU, 0xfd17f21990fdfdfcU,
  0x1b0ff7fa7dede00U, 0xcf0c2f8fbb2fd58U, 0xffd1016ab2edd5ffU, 0x906c1f9f0dfff51U,
  0x1f7011df3ede800U, 0xf9ffdefdfd03fd14U, 0x1caff77a8d70dffU, 0x18f2f30601c2fb55U,
  0xd5ff67bcee07ffU, 0xfffed405fed1fd38U, 0x10201f4ea0e01U, 0xfb02ed0700fbfd00U,
  0x6020ef61c1600U, 0x280821fafefcfe0bU, 0xff11feecfe3512ffU, 0x12191ffbfe11fdf0U,
  0xff1601c31e2114ffU, 0x40b04fb0613fdd7U, 0xfc12b4e5a3c540fdU, 0xa533ede804069c09U,
  0xfb20a1f4bcbe44efU, 0x8c3bf5ee0641c112U, 0xaf5aec69ae320feU, 0x812cf4f2c92692f3U,
  0x30bd06b5ce3c14U, 0xd652fcef0249b014U, 0xf021ace4aaf635f9U, 0x9e4a2313e43ba3faU,
  0xccbde1b4d33bebU, 0x984ffc00eb5096e3U, 0xb429ffbbbe33104U, 0xbe2af509f21fc6d5U,
  0xfff3daebc9cf4003U, 0xb23302d50a34c90bU, 0xe9ea960ec8d24811U, 0xbe251dd60149c1f6U,
  0x2ff02e307ff00U, 0x4140603f6f6ff0bU, 0x1e01ed28f50300U, 0x5e202040cc800f2U,
  0x81010106fffd01U, 0xff04fef9023c0205U, 0x1ffef00010200U, 0xfafefa04ff07ff24U,
  0xf70108fa000000U, 0xafd04fb021201a8U, 0xff3100f5fcfe0001U, 0x30b01ff19020bU,
  0xfbfff617fb0400U, 0xf6f3efff08fc0000U, 0x1e70001e605f900U, 0xf612fdf6f6200101U,
  0x3600f3f3060200U, 0x1fc08fe950101U, 0x600f50f3df200U, 0xe909050c11fdff03U,
  0xff0800fb11340b00U, 0xde0c2b110107ff0bU, 0xff0e00000c1d1a00U, 0x111036ea26020104U,
  0xffff00fb092cb100U, 0xd3e8f0239ef7fcf7U, 0xfb00fe0b21b900U, 0xceea01318100fd0bU,
  0xfff6000307130900U, 0x190932f21b06010eU, 0x200fe0039f201U, 0xf2fef314eefcfdfaU,
  0xfffe0003fe1ae600U, 0xf3f8fe31b3fafc08U, 0xfa0000ff001f00U, 0x14091c060cfb000bU,
  0xed03f8f8f81800U, 0x26c9415cd3dbfffcU, 0xfecd02fe1eeb3bffU, 0x1dc74e57f0e701b2U,
  0xffdf05defddc0c00U, 0xfce45616f40cffc5U, 0xfff70009151b14feU, 0x4c63c2006fd02b6U,
  0xffe901f5112524ffU, 0xbd1470321050481U, 0xfb01d81fe8fbffU, 0x7e057e6133801a2U,
  0xfff7fe0d0f1de200U, 0xddd029d912f700e7U, 0xffff00ecef3ad900U, 0xe0e946ad2c0603b3U,
  0xff0501ef27fac2ffU, 0xe8e263a41c1900bbU, 0xf701ee1a0ad400U, 0x94d1f4248b00fdf5U,
  0xeb00fa147bde01U, 0xcf80204ec0804f8U, 0xf5020ef10df200U, 0x1a0b0df50a0707faU,
  0xf601ee0941e201U, 0xe13f7ec0001ff02U, 0x106fffafe473200U, 0x7f2632d05bf80509U,
  0x1060008ffb02700U, 0xee13050220f507f9U, 0xff0700eff2e4dc00U, 0x19fceffb10fbfb09U,
  0x10c01fbedb22d00U, 0x14fefa1724f0ff04U, 0x202910301U, 0x93e3da12cdfdfff5U,
  0xfd17fe07daf30cffU, 0xee0e1106f1f102faU, 0xff31043efb1f3400U, 0x2be6280c3faa09cbU,
  0xfffc0608291c02ffU, 0x45a9f6132a060efaU, 0xffc6fbd912d0ddffU, 0xdf07e9fdde20ff0fU,
  0xfe3afe4c81f220ffU, 0xd662fee3f8e301bdU, 0xfd35ff203cf50900U, 0x35c7220535b702c0U,
  0xfec1fec6300fd7ffU, 0x7bfb119f915fc0cU, 0xfdd6feeba5fce2feU, 0xd150e2daaf53f709U,
  0xfe1efd240ef6fb01U, 0xf2132d02f9d7fcd4U, 0xfec6010223ec0001U, 0xab3d61a14fc00f4U,
  0xffd5fe30c2ed1efdU, 0xc54019edf03ffceeU, 0x21604d60f04ee01U, 0x2e02fdfbf5df0121U,
  0xff94ff202acc0402U, 0x2d404180a1ffed0U, 0xfe41fd0a810a06feU, 0xc3641ad3bd1ffb09U,
  0x22102ba4d0bed02U, 0x18bffe0f12940213U, 0xfee0fe1df8e90500U, 0x5210605032301e4U,
  0xfd41fdd8cb29effeU, 0xf341f3dbe0bfff29U, 0xf201d7341c0501U, 0x1eadef1a43b904f7U,
  0x21f05a9eb160702U, 0x14d5f91505b60e09U, 0x2dd041710fe0502U, 0x881d02d2ce50cc9U,
  0x1d10431e5fa0f02U, 0x1eeefd0c16090cd9U, 0x3f804db1f0b1101U, 0xf1b2fb16140d09cdU,
  0x2a00436f7e30c03U, 0xc001003022f0683U, 0x1f40437dbfaf902U, 0x1470be8d7270604U,
  0xec020613eef301U, 0x151d1000052b06dcU, 0x10a0340f8e2e403U, 0xf37b0bced92803f5U,
  0xff3105070e19ea01U, 0xd371bd7ebe6062cU, 0x8ba221a402c810aU, 0x52cffd21dfe04732U,
  0x36bc24e73c2cae1dU, 0x29a5d1ee0ff33a28U, 0xff693cf44b1eb107U, 0x628cd30f249d3753U,
  0xfbc832fe2a3bc106U, 0x19acfdd9ecdc291bU, 0xfed901123501a603U, 0x1fd0e7e0f0f3172aU,
  0xfa6c3b06120ab60bU, 0x4196dafaebc63c22U, 0xbb206dd3a33c624U, 0x1197e2f7faca1542U,
  0x8e42de00b39c4eaU, 0x3bc9d5e0f1d1032fU, 0xfc5415e82d24831fU, 0x45b2f500f7c62f34U,
  0xfe1cff1617dcdd00U, 0x4efa39fb090dfa7eU, 0xfe3fff1400cccd00U, 0x36e03ce6183ef920U,
  0x19fff710d9d700U, 0xdda30090a01fae8U, 0xff22ff53251922ffU, 0x7fea5efa1635fc79U,
  0x27fe0d43f40600U, 0x75ef6edb3d62ff49U, 0x1200008eff7f601U, 0x1ed03ef61428fd10U,
  0xff22fd481a382900U, 0x730c61ff1141fe19U, 0xff1bffe13d0b26ffU, 0x5f0372fb133bfe0dU,
  0x19fefeee0d09feU, 0xee56e11df32fef9U, 0xff04ffbe0a0f01ffU, 0x5010d0203080100U,
  0xff0cff8514090affU, 0xfd13fd0e0600eaU, 0xff08ffca0b0901ffU, 0xfefb0907ff0900f9U,
  0xff0000bd11ff0100U, 0xfd01fe06f60eff01U, 0xff12ff8112000cffU, 0xfc0305fffd0dffe5U,
  0xff0d00b00ffa05ffU, 0xfdfd0409f700fff7U, 0xff0101ed09fcf9ffU, 0x6fef501fd090005U,
  0xff0c00c20503faffU, 0x50500ed081100f6U, 0xe01db07f7f7ffU, 0x4fffcf805fffffdU,
  0xc204cc130a0100U, 0x3ee40922052f0207U, 0xe80400e409f800U, 0xf94a39e105260030U,
  0xff1a0229effdff00U, 0xc00f15df04f5010dU, 0xffad04ba29000cffU, 0x58b3cc2f1a0e03e4U,
  0x8104cdfdf9ff01U, 0xfb2f0ffc01480033U, 0xff0221e3f4f600U, 0xaf4710d7fa400034U,
  0x1dd03e0e0120400U, 0x22b8bb10fee203e2U, 0xb802ef01fa0500U, 0x3d0dd09f7ec0001U,
  0x1de03fa01e9fc00U, 0xc311f5f8ee0e0126U, 0x401ef06040500U, 0x190406060406ffa0U,
  0x900f20b000400U, 0x10010a030104ffb3U, 0x4000704fdf900U, 0x4fe0c06fc01fffaU,
  0x901e30e090400U, 0x902fb0204040085U, 0x800e20a030200U, 0xff02faf8010c0081U,
  0x1000004f9fe00U, 0xfe010b05f801ffe6U, 0x900e70a070400U, 0xf600f5fb0b0401b7U,
  0x1000e80906fe00U, 0xf102eeee070c009dU, 0x600fb05fbfbffU, 0xf8ff00fefafefffdU,
  0x26d27a016e43bd12U, 0x24cb2f361af7532fU, 0x1bee6c024a33d53bU, 0x4abe21350bed4f35U,
  0x42ef7ff26030b120U, 0x49d10e1d2525711dU, 0x22fb3e08453ec50fU, 0x2bd11ff5e830273cU,
  0xfce553203110d536U, 0x46ce2d101a20362bU, 0x1504510f6021da3bU, 0x4bb70f050fff471aU,
  0x9df6dfa3b49e523U, 0x52d41714df0f5b2dU, 0x1be14af23c1cc92eU, 0x44e82e2ad421613cU,
  0x18d7671c4445f5f4U, 0x2dc6123a032a6d40U, 0x2f300003990U, 0x1ae000001faU,
  0x667000002e5U, 0xfffcc0c500004a51U, 0x6f40000054fU, 0xfffffa91000021eaU,
  0xfff5cd4efffef046U, 0x1ba00001d55U, 0x982000021b3U, 0x256ffebd9a6U,
  0x60ec00000738U, 0x372000001d2U, 0x42f0000076aU, 0xffffe93afff7ddf1U,
  0x76500000455U, 0xfffd2c58000006fdU, 0x2200745ca0bf7f0U, 0x2bbd0101fd4811f2U,
  0xd10881e31b01d7e7U, 0xcef32e28030d26U, 0x2e8f327d3e31f19U, 0x17050001f5ddcdf5U,
  0xec28cb2a0802f417U, 0xc4d01f19020df1U, 0x2e8d4eefd082b05U, 0xebf600fff5dfdb18U,
  0x1ddf15150202071fU, 0x203fb0f03e0ddU, 0x1eef7ea01f0f80fU, 0x1517010315d9ebe3U,
  0xcf32e8280a01eb25U, 0xffece5fe12020e0fU, 0x2fdc3b218e40b31U, 0xe9240001eecbde2aU,
  0x25da3d31f3010d21U, 0x391afeff01dcc3U, 0x10fffde07effb01U, 0xfb03010011191822U,
  0x22ce2a090201090dU, 0xff2c2000e701d7e7U, 0x2eef6ea0cefea01U, 0xdb130101edd415e9U,
  0xfbe455fef501fef1U, 0x11718ebe402f5e2U, 0x1331f04f7fee3cbU, 0xcffd0001e54c3e1dU,
  0x2fa741c40501f3baU, 0x3234edd701f6fbU, 0x2032819f902e3e3U, 0x16f6010006362708U,
  0xffecf0cd0702eed8U, 0xeb0df4d8011016U, 0x2fdea0ff6130d07U, 0x7f00001f9fa071eU,
  0x1be800001001fbfcU, 0xfd1afe1402dae6U, 0x1fad612e909300bU, 0xf6eb0000d7020a39U,
  0x3dc71efc0b01e8faU, 0xfe2cfff901aecaU, 0x5f105f404260bU, 0xfff30000f2081317U,
  0x23ef0b05fd00fbf2U, 0xff051b08f301d7e0U, 0x100fefdfafb0b03U, 0xfd0b0101ecfb0b13U,
  0x19e002091202f508U, 0xf7130ffb02cbe8U, 0x1fee308ebfb31fbU, 0xeffe0001bf000647U,
  0x4da214fa1e01cd00U, 0x14105ed0081b4U, 0x1fdee0deb0928fbU, 0xfbf60000dc02122dU,
  0x30c906f80a00edfdU, 0x10b2afee901b8d2U, 0x10107fa03fa0bf6U, 0xf7120101fdff0200U,
  0xcf3f80b0600010eU, 0xf6030ef201e7f4U, 0x103000ef9fc15e9U, 0xee090000dc050928U,
  0x31cbfcfc0e00e708U, 0xfff91d01f601bdd8U, 0x106f60af70609efU, 0xf7070100df060124U,
  0x24cff7f60300e904U, 0x816f7f201d0e2U, 0x218f219091c53d8U, 0xf9ec0002f1032339U,
  0x43e0e41b11001d06U, 0x2d152de1e00deeeU, 0x2e901eafafe281aU, 0xdefa0000ffee02ffU,
  0xf308d6f40100cdfeU, 0x1e7ed3dd50105f7U, 0x2d219d6efd1b52cU, 0xe19000026f2edafU,
  0xb8123bf5ff0129e3U, 0x14dbc10c3023e29U, 0x110eb1dc7fff6f5U, 0x12e70001d516df09U,
  0x16ce3b0d1d01150fU, 0x233f2c80501ecdfU, 0x119012f272b7fc4U, 0x2db00fed9de4265U,
  0x69fdc3161e00e611U, 0xbf61010801bbd5U, 0x2ebfaeb03e6e739U, 0xf00c00fe20f2d5ccU,
  0xda11feeae4011320U, 0x1fbc336d7021e05U, 0x419bfdeede2b02eU, 0x5080102e434a7c2U,
  0xd0c95ed3f80102f4U, 0x25c86eae70108f6U, 0x41e262b000b17a9U, 0x2b0301fec1fa2833U,
  0x36eb140726020502U, 0x10848e2f002bfdbU, 0x305fc131609240fU, 0xf5f301fef8ec0920U,
  0x2105d7f9f701120aU, 0x1b32c16080200f2U, 0xff23e7d013bdf44fU, 0xa039fdffd2020819U,
  0x37c73f14f0fe182bU, 0xfd6b0142bcfdb7b0U, 0xff4709fec62fb5c2U, 0x320bfe004d090dccU,
  0x9324a62432fef72bU, 0xfde9be12dcfe4c4cU, 0xf811112a0e0a02U, 0x1be7ff02f5f4e6f7U,
  0xfb27210000fe21f9U, 0xfdabefdb0afe0209U, 0xff0d0612c4fce3efU, 0x17ebff001c0dffe0U,
  0xeff8da2027011226U, 0xfe2eee3bc600e922U, 0x1df25373f3bbab4U, 0x4bc0ffff4cdfe69eU,
  0x8c52e0143ffffddbU, 0x86cdb41c007f7aU, 0x1e1b2e910ee1622U, 0xb6fdff03bafed818U,
  0x3ad83fe0eaff05f9U, 0x332aebedffbec7U, 0x412509fef5c6U, 0x4fdaffff2adf1ad5U,
  0xda26161511fe19f1U, 0xffba041314ff1e2cU, 0x2cefbf51403e604U, 0xe6ee00ffe0ebfae9U,
  0xf7054fbf0500e7e7U, 0xfff503d20600f9f2U, 0x9e7e4c2f7f81cU, 0xff210001d325123cU,
  0x34b9f1d4fb00f823U, 0x602cfdebffdacfU, 0xfe00e2eced040732U, 0xdddcff00f2e4e7faU,
  0xdaf8f1e0d2ff0102U, 0xfc00ed30e8fff9eeU, 0xfe0c9da09017037fU, 0x89d4fd01fd0097c8U,
  0xbed1f2d5acfef009U, 0xfe03b554c8fff3afU, 0xfe0fc9c3a9191242U, 0xc2e4fffffe06bbe7U,
  0xf6daf7e8d7fff411U, 0xfe00e850cbfe10c5U, 0xfeeefd05d0e9f109U, 0x130cffff0df6f8f2U,
  0xee1717fffcfefc16U, 0xfe09e21efbfe1912U, 0xfff8061ae20b08f5U, 0x130ffefeeb090515U,
  0x107000300feecffU, 0xfddc04f729fd2217U, 0xfd01011207ff1804U, 0xf112ffffdc07081fU,
  0x1def1204f4fee21aU, 0xfed1080c0dfdf9f1U, 0xfdfc1c2321f6e1baU, 0x271bfffe16031e0bU,
  0x72c0c211aff04f3U, 0xfefd0adefeff1924U, 0xfef940494d070484U, 0x2811fffff902392aU,
  0x112fe81a2cffeed9U, 0xffea17961ffe263dU, 0xfe15202e26fe10caU, 0x120dfffde3102c1bU,
  0x1812ee0f17ffef01U, 0xfeec09ca11fe001aU, 0xfecbfef01317080eU, 0xed04fefd40decef3U,
  0xf0d37f2f7fc1a23U, 0xfdf6818af9fe39faU, 0xfdd908f03b032d13U, 0xb3edfdff1ac31b28U,
  0x4de8370ee4fd2310U, 0xfd01e6a413fc02c7U, 0xfdecff103d133309U, 0xcfdffefaf7dd292eU,
  0x36ea2e0901fd0bf5U, 0xfe000ce20efff6feU, 0xfcf70be0cb1ce4f6U, 0x230dff000541f7efU,
  0x34ce02c9d8fdfd26U, 0xfdedc401b3ff45fbU, 0xfdea2aebc60bd4f3U, 0x162efe000621090fU,
  0x3fbb17d2b1fd1829U, 0xfe0c95fab4fe2ee7U, 0xfdec2dff03fd0806U, 0x1f1efffe0a082301U,
  0x1bfc3413f6fe1900U, 0xfe25c9cfc1ff1108U, 0xfd3d0afdfb2014d5U, 0xe0b6fefd01383302U,
  0x29c6e905d3fef31cU, 0xfed50856f1feecdfU, 0xfb2b1ef7b931eaf0U, 0xb04fdfde64a10f0U,
  0x12cbd1c9dffd0119U, 0xfdb7e23bd0fd1808U, 0xfd2a26facf15da16U, 0x1e19fdfb09320ae6U,
  0x608f60df0fd1411U, 0xfed2c503defe2519U, 0xbcda1d0ff220edU, 0xda0e00ffd5fcf7f6U,
  0xe8eb62c0090104dfU, 0x124b1d9f202c9c8U, 0xff110ff12af6fc03U, 0xef0ffffff6d43cfcU,
  0xe3e916e421001e04U, 0x1daaa9f2502f0fcU, 0xf002f0f1f2f6fcU, 0x2302fe15b22503U,
  0x70c05f80f011738U, 0x1dce7eada03fa02U, 0xbaf13838d21afeU, 0xb1ce01ffd460db8bU,
  0xe1303ffde800fabfU, 0x22c827bc201a5bdU, 0xf1ee2c00e50dd0U, 0x122800fecb3f09edU,
  0x7144516030025eaU, 0x20b4fa150197dcU, 0xfb01113ccd06b9U, 0x101602fd18d52212U,
  0x180df2031e002b11U, 0xfaf1faf501d4fbU, 0x14208e60f83f606U, 0xc1a401fef539e3d4U,
  0xd80f8b1def01f784U, 0x281f22ac10295d8U, 0xff4d08f3f0ed0d11U, 0xdd900feda5a07e3U,
  0xecfc00050801f7d5U, 0x1d2ef0ce700a5c8U, 0x1a130b0cdcf5dcU, 0xefa02fef80c27f9U,
  0xf60915dc1e001c0fU, 0xecebf5e701da07U, 0xfe22ad95c6f0e05fU, 0xba3d0003f203c8d8U,
  0xe1dc06f9d6001a00U, 0x6b720cc00da93U, 0xfdf1ff02e4fce50bU, 0x4f2ff020a0cf0e9U,
  0xd318172918ff131eU, 0xff03fdf6e5ff06e7U, 0xef0b18e40d02b1U, 0xeeb0004140814ffU,
  0xf32604f129fffad9U, 0xfed616ce1dff2932U, 0xfd2d9b9fa1ffde7fU, 0x9f110003cdf39ac2U,
  0xded01814da001c05U, 0xff12a928b600b782U, 0xfed6f512f001ffe7U, 0xc1e500040e0405faU,
  0xea1afe161fff0804U, 0xddb0bff1e0dU, 0xfff51405e810109eU, 0xe2ec0004ed011e0cU,
  0x114f2e227fffae5U, 0xffd62bde27ff2c31U, 0x1cd9f9d002ec41U, 0xd5f80105dff7d1ddU,
  0xe9ef2811fd030e1fU, 0x22df21fd102d1dbU, 0xd71f1023f81cbcU, 0xd3fe010514f31606U,
  0xfc08e0ef1902fff8U, 0x1f520d522001026U, 0x2191c0cff1207c8U, 0xdb060105e9fc190fU,
  0x5f0e61b0200eeU, 0xd322d806011c1fU, 0xff6a03f6071d33f7U, 0xe00d00fc2707f1f7U,
  0xec5b377f6fff57fU, 0x10006eaf200f8feU, 0xff360106e7233bebU, 0x13e301fc1fd1feedU,
  0x13eda953fcffd276U, 0x1e2cfdcef01f916U, 0xd2fbfcfb1a1cd7U, 0x6db01fe0feaf6f6U,
  0x107d8feecffe21eU, 0xffdcfa01011012U, 0xfe6e01f3f2031c14U, 0xd4eb00fdf4eff9f5U,
  0xe3bdb914f9ffd51eU, 0xa07fa0dffecfaU, 0xfe6d03e2cf0a3505U, 0xe8d300fbc7ae11edU,
  0xf6eba2200400ac34U, 0x1eaf5eb0800d308U, 0xff0bfb01031a20e0U, 0xdfce00fdf3d1fdffU,
  0xfae9da0216ffd30cU, 0xe7f0f71301ee03U, 0x250b05ee0205fdU, 0xc0ed01fdf300fdeaU,
  0xf3e0d3cded00e59aU, 0x1f40c0e21000700U, 0xff310e0dbcfb0d0dU, 0xc0e101fdf6d906e2U,
  0x5f1c7e50300c8d3U, 0x1fae10e1101de09U, 0xff09ff18c20a0e07U, 0xd3e600feefe20d00U,
  0x2faf1e51f00d0ccU, 0x1f5eef71501e710U, 0x20f10204e21a38U, 0x2a19ff01e00af1e8U,
  0xeada2c12deff2134U, 0xff27fb0fec00e3e0U, 0xfdbf12c2de2ff595U, 0xe2b500014eebf1f1U,
  0xee2bcb0513ffeeb3U, 0xfee015d30eff383dU, 0xff15faede0f80242U, 0x22dfdffbb13111dU,
  0x22b013f2e4ffea38U, 0xfeeaf11effffb9e9U, 0x1df313efe8193dU, 0xc19fe00da09f1fdU,
  0xf2de221bf4fe2c2aU, 0xff1cfdfaf7ffe1e1U, 0xfec622b6e630da81U, 0x9f94fe0144fa1708U,
  0x1818d6ef1000de9aU, 0xfed933d428fe3c41U, 0xfe2bf212c0f4eb43U, 0x165ffe009f090918U,
  0x13baf3e8d4ffd337U, 0xfde4ca13e7ffb8deU, 0xe0016faf20106U, 0xe0dfeff081803f5U,
  0xf30b190d02fe1a17U, 0xff0df804f9fe01ffU, 0xfdbe04fcf72204beU, 0xaea2ff0206fb0c0aU,
  0x29f8dee106ffe7a9U, 0xffda1ff634ff11ffU, 0x2deb11fbf3f32eU, 0x2e3efe02c2e3fc03U,
  0xede0f203dbffde42U, 0xfe0dbc09d2ffe4e7U, 0xfeb71e2f2e1b1dc1U, 0xe94fffc05120df9U,
  0xf61eccb413fc0681U, 0xfd06f3c634fe3519U, 0xfbbff33629f4fad0U, 0xeda1fffce7120324U,
  0x807df9918fcf781U, 0xfdf202c044fe2027U, 0xffd1f6140ccedb00U, 0xffecfffdef17e70aU,
  0x3ef0fdb05fef2bbU, 0xfdf7f1d31bfe2808U, 0xfde61bfbebfb2bf7U, 0xf7e6fefd0cea1a0aU,
  0x1314ebdc0afde0ceU, 0xfd2216f31cff2109U, 0xfa0802f1e1ca1e14U, 0xde18fefeffd8031aU,
  0xb16d0f804fed5deU, 0xfedf17062afe180bU, 0xfc13f4ccf4cbe02fU, 0xff39ff001df7ede4U,
  0xe528133ffaffff21U, 0xfde1ec0ef3fe2e09U, 0xfe2e08f1ce06291cU, 0x519fdff04121221U,
  0x23f3e315f7fef021U, 0xfdff24fc1ffef5fdU, 0xfc52f1ccb603324eU, 0x728ffff21faf203U,
  0xfc08ee48edfde93cU, 0xfde4061afafcfc03U, 0xfc31e8c7d3eb0952U, 0x93efe0038f6ecdfU,
  0xd51b375df7fe086eU, 0xfd04ed30d4fe13feU, 0xffe7e2141bf92dfcU, 0xd7dffefffe1cfb11U,
  0x417d30606fe00f6U, 0xfe15100cc5ff05dfU, 0xfee9dd2f11d62cebU, 0xdedffefff628f211U,
  0xf526e00617fe1012U, 0xfe17ee04a5fefd03U, 0xfeeff91f18e408d9U, 0x4e8fffff71500ffU,
  0xf010ebe407fef9eeU, 0xff12fcf8bcfe0920U, 0xffec07e80eb73bebU, 0xed23ff00060b071aU,
  0x1323bffc14ffff1aU, 0xff17140f97ff0bf8U, 0xfef414f71e812fe2U, 0xf8150001f6091905U,
  0xf03dc70820ff1027U, 0xfef7f11884fefb11U, 0xffef1a0619c70dd7U, 0xdf400fffd1018f5U,
  0xe830f4dc1efffff9U, 0xfe20e80bc7ff0f26U, 0xfd0912e1fce53cd5U, 0xf81affff05fb0b15U,
  0xf0dc30903fe1a15U, 0xfe1007d5e1fe0f04U, 0xfd101be509cc28e7U, 0x15ffff08f412feU,
  0xf817c9fb09fd1829U, 0xfdeff5f0c1fd0a14U, 0xfd041801e9e2f8e7U, 0xf2f3fffe040e19e6U,
  0xf229f8eb07fe0c04U, 0xfe18ef01dbff181aU, 0xfe06f981f2c6d0fbU, 0xf925fffdda0df807U,
  0xf5e3f0100cff0202U, 0xf3f7e3f800ff0dU, 0xfef5fc83efc7c3faU, 0x22efefdc1f6090bU,
  0x7cef3050400fa08U, 0xf1f4eefd000c0bU, 0xfee108d3fce4e0ecU, 0x42afefcf5eb0602U,
  0x2f5f807fcff0114U, 0x10002fdf9000505U, 0xfe1e03aefa9fedf1U, 0x504fffdc30e100dU,
  0xf6b700001d00f6dcU, 0x10fdf2700fa0fU, 0xfe130995079ae1e8U, 0xe1400feb7f6131bU,
  0x5a407fd17fff7efU, 0x1fd18df1400071bU, 0xfe0305da0ac9d3ecU, 0x162200fed1ed0805U,
  0xfbd20608f9000005U, 0x1020bfdfc00090dU, 0x20fabde7cf170bU, 0xf9defffdbc2df907U,
  0xf7adf4e21101f2c6U, 0x10208f02f01f209U, 0xff1901aff4d0f9feU, 0x8e0fffdc211030aU,
  0xf89f00ea0801f6e2U, 0x1fa0af812000213U, 0x1affe0fdefec03U, 0xaf7fffdc701f700U,
  0xfbd5ff04f500fe02U, 0x1f700f9fe011308U, 0xff0acd12e1012e15U, 0xef0700febef51156U,
  0x62b236f503ffbcf7U, 0xff273def2401adc5U, 0x200c0d9f1e91647U, 0x828fffee1f1e719U,
  0x3b827011a00fb0aU, 0x1d1f100701f2a7U, 0x2f0e8e402ead6f0U, 0x220ffff24fce5d6U,
  0xbd0c11021aff0007U, 0x107d7f612012724U, 0xfe14b10aeafb44e6U, 0xded800fe8d14fb7dU,
  0x7fa0faf6edffd104U, 0xff026502f201b595U, 0xfff18dfcfa301a09U, 0xffebfffed62d891bU,
  0x1eef0df08002004U, 0x521d2f90017b3U, 0xf8ec111a08cce4U, 0x1002fefe2c14a3bfU,
  0xa138f8f32ffe1710U, 0xffecbbe5ffff5431U, 0xff10f603fb0b30f5U, 0xd6e4feffd7e40f43U,
  0x48dfb91601ffe613U, 0xffeb3415da00e7d5U, 0xff0bd003d33d11feU, 0xf6cbfffef0ecc119U,
  0xf50ec5f31cff290dU, 0xd8fbcad7ff2801U, 0xff1010fbdc0cdefeU, 0x11fefffe10fae9e0U,
  0xd73a0bff0fff1f10U, 0xd5d900f3ff472dU, 0x2e404d80ed121e9U, 0x1a24fefd209801fbU,
  0xfd241c470cffff3bU, 0xff2b020ce1fff50cU, 0xff1002e0f104ecf7U, 0x28dffe0111fe08faU,
  0x5d3fbfe09fd0410U, 0xff00fce5e7fe0d1aU, 0x22b0afbfc1ec00eU, 0x18fefeffe4320409U,
  0xfdc305c00cff2201U, 0xffc81bf5df00fbffU, 0x1cdf9e6fed02ffaU, 0x317fffe35a8fa02U,
  0xa2e02440eff171fU, 0xff17e1fb0700f703U, 0xfe0bf710ee11fbf3U, 0x1cb8fffee8260e1bU,
  0x10b50fe104fefcfbU, 0xff0808f312fdedfeU, 0x690649f6219b08U, 0x1bc0fffe9f5c0a03U,
  0xf2a8f8810eff0bc1U, 0xe816f8eaff040fU, 0xffdcfbe105f913ffU, 0xe14000039c2f4f2U,
  0xef2ef13410fe1141U, 0xff0cdcfb08ff0b06U, 0xffe702f917ed1808U, 0x4dcff03f204fd10U,
  0x7e1fa010cffed0aU, 0xfe0ff5f91ffdf005U, 0x124121c16f8f507U, 0x4f90003c20d0800U,
  0xfde3f5dc0e00fbddU, 0xb05eaed01fe12U, 0xfff6f6e605060c00U, 0xf426ffffecbaf90bU,
  0x19d9e3f6f700fe27U, 0xf6fbf2f8ff09f4U, 0xff0b00ea03f900fcU, 0x40e00fff2bdfe09U,
  0x1be4ea07f3000223U, 0xffe8fbec01000ff2U, 0xff090906070e1805U, 0x4d100ff1a04fefeU,
  0x1308ff15f800f503U, 0xeff070b0006ffU, 0xffd50beef4fb08f2U, 0xee320000daaf0d07U,
  0x15e2ddeefa00f127U, 0x2fb030400f6f8U, 0xfff705e0f8e7f2ecU, 0xf7390000cd810808U,
  0x1ac3d0e1ee00fb2dU, 0xf6fcfc0500f1faU, 0xff020cf7010707f4U, 0x11100fff2b70701U,
  0x10e5e6f8f2fffd15U, 0xaf80ef600f800U, 0x1d8fc07000bfdeaU, 0x2300000804fe08U,
  0x117f4130700f62aU, 0xbfbf80400fb02U, 0x1e3fafcf4f1fcecU, 0xfb2eff00efcdfc04U,
  0x3f3e1e9fa00f82aU, 0x1f8f8f1fe00f3ffU, 0xf9fcfffd0500f2U, 0xfe170000fcb7fd04U,
  0x9f7e3f3f500012dU, 0x1fbeffce901f7feU, 0x20fd1d03d313ddU, 0xed8101030d0a0f16U,
  0x17ebf00d0301efdfU, 0xff0503ee1a02f4faU, 0x260141db37de22U, 0xfded0101fc640107U,
  0x9fb24d60402e101U, 0x215f9f41d0202faU, 0x1befb00dafbfc18U, 0x3680100f5f504ffU,
  0xfa14151cfb021543U, 0x102fc020901f8ffU, 0x1e9fb9f1ac8f6f1U, 0xfd040002fbb4fd0aU,
  0xcfbe3101000ff0aU, 0xd3070ce701f7edU, 0x2d021b10f511f4U, 0xfe8d0100ee1b040cU,
  0x800fbee0400cfc1U, 0xd03f00a01f8fdU, 0x8f62bec0af50dU, 0xf7f101fff033fd08U,
  0xff07ecfbfffce4U, 0x10f0cf9ff00ecf6U, 0x1e8edceefe1dc0cU, 0xf780104e4d2f6f0U,
  0xf408f80613011431U, 0x1f20b0be7010d01U, 0x400b31faa08e9U, 0x9ee020209a8f5faU,
  0x200d9020f01ee12U, 0xe106f8e4010e03U, 0x2d08e9190210f3U, 0xca020201f904ffU,
  0xd05ef010300eee4U, 0x1f810feec02f5fdU, 0xfec7f00617d9e206U, 0xfb09fffee9d2fd0aU,
  0xfcdeec8a0ffef5d9U, 0xfff206ebf4fe0506U, 0xff2702020b0af9f9U, 0xfa22ffff010c040dU,
  0x2f20018ffff02f7U, 0xfff2f6ff0ffff703U, 0xfe2f0310f7fc0107U, 0xefe7fffc122dfaf8U,
  0xf6f1fd4df8fe0a2eU, 0xff0fe6071300fcfaU, 0xff9b00e90fe7eaf9U, 0xb24ffffce8602f7U,
  0xfbbaf68106fefc0bU, 0xf80a01d0ff0410U, 0xfe240bfe0706e7fbU, 0x108ff00ee0501fbU,
  0x11010f9fffcf2U, 0xfcfef302fff907U, 0xff43fcf902060f0eU, 0xefd6fffc3a3eeff7U,
  0xfeecf768f0fff610U, 0xff05e70125ff07fbU, 0xfdaf07fcfcf2f1f0U, 0x91800ffbabefefeU,
  0xf4cdf4aa0bfef909U, 0xfa01fff1ffff0bU, 0xfd2212071106f6f2U, 0x6ee0000d70e0c00U,
  0x80d0503f9fef7ebU, 0xfffafced06fefc05U, 0xfe38f6f20e181007U, 0xf0d7fffd2c2cf4f7U,
  0x4f4f94feefefb17U, 0xff05ee0115ff04f1U, 0x19e41af34acde7U, 0x35fc00ff043cf310U,
  0x1ac8d297c500d03fU, 0xfff119e7df0035feU, 0xfe101717dc02e2fbU, 0x3c39ff003efacddcU,
  0xeb16e7feda00bb60U, 0xff31cdf3b0ff1209U, 0xfff6f50cc6e42af5U, 0xb1400fc2dd0f2e2U,
  0xf524010e1001030eU, 0x132cedfc601eeffU, 0xfd25052b0361f2e4U, 0x26b4fefef430311eU,
  0x12c294810800910bU, 0xffc805404dfe0914U, 0xfc1bf526051e0704U, 0x2df7fefe1b0def25U,
  0xbf895e10dff9f42U, 0xfe102f2b15fee319U, 0xfdefe900ea05330fU, 0xf9dbfffc37d7df35U,
  0x2405c7f004000f04U, 0x3f27f50500b8e1U, 0xfecd2afb32020707U, 0xfbc6feff0fd116d4U,
  0xe6edc9e52bfd8c0dU, 0xffc6f1542ffee317U, 0xfc0311f264071b01U, 0xf8ddfefd11dc1b4aU,
  0x3de5d21013fea810U, 0xff0c39380bfda6f3U, 0xfff403ff292210f5U, 0xadcfefb11fe1d64U,
  0x4ae3bcd418fffee4U, 0xfe34600b0900a4e9U, 0xfdcf344a3117f9b3U, 0x35b301010a093801U,
  0x91f07fbde00fb00U, 0x163031c4d02f116U, 0xe04b4b492bfee8U, 0x6d80000024103d8U,
  0x32d36febf014309U, 0x148f3335602f209U, 0xb3a2123abe3e1U, 0xfb2d0001faf415d6U,
  0xf00e5e0ce7021b26U, 0x14af854cd03f91aU, 0xfdf5f4fdf52f110fU, 0xe3e200030425ff00U,
  0x8fef3eb93000cf8U, 0x2f105bd7010de8U, 0xfffad9f2fa44fe16U, 0xe4fa0102134cc6c3U,
  0xcb3b0cff810037efU, 0x2ecd54bdd0032ddU, 0x22ff1008c3e7ebU, 0x242100010a11ffe7U,
  0xcc2ffb01df022300U, 0x1f0dc2ebc013c16U, 0xff0fbabbc814ee3fU, 0xf926000208cbd7f4U,
  0xfbece6efd700ff1aU, 0x100f3f5b20209cbU, 0x6ac84c21bf93cU, 0x82800031ac8bfebU,
  0xd012f81ccf022519U, 0x1b6e1b8e00239c8U, 0x20e9cd0dc7f1fcU, 0x1f28010313c20a16U,
  0xeb291408f501ff0dU, 0x3d9ffe7dd0134fbU, 0x31fbdae20c1205U, 0xfb0701001892fbf7U,
  0xeb00fd0704011126U, 0xcdd0eeda01e8f3U, 0xfcfaf3ed4160f1U, 0xf7b600fff69e08cdU,
  0xcff421d00502e7f3U, 0x12ac9fe1f01cbf0U, 0xfe1500f7f73f3ff6U, 0xdfd500ff09ccf9daU,
  0xd315fbda0402e3eaU, 0x12fdbea3a01e7f0U, 0xb517402b020ebdU, 0x5d4020310d821feU,
  0xdd43f3fb3701ee00U, 0x1e7e0abf702e119U, 0xb71768375662d8U, 0xf8d901fefa141bdcU,
  0xe7631cfa06010ca7U, 0x15c7f33d02cf03U, 0xff230334133d37f3U, 0xf6e401000c46fe01U,
  0xf727140df60210c8U, 0x20f5ed3402e1faU, 0xfefd0efe28dae8f1U, 0xd318010102e509dcU,
  0xe813030b1800cc31U, 0x103e9158c01da0eU, 0x39fe0428f4cb02U, 0xd12201fdfa3315d6U,
  0xf5210838e300ef03U, 0x10cd74a8101eb08U, 0xff58f8ff060deae0U, 0xfb0f01fefa5314e6U,
  0x518282ed4001b04U, 0x104f018a101f0e3U, 0x30adbe0de40381aU, 0xd10efffed21bec29U,
  0x3cf301fde3000a0bU, 0xce0cbe37ffffdaU, 0x103f4dcebb5e029U, 0xefe800fcebf4fef4U,
  0xfad72e43c200f440U, 0x3b0449c6ffc9d1U, 0xfff70ef40b0ee8dcU, 0xc00fd31f6f4dcU,
  0xef10ee06f3000fddU, 0xe130507ff0a0cU, 0x3060814d15a0bd1U, 0xf8e7000289341736U,
  0x2d01bc8712ffe4a9U, 0xb5148c41fe2017U, 0x1fc00ebf693093aU, 0xc270000b0e40906U,
  0xfdc6334ac4fff040U, 0xff221343baffb6eaU, 0xfeef00e4ef0bdd07U, 0xf80301002509f4d0U,
  0xf0070d10e8ff18feU, 0x2af213f5ff00f9U, 0x3fe2318f1350baeU, 0xf8c00102b7f11a18U,
  0x1903c5811201e191U, 0xffd10aae1c012226U, 0x215160e14ca0c06U, 0x243b0001cad7210eU,
  0x2ec0133e702fd3dU, 0xfff10c0ddb00e60bU, 0xf7edf7ed09de2bU, 0x5ed01001812fce6U,
  0xf5091c19f0010e24U, 0x15ee250100f0f7U, 0xff0a01fe11faf1efU, 0xb00fffe20fa04fbU,
  0xf72315130bff0204U, 0xf6f7f70bff0c06U, 0xfff9e9cef400fa0fU, 0xe9f9fffefffdf802U,
  0xfcfc15faffff0202U, 0xfff1fff112fff6e6U, 0x1f7eecadf010111U, 0xe8040000f10a0502U,
  0xef713f4fe00faeeU, 0xfff9f10b00f1eaU, 0xff00fed603e5f7f9U, 0xf101ffff1701f1e7U,
  0xe9170e000dff0014U, 0xff06f203f7ff0301U, 0xfef5db81e0f80a00U, 0xcdf9fffef902eaebU,
  0xf104fdef0dfe010cU, 0xfefcf6f4f8fef7e0U, 0xfaee9ce90e0e07U, 0xe4fdfffff8fa0004U,
  0xe02f7effafffef4U, 0xff00fbeef7fff6f1U, 0x1fe06ccece50008U, 0xecfeff000cfc01ebU,
  0xec1104ff1200f215U, 0xfb0304f800f504U, 0x1f405c4f1fe10ffU, 0x4ffff11f6fdf7U,
  0xf715e7f31d000615U, 0xffed13d80400020cU, 0x10912051a1a19f0U, 0xef5ffff06eb0d1eU,
  0x170af5000e010305U, 0x1ec21e00701fb0dU, 0xff760aeff505ee03U, 0xf70d0003fd310604U,
  0xee030148fd00fd4cU, 0xbf312f401f902U, 0x7f05f0ed09fa04U, 0xfc05ff03f64601feU,
  0xfcfd0e66f9fefb61U, 0xfe12f909eefffa03U, 0x3e03faee0cf5fbU, 0x6ffff02fd3004ffU,
  0xff010e45f7fffe49U, 0xfe0efc06f700fef9U, 0x1effe06fcfdfafeU, 0xf9f6ff0300fff802U,
  0xfffff2fefe00fff2U, 0xfc00080c000400U, 0xeb0008f201fd03U, 0xeef2fe000208fe05U,
  0x9fcf8fffcfee8f1U, 0xfffe0a0f18ff0cfcU, 0x1ed0605fd02eef2U, 0xf4fa0001060203ffU,
  0x1f7fb06fe01eef1U, 0xfcf8130c011506U, 0xffb4fc03faf519fcU, 0xfffcff01f6c306feU,
  0xc07efbdffff01b0U, 0xfff40bf60e001201U, 0x1aafc0108f81907U, 0xf900fefff6a20005U,
  0xdf8db92fbfff1a3U, 0xfffe08fb120012fdU, 0x1eb00fd04ee0300U, 0xf90dfe00fcbaf606U,
  0xfcf2e1b9fbfff9c6U, 0xeaff0204010e04U, 0xf209ddd70cfef6U, 0xe8ff0100ff1907fcU,
  0xed06edf81d001001U, 0x1e8ede5f901f80cU, 0xfe07cfc6fd0502U, 0xe6080000ee051d10U,
  0xf2fcfcfa1a00f305U, 0xeee7ece901e902U, 0xf6ebbe1203f9U, 0xe9fe010105030808U,
  0xf301ee070a010703U, 0x1f7f0ecf401feffU, 0xf705cece00f327U, 0x81f70101fd0bf7e2U,
  0xede405f2070105f1U, 0x1f0bb0bf900e6eeU, 0x1ffaf8807f336U, 0x96fa0100f00220f4U,
  0xf2f314f61700e7f4U, 0xb80de601daf1U, 0x3ff04ae1901f1U, 0xeaee000106fe0c0aU,
  0xf111f1fe100103faU, 0x1f8eff5ff011202U, 0xbfae300040eU, 0x9c05010008f702efU,
  0xfaec010d0f01f3f9U, 0x1e4e11c1e01def9U, 0x1070303bc07fe19U, 0xbe020000fdf511f8U,
  0xfafd190f0b01f100U, 0x1f4e811fd0105f8U, 0x1fe0309fc0804eaU, 0xe6f5010001f30303U,
  0xfa09ff1003010405U, 0x1f7f6f60e011705U, 0x1390200f4fb08feU, 0xf7ccfffedf3ffc00U,
  0xf3e1efe50700f1f2U, 0x1fdfad42f01130dU, 0x22e0d09041ec9e2U, 0x13d4ff00af5a0918U,
  0x1ac3e99a0d00f5edU, 0x1e412de2dff230fU, 0x21907fb0f0de2f1U, 0xf0e0000e4150113U,
  0x1409f4d30600ec1eU, 0x2ee14f3160102fdU, 0x1fdf9f50711fa02U, 0x2a100fef914f907U,
  0x1e80adaef00ede3U, 0x109edc519ff0df8U, 0x5141323c7e6U, 0x1c9c00ff812ef4fbU,
  0xf0cce2860c02ccdaU, 0x114fac415ff2c0eU, 0x10d0909151febd5U, 0x500ffffb8faeff6U,
  0x505e0c90301dfedU, 0x2e910f60800180bU, 0x917f908ff11U, 0x19da0001050dff00U,
  0xfaf703f901fd1eU, 0x118e9f109000705U, 0xf00113ff02ef03U, 0xce30001c1ec06f7U,
  0xeafce41e0c01e231U, 0x113edf4f9ff2911U, 0x1150706151a02daU, 0xeefbff01d3e0fc05U,
  0x1a02e1250202f319U, 0x1ec0df9f40020ffU, 0xff0611fe00000005U, 0x105ffff010106efU,
  0xff050903c6000305U, 0xff0104fb0300fe00U, 0xff002003fefa0200U, 0x502ffff03fe04dcU,
  0xfe010afdb1fffd04U, 0x105fdfb00fc01U, 0xff031900fd010304U, 0xfdfaffff0302fce7U,
  0xff0105fad3000005U, 0xfb06fc0600fe00U, 0xff0508040103feffU, 0x80200fffcff00e8U,
  0x3fe0505a2ff0101U, 0x104f60100fbffU, 0xff00130403fb05fbU, 0xafffffff8fd0ed2U,
  0x6f6030281ffff02U, 0xffff0cf1f900f704U, 0xff020f05fd0403feU, 0x2f80000fe010bddU,
  0x5fdfffec3000202U, 0xfffe09fdfb00f7feU, 0xfffaf704040200fcU, 0xfc00ff01fff6f6U,
  0x404fe04c80000faU, 0x405fafc0001feU, 0xfffaf707ffff02fcU, 0x8f9fffffbfe08e5U,
  0x6fc0001b9ff03f8U, 0x603f8fa00fafeU, 0xfffff505fa070003U, 0xaf9fffffd0008ecU,
  0x2faf9ffe0fffcfaU, 0x70302fc00f7fdU, 0xffeadbfefe03e807U, 0xedfcfffd0ffedc0cU,
  0xbfef7100b0002e7U, 0x10012d8f30109eeU, 0x2bda2a1f3357aeU, 0xebbc00ffd9e9125dU,
  0x60edb90d1b010007U, 0xbf75e62201cbd4U, 0x24e8fe05031906U, 0xfff200fee314e518U,
  0x9f817eff701db2aU, 0xffedfc29ef00fcefU, 0xe9e8e4f7db823eU, 0x2a1a00003b12b6adU,
  0xa40c18f71b00e8eeU, 0x238900ed013d1dU, 0xf6e008e00210e4U, 0x5060000e8daec1bU,
  0x2deb25122f011af1U, 0x3821d10300d5d3U, 0x11de51c233254d0U, 0xfce600ffccd82a64U,
  0x46f3da0619ffde08U, 0xce5ff40401d2d4U, 0xff0b03f40c0abc0dU, 0xc0000ff1e22e6c4U,
  0xbe0ee9001300edeeU, 0xf5c01721002d2cU, 0xddede3d0d49d2dU, 0x1d3200feff28b2c5U,
  0xb9ed5fd71700f8ffU, 0x7481f3c2010a0dU, 0x1ef171ded0317d4U, 0x1c0800fde2eb1d2eU,
  0x1406fbf92700fb03U, 0x10f22eae601d1e3U, 0x34f7130527dfd0U, 0x2ff801012c06e2d8U,
  0xbc24e71338011600U, 0x1e5cdc9ee013f42U, 0x104fe2c291be9dbU, 0x5ad5000028eee4e8U,
  0xd33d091d1a0111e0U, 0x1c9d89d1a014738U, 0x1efc80d20ec0635U, 0xf0f20001d2f3da13U,
  0x19e3200f0500faf8U, 0x21efafbf800d9d5U, 0x171c2f1b22c9adU, 0x4fe5ff0121f9f5aeU,
  0xa1481c0d35ff20e6U, 0xdeeab314ff524aU, 0xe3a6db05becb20U, 0x8e1900fed5efd2f8U,
  0xf0e94eef0200fbfeU, 0x470afbc600f1eaU, 0xfff8c4c1cffbfe1fU, 0xcd1bfefff9f0fc30U,
  0x21ccf1000a01f2f4U, 0x15d2036ec00b4c7U, 0x1fb10042b01e9f3U, 0xb9f70100e5fe05eeU,
  0xeaf13af30000f307U, 0xb13020900f311U, 0x1e4d9cdd1f3060eU, 0x810f01fed122ee29U,
  0x1fa3f9d70901da0aU, 0x1541d2fe201b2c5U, 0x101f1f4cb150de7U, 0xeb0601ff17fdf222U,
  0x1ef4bdf701010d0dU, 0x213ff251400e7e0U, 0xff08dadfdf0e0229U, 0xe1e401fffc1ed0fbU,
  0xfbf3eff0e6000ef3U, 0xeffcf1050011c4U, 0x2e5e0ed2b0319U, 0xd4e601ff0411e8ebU,
  0xe418dcfcf40002efU, 0xf3f3e400011ee9U, 0x141314030afae3U, 0xf8f00100171a00efU,
  0xe010fe0906021efdU, 0xfef9051b021a1cU, 0xfdffc78da319103cU, 0x87ea00fffe11afefU,
  0xe3e0d0e0e7fe07e5U, 0xffe9b7d709fe02b1U, 0xfee5c8818f260128U, 0x8c0100ff0cf8dddcU,
  0xdcf5e1f4ddffffeeU, 0xffdfb0def3ff13bbU, 0xfefcfaf9ef10f8f0U, 0xeef700ff12f907eaU,
  0xec140600f7ff1b01U, 0xff12e7fa04001811U, 0xfef71c03fa140aebU, 0xc21300fd01fe0a10U,
  0xd09d10f23fffbe1U, 0xffe9e9b33300fdf6U, 0xfff30afced1906efU, 0xcb2600fd06f0230fU,
  0x5ffe619f6ffeff6U, 0xe6cfc3170005feU, 0xff0f171319faf6f0U, 0x81900ff0c0126fdU,
  0x40d0e1dfc001208U, 0x10ff1fb0401111dU, 0xffb1050aee0603f8U, 0xfebf000200070605U,
  0x50403df0d01ebd0U, 0xfffcecf53100fb0fU, 0xfdddff08fc0dfb00U, 0xf3000000f40c080eU,
  0x614f9ca0ffff300U, 0xffecfdef1f020209U, 0x371faeb0ecf151aU, 0xfe6700fee10900ffU,
  0xf3d4fd54f6021455U, 0x106ff14b803f8feU, 0xb80715e90c05f2U, 0xf9a90100160a0505U,
  0x106fdd40b00f2cbU, 0xfefbf6fe3efff606U, 0xfde1fe0ff307ef04U, 0xe1fb000004fafa04U,
  0xf616f8bc10fef102U, 0xfffaedf812000506U, 0x17bf1f713d40b1bU, 0xf87f00fde6fff8fbU,
  0xe8b30154f5021957U, 0x90805ce03fffeU, 0xbffc07f30b1803U, 0xfabf03040d0e01ffU,
  0x40901dc1001efc0U, 0xfffcf7002402f804U, 0xffcdf802ef0a0802U, 0xedf2010208f8fd02U,
  0xf607f9d7090004dfU, 0xfaedf709000603U, 0x67fe050ce4071bU, 0xf45100ff0405fc08U,
  0xe8d2032ff6001641U, 0x1f8f8dc010001U, 0xfd1c3b2109ee10b7U, 0xe1efdffeed54036U,
  0x26e8eb0234ffe6efU, 0xfe0734f1dfff0330U, 0xfc2d5b36f3fc2ab7U, 0x1d2dfd0003dd6a28U,
  0x100eddea3afed4e8U, 0xfef635f8dbffff50U, 0xfe012e1cf5e30a03U, 0x111eff000fe13df2U,
  0xec1e01f01900def9U, 0xfe1dfc19f8ff1934U, 0xfe384e1c0b0229b3U, 0xdbe7fefed1f3413fU,
  0x32d9e3052dffeab8U, 0xfee735c120ff0628U, 0xfd48695afb2141afU, 0xeaf6feffe0f37f2dU,
  0x1625c3e93effd2a4U, 0xffd72fa732ff0649U, 0xfd1b362ce00811e8U, 0xf2e4feff11f133f5U,
  0xf728e4e524ffe4c4U, 0xfe0600cf31000f36U, 0xfd2705f3edf51e0bU, 0xc3dcfdfdd4faf5f6U,
  0xfeede20fefef3e2U, 0xfeeafacf0a00f8faU, 0xfd2a0f08d40b1904U, 0xb8e2fd00c2f01e00U,
  0x70de4210afed5d5U, 0xfdf1f2b621fff607U, 0xfefc0d0bde190febU, 0xe6c9ff02eae515ebU,
  0xf612fb0a07fedbd7U, 0xfff902d524000b13U, 0x10d0c020705def5U, 0x1e0900fe18f7ff07U,
  0xf01b110a1f0103fdU, 0x26ddb914011528U, 0x104f507f7fefaf7U, 0xeef801fdf2f0151bU,
  0x12fc43101c0106f3U, 0x14f089b1701f307U, 0x100f90dfbf825f0U, 0xeceb00fdecf11d1cU,
  0x17ea0a0b1201fbfdU, 0x12f11d10c01e5fbU, 0x1ff1a0009dedcf2U, 0xe71101fffa0e0c00U,
  0xffef42f90d02070dU, 0x13ef3d1de020b11U, 0x1f61c00f5c3eff0U, 0xe90c01feec092b04U,
  0x5ec60e71602defaU, 0x27fecb8c901fd18U, 0x1f2120dfaf211eeU, 0x40001fff4f923ffU,
  0xff060cf7160100feU, 0x146f7d5e201f002U, 0x1fc08071bfb02ebU, 0xd20901fef6110109U,
  0x13f9f70dff010215U, 0x13617e2e802fefcU, 0x1fa190913e70aedU, 0xb0700fd06011100U,
  0x30b01f20d01e6fcU, 0x147f0d5da010620U, 0x109fbfa0c000bU, 0x170300fdfffd01f5U,
  0xf30ed900100202fbU, 0x12ee3eaed02090eU, 0xffb9fede001bf303U, 0xe202fefe22e8f005U,
  0x1816020af6fff825U, 0xfffceb0108ff240bU, 0xffed03000a21edf8U, 0xeef500ff1ae8fe15U,
  0x1d08ffeafffffe10U, 0xfe00dde908ff3802U, 0x290832031ee9eeU, 0xf304fffef2042027U,
  0x2bf0edfc05ff1019U, 0xfef30bf010ff03f3U, 0xfe81f8fcf34304dfU, 0x111ffff1cb9f813U,
  0x27fdd7dbf9fe1927U, 0xfef4fafd0aff250bU, 0xfebb12dff74befe5U, 0xbf6ffff0caefc27U,
  0x2ce2e1a0fefe0b02U, 0xfe24dce30aff2b06U, 0xff19090afb1fe5e4U, 0xfcf7fffeebe9060cU,
  0xaf3c8d91aff0e0eU, 0xff0df7ec0bfffa02U, 0xfea90e0cf7250cceU, 0x1cff00f8cd0b19U,
  0x7e1c9eb07fe1449U, 0xfeefe10c0bfff304U, 0xfee314f2da2de9e1U, 0x1601fefee9d30a09U,
  0xf6d2d9da08ff0330U, 0xfe0bccf200fef70aU, 0xfe0a0befe309f502U, 0x13f7fefdf3e8f7e8U,
  0xe6f9c20222ff0926U, 0xffffd302fd00fd05U, 0x8f1f0e41c1404U, 0xefda00020f06f107U,
  0x2e3f2f1000d0bU, 0xffc30aae17ff09e4U, 0xff0be4e3dc3415faU, 0xe8dd00031007dc00U,
  0x815dd08e3001c18U, 0x810f8b0b0015e1U, 0x5ecf0f3170702U, 0xf7fa01030009edf8U,
  0xfb01ed0d0000ff24U, 0xa903d5fdff0cfbU, 0xf71305faf600faU, 0xf7f20001f50718e0U,
  0x4f713f8cc001905U, 0x280b38fa00f7f8U, 0xf01e04edfd03f4U, 0xeffb0002f90219e0U,
  0x4fe25fbcd003ffeU, 0xff101142d3000803U, 0xfffb0900e5fcf7ffU, 0xfd0d0002f5fe0aecU,
  0xf9fe1af8f8001afbU, 0x110a24ebff0108U, 0x2141005e8fef0U, 0xfe0a00000bfa18ebU,
  0x10fbe80004faU, 0x170f4ad900f80dU, 0x10b210cf4d1ececU, 0x10170002edeb31e2U,
  0xf9fa26f8e0ff2cf1U, 0x250d56c1ff0612U, 0x10b1b0efde8efedU, 0x150eff02e1f61ff0U,
  0xf8ff10fe01001bf6U, 0x220a2bdefffe12U, 0x1621e9c16a3e8e9U, 0x56f0100ece3360cU,
  0x17cccc2b0801e3fcU, 0x2021f04af01e61eU, 0x32339841acede9U, 0xff7f010017b730feU,
  0xbdaa4370601ef37U, 0x2d70910a001f329U, 0x2d42cb549d6e3f9U, 0xf760010242a919eeU,
  0xe80ae230f902f14aU, 0x213e413b2020722U, 0x31d7d1d20d2748U, 0xf900ff05ede6feU,
  0xdee2df05f8ffe80bU, 0x1eb08ef2600caeaU, 0xecd6bec8351b43U, 0xf2d20000e9a6e2e3U,
  0xc7dae7e4f800e73eU, 0xfff00ccf2b00d2f2U, 0x1c1ebc8d70be60eU, 0xdee501003ad2dcdcU,
  0xe1e7fedcef00d93aU, 0x25f2fd1a010df7U, 0x3f6fc25f223fa0bU, 0x138c00ff345efbf2U,
  0xfd0a30fa0501f5d9U, 0x2f8f4105e010910U, 0x2e40d3aff42ede1U, 0x369c01001553f90bU,
  0x13e30fdefe01f2c4U, 0x11219146e021215U, 0x221041d022ee2f3U, 0x14c601010a52f415U,
  0x21d20eecef0102bfU, 0x20b22fe3d03fcf6U, 0xfffb0c1402dbfae9U, 0x8e80000ecf41204U,
  0x11f8230002ffb711U, 0xff0d0d0fd700f909U, 0xfafcf8fb1f0b12U, 0xfeec00ff00fef2feU,
  0xfa18ddfcfbff16fbU, 0xfff6f4ed080010f5U, 0xfff3f0f60317fe07U, 0xfffe0001080fedfaU,
  0xf10ff506ff000a02U, 0xffebedf6210106fcU, 0x61518fcc3f6e4U, 0xcf90000ea001a04U,
  0x11ec36f4ff00810fU, 0xff140d14d100ea06U, 0x5fafaef1a1e0aU, 0xfa0200fff0f6000dU,
  0xc08d800f80013fbU, 0x210f3f9ff05eaU, 0xfff8ede8f61e0309U, 0xf80cffff0bfee9ffU,
  0xf516e705fc001bf9U, 0xe0f5ef250010f3U, 0x11150f19d2faebU, 0x4000001f4101300U,
  0xee433edff00b7fdU, 0xff1e100ee000e700U, 0xefe0506031400U, 0xf60dfffee7fe0e11U,
  0x16f0e901f800fefaU, 0xa2004e300fae5U, 0xfde8ebf70b040fU, 0xea0700fe05f4ebfbU,
  0x204f207f7001100U, 0xe400fb0e0005f0U, 0xdbd52705f141f2U, 0x100001012414dafeU,
  0xec1110260902db2dU, 0x1f006fced0203f5U, 0xfff6da62ef191ad2U, 0xf3d001021b64d214U,
  0xd20247f0002dd2dU, 0x2f912fafd02fbffU, 0xf6e937db0615fdU, 0xf1c40003e32cfa21U,
  0x10111f1a0502f6f0U, 0x1f5170ae602f4ebU, 0x1c3df0efbf65fd5U, 0x131901002b01d5f5U,
  0xd32c09200b01f606U, 0x1e026f0d6021e0eU, 0xe8f532ebf62ec7U, 0xbed00021147e918U,
  0xf44433571b01f310U, 0x1f534ecdf010313U, 0xff090028faed1d06U, 0xeee0100f322102cU,
  0xf2311320800f4f6U, 0x1052ffccf01d3efU, 0x1aaf1efcefe63f3U, 0xfa0e01021bc5eeecU,
  0xd629d8f2040124f4U, 0x2e42cfdb002170aU, 0xde0decd6f43fc5U, 0xefa01030df30ef4U,
  0xe42d01160901f7e1U, 0x1df3202d7010b14U, 0xfe00f9f5f322fdU, 0xee90001f0fc0d15U,
  0xfb1f130f0802fed9U, 0x1f62216c102f4f4U, 0xfcd9f7c8eff3f5U, 0x120e000100ffe2ecU,
  0x413e20900000d06U, 0xf8afffca001ae1U, 0xf001fa960d0701U, 0x1f080100f3fdf510U,
  0x1ef602f80f00f8fdU, 0xfff9baf61b00ef04U, 0xfa0813ca140b1dU, 0x33e700fff6f0241bU,
  0x13f0f0091700e9fcU, 0xfffeedf82200dffeU, 0xffc0e4acfdf6f5U, 0x33ff00fffd10c902U,
  0x516baf501ff0c0eU, 0x199ed7cb011ddaU, 0xfb10f38b06f607U, 0x4312fffef503e917U,
  0x140205ed1eff07fdU, 0xfffe81fb04ffe015U, 0x21c19bd0b0013U, 0x70fbfffdf6e73113U,
  0x7f40f0f2300e9f2U, 0xd9d30f1c00d010U, 0x6d2f0c9f3ec06U, 0x44f000fff616e105U,
  0xfc0bd4f6fd010717U, 0x3ac0ddd301f2e2U, 0xf90ffe9f03ec0dU, 0x3d04fffdfc0ae60dU,
  0x909fde5130001fbU, 0xfffbaff8f400e81bU, 0x10e180dcb0e001cU, 0x6cf600fef8ee1a09U,
  0x802f20b1200f6edU, 0xd2d6170200ee21U, 0xfcf50febc8f7fb0bU, 0xe0f6fefff5e50eeeU,
  0xf2dee8d805fedd04U, 0xff34f1f7e0fef8feU, 0xfc2817d38102f923U, 0xb339fdfffa0920e0U,
  0xcbd3f8fe08fe0e22U, 0xfe16f419c4feeb07U, 0xfc0cfacab3f30308U, 0xcb39fefe07f521e5U,
  0xcbf2042207ff0627U, 0xff16d41bc8000013U, 0xfce31c09bdeeca05U, 0xe2daff000bee0fe6U,
  0xede30bcb19fecfeaU, 0xff320bebe9ffe210U, 0xfe1c22279916cc08U, 0xbf10ff01fe1229d2U,
  0xcfce10e935fee9f8U, 0xfe0e30dde7fef728U, 0xfd1501f9bbfe0ae9U, 0xc134ff00180c2cf9U,
  0xf6edfa0e25fffc02U, 0xfef50cfae3000e13U, 0xfbcbf708eaf0f60bU, 0xd2c4feffe7f0fbe0U,
  0xf9e1f9bdf4fdcbccU, 0xfe2403f7e2ffd8f7U, 0xfb070302e2f1e417U, 0xc6e3fefeebfcfee0U,
  0xdfc712cf25fbdaceU, 0xfb1c0ff0ccfce303U, 0xfd121601ee100bd9U, 0xd208ffff0efa1f04U,
  0xf4f7d4fe25fefad9U, 0xfef913f2cbff0f11U, 0x1de1201c92a06fcU, 0x40000011ee803f1U,
  0xd20718e40702f51fU, 0xd281d3301f219U, 0xe102fac32807e2U, 0xdc030000fdd20efeU,
  0xedfc19e10c01f521U, 0xe931211e00e7f1U, 0x109efe9d0ed1eedU, 0xd90f0000fdebfd0aU,
  0xf501fe0d02010333U, 0xd31d181800f2e7U, 0x2f41711ef16d60cU, 0x15f80200d01700f3U,
  0xd6f57fd80a03fbd7U, 0x10f190d33013025U, 0x2f9171fe907cdf2U, 0xe50d0100ac1f2913U,
  0xf3ee75d216020ff1U, 0xda43152200fdeeU, 0x116fb18deed05fdU, 0xc0160100dc0a1522U,
  0x51713ff020619U, 0x1dc38f52101e8deU, 0x113e10ff9f6d310U, 0xf10101d32fedf9U,
  0xe9093911ed031fd4U, 0x10ff1cbea0127f8U, 0x213e51211f0cbd5U, 0xc70f01ffc136ff0dU,
  0xfc053d0dff031ad5U, 0x1e118f3e40114e8U, 0x10ff81410eefcd8U, 0xcb2401ffd80a0d06U,
  0xf4251df0010300U, 0xd819deef01feeeU, 0xc9310dedb7f503daU, 0xe8d0fcfbcf1c44beU,
  0xd0461118dfcc1e26U, 0xcec30d20edf7d517U, 0xdf46ea049bdef3cdU, 0xeee0ffefbf26399aU,
  0xef3d061cc0d5f5fbU, 0xbec8fd17f8cecf0aU, 0xec50e001b1effac3U, 0xe1d805f4d70a4a99U,
  0xf52c2215dcdfea07U, 0xd1ce1700f6ebcf12U, 0xd4381208a7f107dbU, 0xdddefcf1ac2057b6U,
  0xe82f2919d8e926ffU, 0xc1c0120a09f5cb2eU, 0xd552e81c9dedf1c6U, 0xdee4eceaae2a48acU,
  0xfe200b22c6e51612U, 0xbbcd03fd12cdc009U, 0xdf57f712a4e5e5c5U, 0xced7e8edc71c4c98U,
  0xe23f2c02e4d8f4e4U, 0xb5dcf71828d2cb2aU, 0xec4a282a93ec0bdcU, 0xe6dcf5f6b61f31b7U,
  0x363529e6db1905U, 0xbab1141124dac047U, 0xd741082a81eee8abU, 0xe0d9e1fdb827519cU,
  0xef251e31dbd11e10U, 0xadb10704f7d1be15U, 0xc13d1d1b95eeddb7U, 0xedc8f3fdb8404797U,
  0xf72f241eddd90100U, 0xc9b6fc1b07cebc46U, 0xff1805e5f4e6d20fU, 0x903fffd23f4f4dfU,
  0xe307f3140d00f114U, 0x19dffdee002312U, 0xff0eebd2f7340f22U, 0xf91efffed00a0126U,
  0x29db1af0ec001612U, 0x1c915e22200f0e6U, 0xd802f1ffd4f607U, 0xf6fffd13e4faf8U,
  0xf7f7fa30e701ea2bU, 0x226011ee801eaedU, 0xff0408f1fae8d2eaU, 0xffd0feff1dfafdf7U,
  0xe20606190affe8efU, 0x14fdfee8ff1b13U, 0xff280e18de4deef5U, 0x206ffff8f471821U,
  0x1edbe48106ff01aeU, 0xc40ece1b00040bU, 0xd801f7f8c1f813U, 0xe08fefdedec04f9U,
  0xf2f5ff2beaffeb24U, 0x114fe20df01efffU, 0xffd5fa0915f1f6f2U, 0xf9e6ffff0deff701U,
  0xfa0a0d3100fffa15U, 0x304fe06fffbf0U, 0xff260711f725fdecU, 0xf2edffffb90d0901U,
  0xafbeba00800eec6U, 0x1f3fadb13ff0b10U, 0x200f918e9060cU, 0xd0cfffdeddc0505U,
  0xfff9002ff200f92cU, 0x1f60515f200f3ffU, 0xfec30505bc350abfU, 0x5fffdff16ef17deU,
  0xe02dcb1f12fdf916U, 0xfeafef34f2fedf23U, 0xfc1e3128bb12fcfdU, 0xf616fdfe090411f0U,
  0x921c8f6eafce809U, 0xfcaad435f2fdca10U, 0xfd0f1b14fa06081eU, 0xf2f8feff0117ffffU,
  0x10ffe00fe7fe0c24U, 0xfec702f5f1fee3ebU, 0xfdc63d0bbb19e3b4U, 0xdbfd0001b1d930c0U,
  0xd4f1ebf01bfeb0b6U, 0xfe97fa6ffe00c242U, 0xfd23481aca07e202U, 0x6f0fd00b9f053f4U,
  0x7edc4e8d0fcb6b0U, 0xfd81d45500fd8a16U, 0xfe160e06dc09e725U, 0xce6fe00fb0713f0U,
  0xae9c909d8fef403U, 0xffc2e12703fed8f0U, 0xfce116fdfdf5fbfcU, 0xacf4fc01edfa03e1U,
  0xffe2fcebf1ffcdccU, 0xfdaa0f2e0fffe218U, 0xfb290302e00afc22U, 0xbeafc00ad092f02U,
  0x10d6ebf5e8fcced1U, 0xfcb6e60d03fdd202U, 0xfe0fe7f5de01fb18U, 0x3cf3fe00f3f40a08U,
  0xf5ecc908f3ff0034U, 0xfde6f8fa13feeef9U, 0x1e11f12fbc205e5U, 0x90d000204e521eeU,
  0xfa001204fafe331bU, 0xd0427e800f317U, 0x1e03315fc99ffe4U, 0x208ff01eed72ddfU,
  0xfbfc29fafeffe80cU, 0xff1e072cb1ffdf1cU, 0x40df9fa0b0b0cU, 0xf9ff000107ed0101U,
  0x213f907ff002410U, 0xff0f0701f800f702U, 0x203200f07b9f2f3U, 0xeef01000ffc21daU,
  0xf00f34fff3ff530aU, 0x11022be800f020U, 0x53316fd81fbeeU, 0xaf401ffe1033ae0U,
  0x3fe3feef100bdfbU, 0x321b42bdffd91dU, 0xff190f04f7070e05U, 0x1f80001eafa0b02U,
  0xe0af606fe004009U, 0x1415090000f9faU, 0xff06140609fe06efU, 0x2d70102040f07f8U,
  0xf6fe13fe02ff2cf5U, 0xff08ff20fff415U, 0xff091b19fee308f2U, 0xded0102f22c21f4U,
  0x1fc21ecfa00e8f0U, 0x351306eeffe514U, 0x21030ef6110509U, 0x8fc0102f0120a03U,
  0x208e90c07001801U, 0xff070fee0800fefcU, 0x1f7a4b3b0281635U, 0x81fc0001000faaf3U,
  0xf9f6daf1e7010d05U, 0xddd8d10f001295U, 0xff010910faf709daU, 0xf8fd00ff020a100dU,
  0x90112000f01f106U, 0x1f41900fd00f710U, 0xf20a0f05e7fc01U, 0x9050002f9f90500U,
  0xfd04ff060302ed1aU, 0xd0b14e6010402U, 0x1faabb3af31182aU, 0xa7070102fe099efdU,
  0xff5c7ffe60210fdU, 0xc6d3ca20010e9bU, 0x1fe13161cea07d3U, 0x1704010201031317U,
  0x1091f040802f1fcU, 0xf90bf9fd01f615U, 0x1ff0508ffec0002U, 0x12010103faf50203U,
  0xf9100209fe02e904U, 0x1100904f60106fdU, 0x1fcd0cac31dff1dU, 0xee0b0101f80bd401U,
  0x3f0e402f60105faU, 0x1ead6f70d0000dcU, 0x3171223e8fbe0U, 0x23fb000208031207U,
  0x3041f000901f9f4U, 0x109010de200f415U, 0x10906fdfdfc010fU, 0xbf7010204fb0700U,
  0xfe040303010104ecU, 0x10a0101eb0101fbU, 0x2030705faf5faU, 0x90c0000ff080606U,
  0xee09f5fc1d00d008U, 0xfe01f500000e1dU, 0x7f904faec0505U, 0x7000000f10b0711U,
  0xfdfbfcf61c00a803U, 0x8fdfb09000111U, 0xa01fdf90309ffU, 0xbf20000f509060fU,
  0x6f8faf70800dbfaU, 0xff050204000604U, 0xf4fe0102eef2f2U, 0x204000005fdfaffU,
  0xe91b05022800ac06U, 0xf6f7ef09001318U, 0xf6f3fb04ec0ef8U, 0xfb050000f8ef011aU,
  0x50bfc2a008102U, 0xff0100f605fff701U, 0x4010411ffU, 0xfefd0000f8fd0813U,
  0xbfc02fc0e00caffU, 0xfd06ff0800f3f8U, 0xfffd0a030af4f3f9U, 0x101010006ff00faU,
  0xf41319041700c806U, 0x9fefb04010b0aU, 0xfd0a060bf901fdU, 0x60c000005fa020dU,
  0x40619011b00b407U, 0xff1005fc0b00f902U, 0x6050906010507U, 0x102000001fe0615U,
  0xf0107000901e702U, 0x40d030000ebfeU, 0xfff9e4110ffb11faU, 0x1500fffff203f220U,
  0x16f30c0816fffefaU, 0xfef321faf4fefbf2U, 0xfefbe62121030cf4U, 0x25f4fffffc02ef13U,
  0xff01fd0c25fff2fdU, 0xfef81ffbf6ff1601U, 0xff0df0141a00ef00U, 0x16f5ffff0c02ebebU,
  0xe90a0c0209fff811U, 0xfeee01fbf3fe200cU, 0xfefbb8f7f901060bU, 0x1afd00fffe03ba10U,
  0xfdf50bfe13ff01ffU, 0xfeee12eff9fe0fdcU, 0xfef796f7faff0409U, 0x24ecff0006fc94ffU,
  0xe70c01051bffe806U, 0xfdef18f1e9fe2ad5U, 0xfe05cdf30308fe10U, 0x12f700ff12f8acdeU,
  0xe40e0dfc0afff20cU, 0xfded0cfde8fe25f0U, 0xfd01aeeeeb0a0908U, 0x11f6fffe000cb403U,
  0xeafbfef501fe14f4U, 0xfef0e4fafafe0dd8U, 0xfe0090b5c7faf607U, 0xf602fefeff0a81e6U,
  0xd8fd02f207fedb05U, 0xfdffe110d7fe09ceU, 0xfe03ebccdf0bedfeU, 0xf60dfffd06f7bbd9U,
  0xeb0604f907feeb05U, 0xfef80501ebff13eaU, 0xff2bf72900c0fb21U, 0xe0e00001cc3ffbebU,
  0x70f2310050001e2U, 0xfe16f5cf0c00fee9U, 0xa9addc2f92ea46U, 0xd555ff0110c9d3f2U,
  0xf619080cfbfd0625U, 0xfe46ec0d9fff1aebU, 0xff0300a41f40f00cU, 0x1823fe003fabf40cU,
  0xfeecdd1f11fe042aU, 0xfef7fd12f0feea13U, 0xd9f0f00f810710U, 0xfa350001dafaf805U,
  0x70f21000700f110U, 0xff43fd070200f5efU, 0xffc00ab704fbcf04U, 0x2d32fe0130c30208U,
  0x4ced4fc1dfe0026U, 0xff110830caffeb0dU, 0x3f1ffaf353bfc8U, 0x34cdffff06260c09U,
  0x1d0f1de18fffff4U, 0xffbd04011cfee911U, 0x1dafef2f2c318ffU, 0x820000212ddfd05U,
  0x1fb0c1007fe111eU, 0xffeff820fafff212U, 0x252931df56ded7U, 0x1bc2000117210f10U,
  0xfadef6ee1b0011d5U, 0xffa6f01f28fedb12U, 0x1520b6ee620d8deU, 0xeeb300ffad5d0dfeU,
  0x8f00acaf8fe03daU, 0xfed8edef21ff02f2U, 0x1161d07460cce15U, 0xf32100ff1e27ded6U,
  0xcefceb021700dcf6U, 0xf823e7e7013e30U, 0x11881bb2d27040aU, 0xcf2a00ff1e0c88f1U,
  0x3ead6fef1013a12U, 0xc531bda00132f0U, 0x20fdceafdfc34d9U, 0x853000104ecf93dU,
  0x47cff811f500f131U, 0xf33f03b302c5dbU, 0x10e331746060501U, 0xe2c400ff170e27f6U,
  0xeafe00241d00cc06U, 0xe45c2706000b18U, 0xfabe62d47d321U, 0xf3da00fff452b9c8U,
  0xeaccdeb40901110bU, 0xdb4ef6c1ff0ff7U, 0x1040101110c0cf0U, 0x123c0000e31be1fdU,
  0xfed3dbfa23000731U, 0xde4818c401c2fdU, 0x2e6271205e742feU, 0xd0b4000005ce241dU,
  0x2702f9310001fd26U, 0xc420412702d2f5U, 0x1f9df17fa47d91aU, 0xef860100db18efd0U,
  0xced410a92101cee1U, 0xdc23eaf101edfcU, 0x2f9e010ccf9de27U, 0xfc260102ceffc7bfU,
  0xc5f919e82702d91cU, 0x1fd041b0f02e115U, 0xfda90c00f812e6a6U, 0x3821fffee3e11e21U,
  0x1ff08ecf0d00d402U, 0xff08492a13ff132cU, 0xfcc730dff020e2b8U, 0x551100fef3bb0104U,
  0x13d881b012febceeU, 0x1d3918deff0a31U, 0xfe0f25f9f0fbf9e4U, 0x3bf7fffdf8e6fef1U,
  0xfafcd9df0efff2f5U, 0xff14f2eed100fa19U, 0x2260004df050cfcU, 0xfd0f0100fdfb1419U,
  0xf3eade0e1e040f06U, 0x2b038270902f706U, 0x12c13ffe330ef0bU, 0x12fc0002dffa17ffU,
  0xefe2def90f02f006U, 0x1be2f251001f70aU, 0x1050e0800e90c0fU, 0x10f70201e4f901e0U,
  0xea0e0305fb02fd08U, 0x100ef1bf3020e08U, 0x251e704d5120a60U, 0xccd800fe0d15e3f7U,
  0xdce73c3404030feeU, 0x112eae10401e2d9U, 0x146cf23d61b034eU, 0x98d90001d928e0f2U,
  0xe1f63337fe0311f5U, 0x1fa17fa0c02f0ceU, 0xe7e50909fd1209U, 0xbb0801fffe03f1e7U,
  0x20c1b16e802020aU, 0x1da030e0f020af2U, 0xff17bec60b0d040aU, 0xe5e8fffefa19c2fcU,
  0x8f4ebe1cbff05eeU, 0x15e0ec00fe08d2U, 0xff81ae0902fd1fU, 0xca05fffef21388e8U,
  0x4f309eed3fff406U, 0x15bff3c0ff02a0U, 0xefd0ed1d06f001U, 0xe52700fefa08c401U,
  0x708ff07fc00f409U, 0x11e100eb0003e6U, 0xdf7f907190804U, 0xad2ffff0107f6f8U,
  0xf00ed8fa0200fbffU, 0xe2fdd510ff1809U, 0xfeccedfb1c120aU, 0x19daff00fcfbcf14U,
  0xd05cbeff1ff0309U, 0xce0dca06ff05e6U, 0x1fae9f6f4140803U, 0x15090000f901f61cU,
  0x17f7eff60e00f30dU, 0x2ea15d60600fbe9U, 0x10523081af00200U, 0x1406fffe0cfc19e9U,
  0xe70f08100b00f5feU, 0x212f22008000c24U, 0x104300a21ec06f6U, 0x1414fefef1e22208U,
  0x202fa0f1200fa04U, 0x11a022a0c00e40aU, 0x3fa190b0deb0001U, 0xe0efffee5e61911U,
  0x1aeb10060b010207U, 0x11d0f1e0b01e0fdU, 0x1e307dc05f418f7U, 0x3300022da70806U,
  0x42d035601010c3eU, 0xffe705f80801f203U, 0x1d6e8b50826e60bU, 0x7e6000000fafceeU,
  0xebf52fdf04011b16U, 0xb06fbef00f4ffU, 0x1020cff12efbbdaU, 0xdfa00fff819efdcU,
  0xdf0b02d80a01e8fbU, 0x4f2ff03012122U, 0x3dff0ea0705d717U, 0x10d3020212e8f5f0U,
  0xe9eb1afdf9021102U, 0x1fd01010e02faf7U, 0x31b051d061e81f8U, 0x12b10101ec4fefd0U,
  0xc7e221ac1a0205dcU, 0x11eeffde6011f25U, 0x22f041704c9aff6U, 0x4280200da09f9ebU,
  0xd026f0010d02fa0dU, 0x1edecf1eb01401fU, 0xfef211160dca02U, 0x4c401000f1ad9e8U,
  0xe6e318dfff01fddfU, 0x2cfe070202fd0aU, 0x126193519eea0e2U, 0x14f401ffdf25fbf1U,
  0xe602eae51201f5e8U, 0x114ede6f3013128U, 0x11a04fcf3e0fc07U, 0xf747010001c70d09U,
  0xa39cc370902f630U, 0xc8fefedd021201U, 0x104010103fbea0aU, 0x7020002070bfbd7U,
  0xcc080001170107f5U, 0x103e507f0001c18U, 0x104f601fffbda00U, 0xf0300011601e8b8U,
  0xa01904fd2c010602U, 0x1f5d8faea01352dU, 0x102fa0dfe09effaU, 0x3f500ff09feefeaU,
  0xe20800020d0002fbU, 0x1f4f6f505001e16U, 0x1f900ff0106e2fdU, 0xffc010011feecc2U,
  0xb218f9ff2d0009ffU, 0x103e3fff900271fU, 0x105fa06fffbc4faU, 0x140401001cfdd991U,
  0x81310ffc3c01fd09U, 0x1f6c8fced004442U, 0x1070401fd00e502U, 0x90300ff05fcefd9U,
  0xd10d0d031a00ed03U, 0xf9ee09f3001e1aU, 0xf1feff030ef4f6U, 0x6f400010cf8ead3U,
  0xc814f8fc1d010702U, 0x1fbeaf301001b1dU, 0x10005fa0001df00U, 0xefa01000c02e3b7U,
  0xb61710fe2201fc05U, 0x1faddfff3012928U, 0x10207fa05f8f709U, 0x1020100fe07f0e8U,
  0xe7000c030a01f400U, 0xfdf311fa00110cU, 0xffd4ed28fb244afbU, 0xdffa01004801f120U,
  0x1d2900d40b01bba9U, 0x11603ea4b03f2f3U, 0xff3bf924f2fe2a17U, 0xf81d01ffeb09ecebU,
  0xe9ecfd4ff101fc48U, 0x10ce0f3f9021bfcU, 0xfe2606f7ee01a900U, 0xf8fe0100b81fedf6U,
  0x1e5f7cbeb020a1cU, 0x1d6f3f2ff0329feU, 0xfec2f7fa052b54e8U, 0x10d000054b40424U,
  0x224a1ae0f801a1aeU, 0xe0cfc2e01f1deU, 0xfe45031302e7250dU, 0xb1b00ff2109fcecU,
  0xeaf4fa44de00de3aU, 0x1e01dcff0213f2U, 0xff18ff04edea81ffU, 0x71600fea502efe6U,
  0x7a5f0b7e5000e11U, 0x1e00f02f20230ffU, 0xe101eded1c22dbU, 0x201b000036d20c1bU,
  0x82c04080101d5bdU, 0x1ea03070001fcfbU, 0x3c080606f8eb02U, 0x20fc0000391e01f0U,
  0xf3edf125e301e215U, 0x1f40af7ec02fdfdU, 0x1f50ddde697fcU, 0x7150000c70aeadfU,
  0xf898ecbceb001307U, 0xfe0a0def021d10U, 0x14fb2c291403f6f1U, 0x1fc90e101579e908U,
  0x1921f7c9f00602b3U, 0x40acf0d03fbf465U, 0xcf92325ffe407dbU, 0xdca0e0d087ffdfeU,
  0x40ef1e2210600acU, 0xa05b4ecf8151e3cU, 0x13f7105225f1f8e8U, 0x1ecc160d0f591cf5U,
  0xfe0df0df0b1405d4U, 0x2609eefcef1e3504U, 0x8f524e3f7e81df4U, 0x1ef61d1f181a3016U,
  0xc08e3eb160c15e5U, 0xfd2100f8e9073e5aU, 0x16fa25d816f015fcU, 0xcf110191b26382aU,
  0x121ee4f2240d16fbU, 0x7190ef5d718185aU, 0x14e21310231021f2U, 0x1ee0f1122122ffdU,
  0x191cdee9200827f3U, 0x1d0af6e7ce164718U, 0x9f622661b1f1d04U, 0xc27051c20106622U,
  0x730c8dd070c101bU, 0xd1301d7b7031407U, 0xe82cfa0a161509U, 0x1b1305112b0e0b09U,
  0x1646cbf205111518U, 0x71d0febb8181470U, 0xddc0fec48171915U, 0x1ff0d1b4c172a06U,
  0x2c2fd0e51c161705U, 0x1428f6dcaa241d4dU, 0xb130bf4070bf4U, 0xfcff00fffe0416f2U,
  0x10be2f10101ece9U, 0xf8010007010a10U, 0x6c4aab905f840U, 0xb31500fef909c2edU,
  0xf2ec0503fa00140aU, 0x101e3fcee0004b9U, 0xfff7050702040cdeU, 0x9f800fe0c031314U,
  0x406071401fd00U, 0x1fa0f06f501f210U, 0x80a09020909e9U, 0xfaf201fffa031008U,
  0x1016dff9fe01ddeeU, 0x1f108e804011201U, 0x5818e9415ff56U, 0x940b00fef90492e6U,
  0xfbe6fe08eb012405U, 0x1eec7e1f2010685U, 0x1f7090d14fe0bd7U, 0xfff500ff06fc0b0aU,
  0xfb0409061e01f402U, 0xf702f7ff01f014U, 0xfe0f0611fa02eeU, 0x11f4000001fb1110U,
  0x190bf8fafb01e8f0U, 0xf80af30e0105f9U, 0xb9bfb90dfa43U, 0xc70a00fffd00c0f1U,
  0x4f00501f7011608U, 0xffc6fdfb01f2caU, 0x1f6131019fc01deU, 0xf01010007f40d0bU,
  0xfa0ffe021301eef9U, 0x1fd03f20601fb15U, 0x1d20101f04ff0433U, 0xe1492d281eaf1e29U,
  0x7de20ef0f11f54aU, 0x23e32aef23242a13U, 0x2116f8f931e4fa27U, 0xc31f11260ba1243aU,
  0x13de29e81b1eea46U, 0x140d05e906122f10U, 0x4805f8231cf8dafdU, 0xeb321c3c1eca351fU,
  0x14e30cd9201dff14U, 0x272e1eed1d1b1f31U, 0x416f2f706f3d927U, 0xd15613101fb32e08U,
  0xfece3ff32822ec22U, 0x14ea2cf22f241f16U, 0x5f0e6e11b01e925U, 0xfd1af7f905813917U,
  0x11d1290a2e13d91aU, 0x1bff2be51a142805U, 0x27f8eceb11e3e017U, 0xcf24201015a92114U,
  0x14dd2b0a271aeb49U, 0x1122ff40ffd1739U, 0x1a0ee0ea081c091dU, 0xbf4322031e842301U,
  0xbe22bf71208fe23U, 0x21e104d51f221c2bU, 0x13e7fb240be83cU, 0xd232f9261ec30e13U,
  0x16df321a2326f812U, 0x27fc30f2111c3817U, 0xc08eef4281e0a1eU, 0xeb3418f42d9930ffU,
  0xf0d415073bf8fb41U, 0x29f608e61b1a2336U, 0xecc9ea0e09fe0fU, 0xf910ffff1ef3c600U,
  0xd523e10715000afeU, 0xfee7eae0ef001b0aU, 0xfff09edcec280e14U, 0xf301fffefcf7af1bU,
  0x30bd0ea14fe12f6U, 0xfeb7fc9d08ff11dbU, 0x19cdf6e1121b08U, 0xe01ff00edffed1bU,
  0x18eff3fa04ff0514U, 0xfed70bea06ffede3U, 0xfff3b9f41210f207U, 0x11f8ff0114f5b405U,
  0xd22bda0729fff2f7U, 0xfed4d6b707ff3e03U, 0xfffa81fd0a260d01U, 0x8edff00f2118e36U,
  0x9f4b2f042ffefedU, 0xfeac029620ff1bd4U, 0xdc60c000e2e11U, 0x80d00ffd406c139U,
  0x22eae8fa1d00fe0aU, 0xfeb81bd81300e8d0U, 0x5d8ff0b04f70bU, 0x15f3fffe100ad603U,
  0xe30df0070b00ef03U, 0xfef9ebd8050017fcU, 0xfefeb9fe0509060cU, 0x2f4feff041c9e17U,
  0xf4fadafa21ffdb05U, 0xfde608c40cff03d9U, 0xff0af1030c081013U, 0xfd0bfeffee06c924U,
  0x17fbf70a0fffe21bU, 0xfee21edd0afff0deU, 0xfe7efb2df8f5ab11U, 0x1f90fffdbd45032aU,
  0x59209d809ffd5c8U, 0xfe0506e81900fd09U, 0xfe65021beed69403U, 0x22effffcc62509ffU,
  0xe8b30aff17ffee1fU, 0xfef915e3f1ff1319U, 0xfeebf90df8d3edf8U, 0x832fffd06df00f2U,
  0xf51807230efff737U, 0xff0f020511ff0b10U, 0xff3dec300e81cf04U, 0x5b800ffcc1ef81aU,
  0xf8b40ef61d00cbdaU, 0xff0b04ee0cff0107U, 0xff24f520108acc07U, 0x1fbfffed9fef709U,
  0xe6dc04f62400e309U, 0xffef09e502000f1bU, 0xfec9e8fbf4d41d03U, 0xe51c00fe10c3f20bU,
  0xd22e6131300fc20U, 0xfe0812f81000fbf4U, 0xfe24ff2007ab0be6U, 0xfad900ffe818fb15U,
  0xf4f9f91301e4e0U, 0xf203001000070bU, 0xfdfafcff02ab04fcU, 0x41000fff2f6fb08U,
  0xf80bebf11a00e9f2U, 0xffe1f9f41500fe03U, 0xfcba01ed0ce11ffeU, 0xfa2700fe14c7f50dU,
  0x92af6030fff0515U, 0xfe0c07000bfff1f1U, 0xff7e1c33f646d8e3U, 0x792fe00ad79200bU,
  0x11b40ca60bfdf6abU, 0xfde415ed00fd0d1aU, 0xfd5b1835e22ecefbU, 0x13b4fe02b1661d00U,
  0xfacffa9f0efffab7U, 0xffe400f2f6ff0c16U, 0xf7020deefa0403U, 0x2fcff03f30507faU,
  0xf5fdf8f20601fbecU, 0x5e9fff0020f0eU, 0x203f823101a0806U, 0xfcdbfe01c30df7feU,
  0xfcfcefea1102e4eeU, 0x1ffe6ec1dff050cU, 0x3faed190cfa110eU, 0xeb14ff03b9ecfc01U,
  0xa09ebfd0a02ed07U, 0x202f6ff0a020afbU, 0x2eeeeec0af41700U, 0xf819fe03ffd3f917U,
  0x1308fd12fa01fb22U, 0xf40c080802fcf5U, 0x19aeebd06de241dU, 0x23dfe0020a5f500U,
  0xf51c10450900ea7fU, 0xff2100010b00e7f8U, 0x1bdf4bb1ae11d05U, 0x742ff041f9dfffaU,
  0x120124907000a56U, 0x11d070be102eff2U, 0xfbfdec07f805f7U, 0x711fe0408f7000bU,
  0xa06081b00ff0612U, 0x104070eff00ebf3U, 0xfffb120df30211f7U, 0xeaf900010afd1406U,
  0x7f70df2100004dcU, 0xff02fb071601f106U, 0xfffe1b0ed50801ddU, 0xe2130001010521fbU,
  0x506f60513ff04e7U, 0xedee051500f006U, 0x91710eaff05deU, 0xf608000102062e00U,
  0x160cfa110a00f8f2U, 0xe9f3ff0c00f20bU, 0x701efda1119f7U, 0xcfe2000203fff70eU,
  0x15fbfaee02ff14e0U, 0xf4fde22000f4e8U, 0xff0feaa0811413feU, 0x9df5ff01dc0bf0ffU,
  0xee6f201f9000ef4U, 0xccd3d0ff00f5d0U, 0xff0fddbd9b110705U, 0xd0110001f9fb0b00U,
  0x11e7ea1ffd00f611U, 0x1d5e0d5ec01e9e3U, 0xffec0f0ceffe09f0U, 0xf8e5ff01f202020aU,
  0xa03f5f4030013f0U, 0x19fbf61b0001feU, 0xf102deb10f1009U, 0xacfe0001fe05ee05U,
  0xf9f1f4fc0008fcU, 0xcfe91400ede1U, 0xf9d5ae9df71038U, 0xb924ff01ffecf8fbU,
  0x7d40110f000f83aU, 0x5ca01e000d8d8U, 0x1cf4211ce6fee2U, 0x29e5fefee93c0515U,
  0x17fc0e45f8fee61eU, 0xfe0406fb01fee3fbU, 0xfe81f30f4afbe4eeU, 0x4efbfffee6defe1aU,
  0x1d08dca5fffedce3U, 0xfede36eaedfff9f9U, 0xff26f9f139ec110dU, 0x1e04fefd03d5e60cU,
  0xe0a15eafafeebeaU, 0xfff30bfaf2ff0000U, 0xd0d2e08d9c4e8U, 0x2fd700fedc2a05ecU,
  0xe8f6034a08ff0036U, 0xfff70df9fa00fb0aU, 0xff90241a18e48cceU, 0x391500ff98c517f9U,
  0x17c5ec9810ffbc05U, 0xfed73802dcfefd24U, 0xff1313ff20d8dd0eU, 0x1917fffec9b10215U,
  0x24fb0bd7fb00c712U, 0xffef0efaeb0001faU, 0xfe5b0b3008febcfdU, 0x13dd00fcfd38ffe8U,
  0xe9ddff3c0dfe1f20U, 0xfdf60ff307ff0c13U, 0xfd101e36f2f894d4U, 0xb2bfffd980b14f4U,
  0xfdb2f3c50ffee0e1U, 0xfed0120304fe102fU, 0x47092e04e7b911U, 0x291cfffdb1e62919U,
  0x12e301d0f1ffdef5U, 0xff0cf502f900040fU, 0xfffcb7cdd2051528U, 0xcdfd00fff901cd02U,
  0x8ed0dfcdffff80cU, 0xff07f00eefffeea0U, 0xfff7c2ccf9eaec17U, 0xfd060000fd06ef07U,
  0x14f006fefbfff902U, 0xff040017fdff08b7U, 0xfbe01217100eefU, 0xef7000001ffea21U,
  0x1202e6020200040aU, 0xf122ee1500fcd9U, 0xff09c614120e1bf5U, 0xfaf3ff00fafcdf1eU,
  0x21f5f40bf00006f8U, 0x612000a00dab0U, 0xff0aadf1f4031415U, 0xda0e00000301e303U,
  0x16f01102e5fff2e9U, 0x1af52001fff681U, 0x3c0cfe6fbf917U, 0xdcfe0000f0f6cff7U,
  0xfeeb0d05ee00f603U, 0x11f609f101f1abU, 0xfcf917130704dfU, 0x1a00fffffafaed0fU,
  0x602e806140007fdU, 0xff02ec0000f4e9U, 0x6ef1c07040befU, 0x14ef00fffffffe10U,
  0x16fff301010003eeU, 0x501fd0a00f5dcU, 0xcf11fa0a0f0fU, 0x1f700ff02fddc09U,
  0xf902fdfaf600fdf6U, 0x102f5020d00f6d4U, 0xfffffefdfffffb21U, 0xfffffea1fffffba7U,
  0xfffffb2800000357U, 0x60600000529U, 0x56300001296U, 0x341e00001465U,
  0x8f100000964U, 0x135c000003e8U, 0x52700000b74U, 0xffffe86a00002d5cU,
  0x19c0000012cU, 0x25e00000dd3U, 0x2cef00000ae5U, 0x102000004b7U,
  0x1f2d0000019bU, 0x2073fffffc64U, 0x48b4ffffefdaU, 0x271fffffd42U,
  0xfffffbe1000003adU, 0x7f4b00001119U, 0xfffeef20ffffde3eU, 0x2a4b000005b0U,
  0xb30ffffefb6U, 0xabaffffff92U, 0x77affffff25U, 0x92c00000a7dU,
  0x14e000004bcU, 0xfffafe08fffff8b2U, 0xfffe708200000b1cU, 0xfffffedb0000355cU,
  0x187200000034U, 0x78600000ae1U, 0x21f7fcfe590ee41cU, 0xd20a0de11d000aeaU,
  0xfce6edd0d4141cfeU, 0xeb24d65923d00404U, 0x1ea26e3cba7ff25U, 0x904dcd5ef0dffebU,
  0xfdeb171beaf91034U, 0xe4ecb90809fcffe9U, 0x11f613f02d4c042eU, 0xe30316de220411adU,
  0x7e138d1c22d1d20U, 0xe9188f3757df13c7U, 0xf8d429e3818f1d3bU, 0xb109ea0f728ff17U,
  0xfdeeed07e2091120U, 0xcfcdf2809fbffeaU, 0xfb02e3fef933f916U, 0xf9ff0ff304000309U,
  0xe8eb19fce1150600U, 0xe06f7f41f0b060bU, 0xee07ea11cedbf70fU, 0x609edf6fd060105U,
  0x108eb07d80306feU, 0xd0e09042addff1cU, 0x1ae9fbd74128f00aU, 0xdd1a200410f9f0e6U,
  0xeae7edbbb91d1411U, 0xd41dcd4415e515d9U, 0xf614cdf397ea00U, 0xf205ecbbf3f5fff5U,
  0xfff7ff1d000e1f15U, 0xf110c00108e8ffe4U, 0xedd2feca2e451411U, 0xaf9221814f5d39bU,
  0xe21508cab23c3515U, 0xbf28912234ea2298U, 0x190551dd8d8f2e24U, 0xed2f9b9d2efdff22U,
  0xffebf623030efd23U, 0xfc23da0005cfffe7U, 0xf70de2080716ef05U, 0xeef5fc24090a020fU,
  0xdf000ffff20b0ffdU, 0xf314f5101c16f405U, 0x212fc0eebeaf7f6U, 0x103fafc05080304U,
  0x100307f1ff0f00U, 0x15ed1cee00d90020U, 0x27f3d3ed0c25fe07U, 0xfd0112111016efe8U,
  0xee0ff5efd00b1214U, 0xf905f50c08f4fef0U, 0xebf1f8ebfef1f9f8U, 0xf101f7e5f0fefff8U,
  0xff02f6110d1c040bU, 0xf8f4ff091303ff09U, 0xfceaf4ea001400f6U, 0x2c0a18251bfbf7aaU,
  0xe712ebe3d618060bU, 0xdc1ff2e70ff2e8c6U, 0xfe0e1ddae4f333eaU, 0x601dfd336f0000bU,
  0xfee9e90f0c1ce317U, 0xe5030ef40ae4ffffU, 0xf803df040a14f0f7U, 0xfafbda0902fd02f5U,
  0xe3061b150500ff00U, 0xf12003011721fbffU, 0xe839f2ec0907fdebU, 0x5fa08fd07f904f2U,
  0x20a0d0becf5fc0fU, 0xfeeb13ed06e30021U, 0x4230cf1fb06d5f1U, 0xfc0700d30107111fU,
  0x5e722dcf4ec2d0aU, 0x2b2a08f9d90503e3U, 0xdd0ff4f8e916eafaU, 0xec040bf3e6f4ff17U,
  0xff2ec6fefcec0fd8U, 0xef10f0fefd070021U, 0xf722f9ed0bb4adf9U, 0xfe07f9e60712f61bU,
  0xf009dffb12da0ffaU, 0x3f4f211a424f60cU, 0x1ffedeec0d14ddccU, 0x20f327f404cd0000U,
  0xff14e21004f107e7U, 0xf10bf6e611010029U, 0x205fd001bd3d20cU, 0xe70afdf6e717000fU,
  0x502e7edfff2f9e1U, 0xaf5f409d70d0002U, 0x20fff7e40604f2e9U, 0x909170307f7fff9U,
  0xff04f20bfc01eafeU, 0xeafafe080c2e0000U, 0x201205df02b68124U, 0x4f3e3e91e2d1edaU,
  0xe6d401e7e6e423dfU, 0x705ebef9817edc4U, 0xf4ea03f7e52900efU, 0x15f716f224eaff03U,
  0xff2bdc310b05efe6U, 0xcc42d9f10adfff47U, 0x131ff4fd2a8b8e27U, 0x11e8df14240cf6ffU,
  0xe20cc50f0cc811c8U, 0xe7ef0f1d8215dcf6U, 0x28f2f2ef2222f4e7U, 0x22f53ff52cc0ff0aU,
  0x109e4381f0fd508U, 0xeb30f3d715e60037U, 0x1015120525d8e52aU, 0xf206f505dc04f81eU,
  0xffbededff0400f5U, 0xfd01fd06de0bf6f6U, 0xf6fb06ea06fbf008U, 0xdf917fb11f2ff07U,
  0xaf71b0424ee0cU, 0x5060700041a0012U, 0x140002ef02ad8529U, 0xe600ca0901251fceU,
  0xdefbf1eae814eed2U, 0x1fdd17ef940500f6U, 0x9cfbfd1fb1c16eaU, 0x3ed14f931eeffe6U,
  0xf70b390823dd17U, 0xe61200f413daff16U, 0x10030a0b18b8b711U, 0xfbface0ffee812f7U,
  0xe60af20d0b0df8d2U, 0xfafe0900c3f9e1fcU, 0x5f8eaee0f090701U, 0xfb0320041bebfff6U,
  0xf5fb210f1ecf28U, 0xf41704dc0fd5ff13U, 0x170f19010c01fc18U, 0xec0a07f5d7fcf826U,
  0xf8f613f3132a1b07U, 0x209060dfdfae9e8U, 0xd50e1afc14fa190eU, 0xfd020205fefdfe07U,
  0x1103090b20eb1aU, 0x71afff603ecff17U, 0xf4f90816031925ecU, 0x140f24edeaeeefdcU,
  0x10e6130203f70c14U, 0x912f60b1d0507e5U, 0xf11efa1110fa041dU, 0xdf0f109f1150009U,
  0x90ee9fefc1002U, 0x170cf82801f501f2U, 0x7f10f22fb0a2200U, 0xe0623fadff2e8e1U,
  0x11f6090010ef1420U, 0x200ff12f810fbe7U, 0xf228fcf315f10018U, 0x2ae8e4fbfefeff17U,
  0x151efbf504220dU, 0xf06022a020001e7U, 0xf9f6032507eefc24U, 0x1205faedfd00f1U,
  0x90805f119ea0410U, 0xf0040812e50df4ebU, 0x22107d811e9eb21U, 0x1beafcf50601ff02U,
  0x11213ffef0b0d0bU, 0xfceaf01d150c01e7U, 0xec150330f0edf228U, 0x20dd0c0e050015ddU,
  0x12181aee10f3cd02U, 0xf4c50dfefe0703f7U, 0x3404fcfe190500ffU, 0x16edee1bf70b00ffU,
  0xfffb14f7f202f6f4U, 0xfefe2bebfa00f9U, 0xee82057e6c0f037U, 0x22b2ee0af4f92af4U,
  0xb162edd00dc9406U, 0xf59e18ebe1fc07efU, 0x32d208d62afcfa18U, 0x9f9f5fc014efe0aU,
  0xfedbf3d60014e3f5U, 0xecc6112d010400e4U, 0xcfe0113ebe2e52aU, 0xafcf712f6003e08U,
  0x5fe18fff9e6e611U, 0xfde10cefe7fb0beeU, 0x10e9f9ca23f6f012U, 0xf604011037ff0cU,
  0xff01e7dfee17f70cU, 0xe0ddf923130900efU, 0x260fff23eef1ca2bU, 0x9dbee0d1e0c51fcU,
  0x31814fdf0f9cc03U, 0xf3c0fbdcf8ff0811U, 0x45d9d8ea120b21ffU, 0xe2fe080dec3b0100U,
  0xfdf9e6e9e105c6ebU, 0xd7eeea19fbf8fffdU, 0x3d0d163ee4cfbf33U, 0xfed9d9fa0e197ff2U,
  0xff049f2e4ffcb03U, 0x2ddedc1ecf32b01U, 0x32b3ded40afd21f9U, 0xbf16f1f9025f000bU,
  0xff0ec2ccf00fbaebU, 0xcfd5fa18e7eb0011U, 0x9fa0c09eed4e20aU, 0x9f3e2f8fd1033f8U,
  0xfea3908f703fc05U, 0xeaf6f3e90307150bU, 0xdd3f0ea23f9fa00U, 0x30506f1073aff11U,
  0xfe1ceaeafb0febfaU, 0xf2f20712060200fdU, 0xa7542c4205f3041aU, 0x57bbfa0af32ca9eeU,
  0x7f0e9c3540e59d14U, 0x39a6412f7d0e940U, 0x190dd1c90e1a36f1U, 0x479209eaef95ff0dU,
  0xffe0e31b27752821U, 0x15c05712d703fefbU, 0xb16090f21ec0124U, 0xb1900eff4f20a1aU,
  0x2817f70618090d12U, 0x2f3462dfde1f421U, 0xd815f7e5f8fdf106U, 0x2e02d13d3e4ff07U,
  0x30fe2f2e539fff3U, 0xeff7fa0b20f7ff11U, 0x14fd11faec00030dU, 0x120e04e6e10110f7U,
  0x4f900fef3150a0cU, 0x20efc09ec1012U, 0xf8fd00f4f6f905f5U, 0x3080e05f5fe0021U,
  0xff06f3fdde12fd05U, 0xf510ecf809fafff8U, 0xda36395e17e21100U, 0x47a3dc0cf51af32fU,
  0x5102e11536b68500U, 0x68d3116efe7d554U, 0x3debb3eb1a042f17U, 0xecd612bf08ea00feU,
  0x2dcecee1914eb1eU, 0x25911bf0c419feeeU, 0x151f130a0c030d07U, 0x809e7fe05f0184dU,
  0x23f102010005fb0eU, 0x1af2212119f8eb31U, 0xf102fd0c08ece813U, 0xd0ff2114e3fe00faU,
  0x5f4f6eae6000aecU, 0xff0dee8f104fcfaU, 0xfd051308fcff1103U, 0x12fbf604fef8f6fbU,
  0x14ef06f8fe1a0917U, 0x7f1fdfd09ee0a16U, 0xbf708fceee4ff00U, 0xe30714fb00fcff11U,
  0x10ff1f9f51e07fdU, 0xee0be9edeefdfff2U, 0x15f90d280af202ecU, 0xd5cadcfef6062707U,
  0x9d90ef111ec05f8U, 0x3107e602f5ecfe19U, 0x1ae1040bfdec1c19U, 0xcd1109cd0a1501f2U,
  0xfe08ebe5f2f8d61bU, 0xede00be5cff4fe0fU, 0xeaeb19fefaebfff9U, 0xdcfbe7f80cefed1aU,
  0x15ea01f108241004U, 0x40afe07f80f021fU, 0xc0316170a00f204U, 0xfc020211eefd00f4U,
  0x119fefff2eafbfaU, 0xfa0c00e8ecfeff0dU, 0x5e7080107ed0cf7U, 0xe00100fd09f9e8fdU,
  0x7f3faf600120e06U, 0xf3fa020df8190213U, 0x1c08190000f9ed05U, 0x20c1208fb030000U,
  0xf8f9fefe16fd00U, 0x511fdeff107ff09U, 0xf717fc0a020a05feU, 0xedeef2f8fdfa02f9U,
  0x40502f6f5f60001U, 0x603020406fb0202U, 0xfa0efbfb01f70ffeU, 0xf70efcf90af602f9U,
  0xfffffdfbfbf10cefU, 0x3fc04fc0306ff01U, 0xeb1afb160cfa07ebU, 0x17d9f1fefe19dbf8U,
  0xf1bec06ffe90703U, 0x30cfd08060df806U, 0x11ef80116031009U, 0xa05f40d15d502fdU,
  0xfe030509f1fdebU, 0xfef315f80dfc0005U, 0xa25fe0afe07ffebU, 0x1b03f50c1102faf9U,
  0x60fd90ef2cd0007U, 0x50405061106f702U, 0xf50e0c0106080809U, 0x1007ff2406c602ffU,
  0xff05fdfe060503edU, 0xf9f004fb11f70108U, 0x21ecf9060bffffU, 0x1ce8f2021004fef7U,
  0x3080314ebf6ff01U, 0xfc05fa010600f601U, 0xf30f02050701ff02U, 0xf70a050412fc02feU,
  0xfefd050e0bf7f7feU, 0xe0c12fe08ea0005U, 0xef05f61a25fee4fbU, 0x11d4c42f04f9f21bU,
  0xf321f4fc19ca10dcU, 0xe2ee092905f8d60dU, 0x207f415e702ef02U, 0x1df31518faee02ebU,
  0xfe20fe050cfd1515U, 0x20001f810ee0022U, 0x2de1c140c200112U, 0x1ddbcb29f6dcf6faU,
  0xed2719de0ec00f09U, 0xdaed0a0f22f8d40aU, 0xdd1204e7c8f8eb09U, 0x17d71cfce42101f0U,
  0xfdffe2c51c243501U, 0x1103180cc4f00011U, 0xf510f901f4030605U, 0x15fa00ff1ef307e4U,
  0x211fd0bf6f60203U, 0xfaf5fefd08fa0a09U, 0x1ea06f9f6080606U, 0x205fd10fafa0200U,
  0xfe0800fef8fbfeffU, 0x6ecf9fefd0600fcU, 0xbfef305f6e9e4faU, 0xd837ead1f1ac3e14U,
  0xaee0b8bf510d010U, 0xdfdead9ece656fbU, 0xbbef4eec2e310e4U, 0xf901f4ef153601e0U,
  0xfefce4e5b6f70716U, 0xe1d3b0e6ed1400e1U, 0xd8d408ebe8fedc15U, 0xb730e192cce40fe3U,
  0xa943d81cc3ec80eU, 0x2115c7d5e4ef5ad1U, 0x48eef1dfa9c7f1dcU, 0xe207e5c8133501c8U,
  0xfeafdd1fc000090fU, 0xe5eaf74bfe0f00f2U, 0x1dd7d23a1307d0bcU, 0x29dc95aee3c01c7U,
  0xbe23fd1340f1c123U, 0x12dfd8220de0e1d0U, 0xf61bc520cd2adfc9U, 0xfb21bef4efab0015U,
  0x11b8974b1642bdadU, 0xcc18381b3349eaeeU, 0xd5ae32571bc3be30U, 0x3c10e913ec2f4e9bU,
  0xc21807361eebb827U, 0xa9f2373a3b3ef621U, 0xe2c0c4abc83a3830U, 0x41f8abaec288f7c6U,
  0x170b0dd033bfbfc1U, 0x2bb14221c7cae712U, 0xd90126ddd23625cdU, 0x48f3d6f84d382423U,
  0xcacad70f1a3b12feU, 0xe008c1bb4446e424U, 0x5fc50fc8dee7db10U, 0x21441eb22ebcfabeU,
  0x1549c0c13e3bd52dU, 0x2eeb452fcec9ed46U, 0xb2dfd6cb180fc236U, 0x6ade902e830dab9U,
  0x3321f781ef07c4b3U, 0xc22d11c2dead01bU, 0xeac00db2afd1d4baU, 0x3802bdb2c2a6051eU,
  0x10bb17c13227c5bbU, 0x3923371bc5dfe1c5U, 0xb6e8e5cd96c6d89fU, 0x2b1d074a3f1b44d6U,
  0xc51a9c8c3b13bc34U, 0x99091a2edfdef019U, 0xb7ab15c2be2422U, 0x53e1b5fee19dfdc7U,
  0x119faec74507d6c2U, 0x34c03f03bcdade2cU, 0x32fce42ccbcd311aU, 0x43021d5f532ff9ecU,
  0x3120ed9cd3af28bfU, 0xc7e62aa73327d41bU, 0x5cdc01c2cfd5e419U, 0x4cde0ab6d8a9122eU,
  0x84bb8ad36c1b0ceU, 0x3ccd4fbc0051ef25U, 0xc4e333f2b4ded856U, 0x31a44b11d50bdddaU,
  0x312bed2330a7b404U, 0xcc10da2033f2c109U, 0xfab50e32d2e411bbU, 0x20c1afcfbf060734U,
  0x1ca0b9da3639f6e0U, 0x3ae02eede413dee3U, 0xb0c326efefa9359aU, 0x4322e7fe34392928U,
  0x280dceb32818bc1dU, 0xa82e1ac7ef37ec1aU, 0x16bba1152acc18bcU, 0x17d7d90e44990cb0U,
  0x11c8b0b7563fdffaU, 0x40e62b98c42bf21bU, 0x3ee92730e3cf29faU, 0x46e74660352e2427U,
  0xe423eaf5d4c82bdaU, 0x4f2ddbb5ed153726U, 0x53d807283d361cc9U, 0xeecc19b92bcf150aU,
  0xff3ac3aa3d3b2f2eU, 0x47cd5dbcbb27f232U, 0x32e643d4c3e1de18U, 0xa77c06ad2eac701bU,
  0xf4a61987f46cd301U, 0x16f8c79ed4fe32f2U, 0xfca2a6f2b002f3b4U, 0x32ddf402147201d2U,
  0xffede511da10340eU, 0xecedc3180efa011cU, 0xf3a05dcfcfd7d40eU, 0xcf47d5a705da36efU,
  0x16c43cc7f16cb2f5U, 0x2ffcb1bdf2170afbU, 0x1da4a4dfc003d0a9U, 0x17cc19eb135100c4U,
  0xffa0eb4ae50d0407U, 0xef02f6230c170131U, 0x17c9ef0612e3feebU, 0xf1030e1ff804f40dU,
  0xfe0dfd141013ce00U, 0xecf2160ded1dd913U, 0xfacef8f5101cf7edU, 0xa111f0a0405011dU,
  0xffea1606f102d001U, 0xbfc00f21718000eU, 0xf91c0eff6441f74bU, 0x1c81e82e08359ee7U,
  0x1847da25e2f04226U, 0xc0ffdb4e480fe5dbU, 0xea2020e105c2104bU, 0x172fdfb70eab0144U,
  0xff1717f310f3ec20U, 0x1c141a08f53000e7U, 0xd81c31ed2c75fd73U, 0x40c4ea3605ead404U,
  0x1812fa04c30d580dU, 0xd80bfef6710dead9U, 0xbf4121ceb8c7054dU, 0x728c5c007b4004cU,
  0x4fdf80802fb0cU, 0x55fff153ff2e00deU, 0xf13308ebfc48fb16U, 0xb12f30829f01318U,
  0xf9040ff200ed1e16U, 0xf200e3ee30090409U, 0xf923d6f5cef3fdfeU, 0x814caf10ceeff1aU,
  0xb1cf2ef0c25ecU, 0x28eff8ed0cf701ecU, 0xe20de1dfcce103e6U, 0xba240708dfcd08d7U,
  0xca1327f708df00f5U, 0x362027d9c9e0e8d4U, 0x2c324c1431f50907U, 0xfffeec1eea030157U,
  0xff110be116000d02U, 0x101003b6e0cd00e8U, 0xfa12ccdbecbef503U, 0xb5160beee8e805d3U,
  0xc3370bdee9ca05eaU, 0xe2728eda30103caU, 0x411a553913f92103U, 0xef01fc1ddd1d0069U,
  0xff09f7f0fee80f08U, 0xc7eeefe2e1db00edU, 0x513c0e6e5e8ede9U, 0xbef809dc1812fbf2U,
  0xf929f0f809de03faU, 0x1003f908c70becf3U, 0xbff0d3b11f21bfaU, 0xa0f0306ff09ff28U,
  0xfff7f8f5d70209ecU, 0xdd0f04f7f4fd00faU, 0xe620fdf9e509f8eeU, 0x16fef5e41df9ec01U,
  0xf2dd063fc8151aU, 0x240d14daff10f709U, 0xfb10da281335e6dcU, 0xfdd4315ef2deffe3U,
  0xab9e4152afadaU, 0x150108ded2fa0001U, 0xe40e1dfcbd0313f3U, 0xe4fe12d80e04fb11U,
  0x1c13f0dee8111e5bU, 0xdaefd3c919ccf3dbU, 0x1cf63b11f62021e0U, 0x13e4d400bff800d3U,
  0xfff181a9222005c5U, 0x223afacbd3dc00e6U, 0x22af0e1ebf406edU, 0xab0404caf31c0cf5U,
  0x2215e8eb02f22531U, 0xf40606e90bf50d04U, 0xe031180213181afaU, 0xffead806e5e800f7U,
  0x11ee3cde72af3ecU, 0xe4eee5efe2d40014U, 0xd71a35f415fff516U, 0x71cbe231de6c502U,
  0xd23b8082defded6U, 0xf5d24c161a23e9fcU, 0xf41ab12606069905U, 0xfda04413dfecffb9U,
  0xfee113cc1d1247d9U, 0x46dd000efb690024U, 0xe41344ee971654fdU, 0x3ddae62051a8fed9U,
  0x3024f1e59e32e43bU, 0xe9c9e2cf27beddc7U, 0x2cbf1dfbeaff08f4U, 0xcaf9fde6fafaffceU,
  0xfecf999b2d1d0fd7U, 0x366f04f0c6ff00e6U, 0xf81a09dbe01b4bfbU, 0xec05fe0218fc05d3U,
  0xfe060bcfe3f6194aU, 0xf3f0dcb92ee002e8U, 0xfb01e10b19f52b23U, 0xe206bff61a01ffecU,
  0xfff9bbbaef24caf8U, 0x1a1311edd6e20009U, 0x112c0dd51df3ce2eU, 0xb40ce035df020e10U,
  0x3ea12122004ceU, 0x111490f0e2bf0ffU, 0xcb24010e06f4aa18U, 0xfb0944ffeafcfff4U,
  0x1283ae8ddf94703U, 0x23f2ea08f423ff4fU, 0xff142b09defa0d09U, 0x33fcd55324bb2de2U,
  0x70aeeedcd35f0f2U, 0x6e104ecfcdeefd6U, 0x3de31fd9f80e0debU, 0xd61d340106f2fff3U,
  0x2fb0edf26f6fdfbU, 0x53c0e0ad70300f8U, 0x11a24f3f91835e5U, 0x506e810d3ed08aaU,
  0xf9ee17d8d3e0fc2eU, 0xf40ad1ed0cf9e2d3U, 0xdcf4edfd0bfdfd15U, 0xcd14e6093b10ff07U,
  0xfff8e1ea11ffff07U, 0x81d11f6fde7000fU, 0x16f708faeefc0604U, 0x5f70c0dde0b1dU,
  0xe6da1506f8f1b909U, 0x25051df5fd0ae127U, 0x4f10d0d18b3f5U, 0x30302fb05ffd4U,
  0x20107fde3f9f7eeU, 0xcef24f10102ff0dU, 0x2e26f3e03dfad802U, 0xd70912dd09f3f512U,
  0xf8e3f4fefad41324U, 0x13f9f54103dee70cU, 0xde1be2f5faeaf3f3U, 0xf5fe1de5f50801f7U,
  0xff0e090ded0af313U, 0xcd1dbbfbeceaff1dU, 0xeb0ef3e8e907fd1fU, 0x90b2bdb070d07c9U,
  0x1e240fdbfc0eda18U, 0xd9e0e0f0090d09d4U, 0x2ce026e6e20b5404U, 0x33fae6e0fa0c0225U,
  0xfee3f10a14e1f1ebU, 0x438e91eff1901e0U, 0x15fff70bd80210f7U, 0xd7f8d0180fec0022U,
  0xe4d70d17ffe6abeeU, 0x1b0823c11014e53cU, 0xec11fb110a0e9bf1U, 0xfbf905f3f802fec5U,
  0x4fcfef7e5fbef00U, 0x1ad223010408010dU, 0x200ee4d83526f5f2U, 0xd20e04c7f9ebdf0bU,
  0xecc5f9fbdce7062bU, 0x916e0290ed818e8U, 0xe831ede613dbf5feU, 0xce0512d0d5fdff01U,
  0x27ecfbd6150e21U, 0xba25af02fdcf0111U, 0xde00f7e7de000b0dU, 0x2cf330151406eea9U,
  0x1063f5d9071a2114U, 0xc2d9fff0ef0c0098U, 0x500d1fe1fc197f1dU, 0x22fff9e9e9e9015cU,
  0xfcd8f7081efee80bU, 0xf51f019e10800e1U, 0x12fe0cffe6fe06f9U, 0xbfebe61e1bf8021dU,
  0xedeeec1819f5b0e0U, 0x3e81ee91518fa34U, 0xee18080c0902a7f9U, 0x1800021310f200d7U,
  0x2fff5f6ec02e8feU, 0x1bbd2809f00e000cU, 0x2208ebdcf514ed03U, 0xe41cf6cbe6f4ff14U,
  0xe9b7060ae6f4f411U, 0x29ffe8ee07dc21f3U, 0xc8fbfbf708e7d8ecU, 0xcfea06d9bf0600f3U,
  0x20de5f4d206fc1bU, 0xf11fd30903ed000aU, 0xd004fdfce7f6100dU, 0x490013000a1af1b8U,
  0xe448ee01fe101ef5U, 0xf9ef19e4f60304d1U, 0x32ea01ea09246af1U, 0x14f41c06ff0f001bU,
  0xffdc0409020eef11U, 0x17361407041300f3U, 0xf135f310ec0405ecU, 0x22fe0c01ced9033cU,
  0x34e7e501fac0f814U, 0xde29c4160909d2faU, 0xd90214e627e9efe8U, 0x47001823e0c50613U,
  0x5e4e6f4d20c15fcU, 0x55df34c9fcfdfb0bU, 0xa3ad017de1916e7U, 0x17e4e1ffe3db014aU,
  0x2fdeebf501d8e3e4U, 0xe91bdded0b03db01U, 0xcf0b1adf2ee1efeeU, 0x56eb631bd1ccfb0eU,
  0x3ead7eddd1f400eU, 0x5d1930b7ec0ef907U, 0x1633f924d32527faU, 0x1edcf725d7c7ff4fU,
  0x8e7160cfddbdf11U, 0xdbe8df012813e20dU, 0xba0a2fcd4d01f8e6U, 0x53f82207c0bf0504U,
  0x3d6cffdee09291cU, 0x67f62fb8e524fb36U, 0xfd4b21d8d515e0c4U, 0xeff83116fdcf0325U,
  0x3e9171af3f5fad4U, 0xeb14070d1f07e301U, 0xe5eb08e8ff26ffdcU, 0x52bff839cdf3fbfeU,
  0x7f6bfdff708361cU, 0x40e022bfe112fef2U, 0x106523f5cb03f2b7U, 0xe7d23a0df8d70835U,
  0xfcd7e72506e7d719U, 0xf2151f2bfc13e912U, 0xea1c0e0b112100ddU, 0x47dc1035d2e3fcfbU,
  0x3ee0312e50d3500U, 0x3f0826cdec1cf1f7U, 0x7f0df5e01cf9d7U, 0xf5f21e06ffe30528U,
  0x5d6001ef2ebe4e1U, 0xe60e0e111609e318U, 0xd3ef1301f914f0dcU, 0x3bde0b26d0e7fe01U,
  0x6f3dffdf9043ef1U, 0x4b052acae303fb03U, 0xda4afc20e3250ff5U, 0xf9fff0f5dcdbee16U,
  0xd4a6100230eb1316U, 0xeb19f9f2201f090fU, 0xec24f5eff41bbcd6U, 0x20dd0e150bd3fefeU,
  0x808ec161b1afcffU, 0x2917fb01eae8fbf1U, 0x174fed170c160fcfU, 0xe2f3010fe6e9fd12U,
  0xd5ac19f825dbef0aU, 0xdb0204230c1cfe1fU, 0xe603fb23ec0fc0e0U, 0x21c9ec2c08cefcebU,
  0x3e925180f0315ebU, 0x2704fb0207ebf5eaU, 0x16af32cd7351511U, 0xe9f1fc0aeddefe1bU,
  0xf1b8f91138eeef2bU, 0xed17fad74410f634U, 0xce120fd7ea1dc4ddU, 0x17e2102009d505deU,
  0x4fef114130724faU, 0x2d090a04f8fbfef9U, 0xf622ea35381c22f3U, 0xd04310c0206ac35U,
  0x739ff13f603ef0dU, 0xdefc08221cc2f227U, 0xb04d4f04411d90aU, 0x4e0efbbf217fe3cU,
  0xfff318292809e43dU, 0x2aec2af1061000b6U, 0xbe31187920524cfeU, 0x45224217ee0fad33U,
  0x4a4c3317b7e5ae66U, 0xcbc2e5ea61b2e0f7U, 0xfbbfd0fb6423c12fU, 0xf8afce989e26fd11U,
  0xffb51e0b5212e60dU, 0x78cf41f4b74501aeU, 0xe03d0734f7380b0bU, 0x4704174412f5f12eU,
  0x1d1d3d0bc3f7b664U, 0xdff2eae95ee6eef7U, 0x29dfdbf92906b528U, 0xe8ebc2c7b60bff1bU,
  0xc8380a340dfd08U, 0x51eb0b18ce0402e7U, 0x1012b0fb59f804fbU, 0xe0183ef10f38d349U,
  0xf612ca160e1620eaU, 0xc80c0a33f7de0610U, 0xfcde380e4a19d106U, 0x1a080c1104f0fe19U,
  0xff026e7f28f1da7cU, 0x25dcea21fd011bU, 0x644043d34576616U, 0x2f3b67f30e0fbf5bU,
  0x14151c09f8262643U, 0xca20030143c10ce3U, 0xc3f310214b0cc42dU, 0xf0f6e643d536fdfcU,
  0xca6b4554fce945U, 0x623ff6ffe921000aU, 0xde651d0cd85f7c07U, 0x55223afd23d6075aU,
  0x1c024ce5cb432274U, 0xdc26e2d85ae10fb8U, 0xe4f60e1a0afadb45U, 0xdd1cde2dd819fe10U,
  0xf308db420617d8U, 0x704efefad5ed0111U, 0xd12cee71d080cddU, 0xf605131d141f0c50U,
  0xd607c223130410fcU, 0xc6082529071cdf20U, 0x8d0021a3d05f1f7U, 0xff1318231efffeeeU,
  0xff3425521df7d940U, 0xde0217e316d0013fU, 0x3448e8f10e33300cU, 0xc71237fd15f7164cU,
  0xd6ff03ef0c23241bU, 0xec22271425e6fa1aU, 0xc4db103801fcdce2U, 0xfa032440f3fdfef4U,
  0xe83d1d41fdd310U, 0xf33aed07fed10148U, 0x1d44140b012d2241U, 0x802290e1ce70e1cU,
  0x5ed33f8032a204dU, 0xea1df5e630e905e3U, 0xda191a1ffef3eb0eU, 0xe5100230f915ff17U,
  0xfb08bc3508eee0U, 0x2129ddfbebcc012aU, 0x2cdde70afc0d17U, 0xedf314e51611221dU,
  0xf6e810100a110e17U, 0xf10f070a0219edfdU, 0xeef1af2f0f5e709U, 0xdb2c07220215fffdU,
  0xffef25201ca4fac5U, 0xd7060eef06f30003U, 0x43ee0ec02072a1bU, 0xfef61cf4f80b3020U,
  0xe8ed0c0c0e250c2bU, 0x517f5f00603de15U, 0x6f316f2f5f1f3ffU, 0xe2320017fa220003U,
  0x2e61d09f3920a9cU, 0xe60f13e3e3040006U, 0x52beae0f7000e06U, 0x12f912010c0a170eU,
  0xf40a0cff0126f52aU, 0x110eead80e0ae906U, 0xf3fcf70cf5f3faf4U, 0xfb13f9100012ff01U,
  0x1edfbf7ffc501bcU, 0xf4fa0bf1d8ff0011U, 0x102aedf609080e16U, 0xf9fd18fa1305281fU,
  0xfe080e0feefff824U, 0xed0307091e05e5edU, 0x15f10c01ec0fdaf7U, 0xea10040f0112fffcU,
  0x1ed1a1512c312afU, 0xefe605f9fcf200faU, 0xfa3afbf206131a22U, 0xffec3907fe11172dU,
  0x101314130814ed40U, 0x7f70af019e8dd05U, 0x1dcffe6daffdcf0U, 0xed041106fb1e0003U,
  0x1dc11fb00a51081U, 0xf5eb0c06d90f0001U, 0xfe28f5e90400032dU, 0xf9ea260b0a210d17U,
  0xf1618f3f80dde2bU, 0x1204fbf009f4f1fbU, 0xf5fbf2e6f0f0e9e9U, 0xfeffff0d0bff02U,
  0x1e20c01ffcdf6cdU, 0xfef1fa02e40000fdU, 0xf810f507ff0f0d05U, 0xfaef0c06031e1109U,
  0xb270506ee08f31cU, 0xed0a05fe22fde0eeU, 0x8ee02faf706ebe3U, 0x9f5f8f301fefff5U,
  0xfffcfc1410f61cbcU, 0x11e0e6f90dfd00f5U, 0xfb2a03051111fb27U, 0xf6f22a08f338fb0aU,
  0x242c070ef8fbed24U, 0xeff0ff21adae8f1U, 0xfbf6f9db0d10eed3U, 0xbe300df0814fff9U,
  0x1e6f50107fe11c6U, 0x1dff008fa00fff3U, 0xfc1a04fc1bfbf227U, 0xf4fb1607032cff00U,
  0x251d1606f904ec0dU, 0xc0206fffdeefcecU, 0xea06ede01500f9f6U, 0x9f2feec05f9ff04U,
  0x1e3fd01f701f300U, 0xebf212ffff00f5U, 0x13d30700fc17de0eU, 0x40eede14bb52f003U,
  0x184408dc08ccfbf1U, 0x29c7feff2a1f174eU, 0x3236d0fa11eb0d1bU, 0x15f11fdb09f60217U,
  0xffdaf7ddf336fdf9U, 0x32fd51300a0c0037U, 0x2d06f8f7e742e8cdU, 0x4132e9fa13ca4039U,
  0xf63c0c0e19310c0bU, 0xe6e5322446f41e61U, 0x2534db0f0d0c0b0dU, 0xfcd81f10b8ff0207U,
  0xfe05b2228c3f1afeU, 0x116fb3a2fcb006eU, 0x43d8f2ff1b31e0d4U, 0xbaece3f01db70f0fU,
  0xf60b1ae03e162a06U, 0xdd1bf03823dce1cdU, 0xb9fad52908b509f0U, 0xbca94307da4402f4U,
  0x14db17e5f630ffU, 0xe11ed518ebb5ff6dU, 0x49e6141c2a091a19U, 0x1e0f3135af28ff3cU,
  0x2337faeb12e5e0f0U, 0xa333e20f41474U, 0x223e010cf4d5064fU, 0x9e80c0b1bf3031cU,
  0xeae839e040fd29U, 0x2db51c3df5000156U, 0x420201fafa3cd9ecU, 0xf93123f504a04c50U,
  0x391106efdc4b0907U, 0xde0219441bfb1b55U, 0x17fce938fbe20008U, 0xe7d93223d60202fbU,
  0xfe29bd48901208feU, 0xe426bc0ffde90051U, 0x3fccf8cf0b0bd6eaU, 0x81f70ceb279b1de8U,
  0x3ddd18f9d7390becU, 0xf535cc1401efef9eU, 0xc4e8d119e7a615c4U, 0xc2ba3007f12402a4U,
  0x23e146eeac15eeU, 0xe520cb11f6ef00fdU, 0x502ae0071af62e04U, 0x2e102324c7ed2063U,
  0xfa260bff00b5f419U, 0xfa011f52feeaf062U, 0xf106f0290cbef51dU, 0xecd433d012eb0417U,
  0xff27e8260443d52aU, 0xfcce1dcd405011cU, 0x1409d8eef0f8b2d1U, 0xf7de190920d1f433U,
  0x38e9fb06ce240a1bU, 0xf600e116c426fb0cU, 0xecd6d336f4c30307U, 0xfcaf0a0cfcfa04f4U,
  0xff33c620bef50408U, 0xbcfac9efcf1601e8U, 0xe4c6f6c7e1f1afe1U, 0x8bd111fd5aa7d2fdU,
  0x3ed5d30ed6f1f406U, 0x101df3e8d22be48cU, 0x94f5eceef1b9f8c9U, 0xf09008f6e4f004e9U,
  0xfe14f032f8e811e2U, 0xf5f9efeeee3300f6U, 0x77151a124520280aU, 0x34d1e91328db1d1dU,
  0xf2fd3df90a07461bU, 0x1d0c19ff2605e81cU, 0xf0c160f180ff71eU, 0xdaf8052b1d180710U,
  0xfa0a1404e3fb1104U, 0x287345be08f00932U, 0x460e062bc90d1518U, 0x43e4f11716d8221bU,
  0xbdf25e80908f611U, 0x19351b1b1807ec1eU, 0xec19100a1904dd0eU, 0xdb191746fb0f1a32U,
  0x2252317f0f113feU, 0x246654ab0d03150eU, 0x141bee0813122610U, 0x3d1de30e24c22806U,
  0xf4d639f10eee252fU, 0x110204221410e425U, 0xd2fc05111300e01dU, 0xcc0f1039f9f10d33U,
  0xfeff110ff2fd17e8U, 0x423c3ad021d2160dU, 0x2c0819f61f0c1f05U, 0x21f903fa1bea0a14U,
  0xea0032c716f53906U, 0x622080d38faf90aU, 0x30eff0cfd05f01cU, 0xda030f122b221919U,
  0xfd1a0905f6e9130fU, 0xa7f120b34fb0715U, 0x290c1a0f0e04050cU, 0x22f305f322ef1c0bU,
  0xfed041d608ed0825U, 0x172f140511ffe313U, 0xe11a14180103eb12U, 0xdd17022d06260f3dU,
  0x418162bf0e902fbU, 0xf543eea40f91414U, 0xe12fb1cff1a2b0cU, 0x2aecf3e625c91ffdU,
  0xe63fca02f0f609U, 0xb35f9262001e521U, 0xc4f80e0c0af7dd15U, 0xd83a0e18e51b0b22U,
  0xf7251613e3fc0fefU, 0x2b1f14d646eb061bU, 0xb060e1334eb2007U, 0xbf6f60c3ae21b07U,
  0xe1ce1bd9f9002e0fU, 0x1e0efaf22512f40aU, 0x160a07130601fc1eU, 0xce380c1b1e331b0fU,
  0xf70c1007dffd0e14U, 0xde61e8f11ffc0509U, 0x3304150ed2fdff0aU, 0xb0cf8f530d71108U,
  0xe5c520d8fffe27f6U, 0x103bfbfa1b00f903U, 0xfa060a3dfafae704U, 0xc32d1226152b1215U,
  0x230c08dfef051cU, 0xc75bfeb8061112efU, 0xafa19051af61d11U, 0x13efe032d628f8U,
  0xd9aa2acefaf51924U, 0x1540010024f9fafdU, 0xf612fe17f017eb16U, 0xc544042c13311f06U,
  0xa0909f9d6ec03faU, 0xe24ffbc536f401f6U, 0xfc02dfeaff041c11U, 0xfc0bc4f6c102e611U,
  0xe4d31225fae8dd28U, 0x27c71b1504cfcb0dU, 0xd4081cf4fcf8ce17U, 0xc1090b14c9ca112dU,
  0xf90b0dffc424f3efU, 0xecdef4fa0bd611fcU, 0x20ab1e109030a0bU, 0x17e78cf0c31bf608U,
  0xf2fa1624fbfee31fU, 0x9001a0b0dd9db12U, 0xc9f61c040408db0dU, 0xc1000910c6a9083cU,
  0xe1152116df0906ecU, 0x1cc213fd24ca1103U, 0xe01ad22f905261cU, 0x1e4c0dbb415fd04U,
  0xff06f5220ee2d410U, 0xde7280af6dd9f0cU, 0xca0412faf7eaf216U, 0xe2020712c6e10933U,
  0xcd071607fd20f9efU, 0xad4f23106bf1100U, 0x20edcd21a093326U, 0x1bf181b39108ec26U,
  0x15fc131a1901fe0bU, 0x36eeeb0319d2e10eU, 0xcc0514ff1ee9ba1bU, 0xb6102011db070633U,
  0xe3210905a9170416U, 0xfabc0b170dcc14ffU, 0x812e4e315102d39U, 0x17e98fbec6ffee30U,
  0xb06252dfffaf118U, 0x2429f91718ddcc12U, 0xbc0f19fa1ff3e910U, 0xe21c4d19cee70825U,
  0xe51d1813af0df725U, 0x4ce023e0beb0f05U, 0x603f2ccf7fa3f2aU, 0x20fdb8cdc5eefb19U,
  0x1f170d1d14e70112U, 0x170102000adbba14U, 0xc5fc12fa11e6e217U, 0xd2152713d0d30c3bU,
  0xf0100a02bcf7fa12U, 0x10d7080619d414ffU, 0xfa01e9f607f51d0fU, 0x1de5c6dbd901ea0aU,
  0xdbcb11222a02e61aU, 0xf60c2015ffe3e407U, 0xedfe0e15f62bf816U, 0xf9201c09e0e70334U,
  0xde0b032e9ee8fde0U, 0x1dc114270d01ffffU, 0x719fe08fd092a21U, 0xe9d3bfbee5eef301U,
  0xd4d50e332705e024U, 0xfa33130a0808b907U, 0xcd010d040f28e51bU, 0xeb1c1921e2f30f39U,
  0xe4090738c3ee10f3U, 0x6dbd40718d51cfdU, 0xa04e936feff150fU, 0x2a05abc8e6e0ee11U,
  0xcede082b1efffb05U, 0x131105110ef6ea07U, 0xe5fe112cf71cf40cU, 0xc605221de5d4133dU,
  0xed15f729071d16dcU, 0x28daf22afeec12f7U, 0xec301b1ebe1905f5U, 0x36eeda08e5d0f70eU,
  0x110c041908f4d82cU, 0x5fbffb41626fc17U, 0x14e4e7f70224f4f6U, 0xebd7f306f4fe00ebU,
  0x3f1abc431e708bbU, 0x43053aefdf1901e8U, 0xd85812e7b43736c9U, 0x7fdfee1723aefa1fU,
  0xe0fef4fffec8f947U, 0x1223259b0e48b935U, 0x1016ce1b1a28f3e6U, 0xea090033e0e1000dU,
  0x6a0c00c000cd4U, 0x380e4bd4f8d3ff21U, 0xb1300e92d10fccdU, 0xdafa011405eaeaffU,
  0xfbef11eef3fe2712U, 0x2d133b3a13dbeb3aU, 0xd30ceafefa0a1bd8U, 0xdbe81de7fd06fdeaU,
  0x32af3fee6030e0eU, 0xe103f3fc0ae8fd39U, 0xd1172b20fa0f0d10U, 0x4be1ea2eea08ebe8U,
  0x224ed1f2ce2ea0cU, 0xf7e1f9dc0529deeeU, 0x13de150315130c1eU, 0xf0ffed0a09ec02fbU,
  0x4edd7dc46faf3d7U, 0x3df446ebed2500d1U, 0xbd472215e12f15cfU, 0x64f0fb0f32bbea49U,
  0xdf0ee92524b5f22cU, 0x23133bba0733cb51U, 0xcf13a510372cd5f0U, 0xf6d0042ce5f8ffefU,
  0x505badb2311d609U, 0x36de22d5d6effe47U, 0x170fdede40f7dce6U, 0xbb200cda20f3f72aU,
  0xf1cf01eafc0f241cU, 0x20201b48fff61b39U, 0xc8e9afd918f8d2e6U, 0xdfe11ff2ea0df9e7U,
  0x22afe1dcc050436U, 0xdb15b7fd14c5fe24U, 0xf8f22e1a15f9e61bU, 0x800ef1bf71d02feU,
  0xfe04fc1a2ee4e702U, 0xbf8180dee0cede7U, 0xbfe28fa02ff0b13U, 0x300010406fa0000U,
  0x7030113060c010fU, 0x9f51dea000a00e9U, 0x1ec0b3a2bdedde1U, 0xdb14fbf1000af141U,
  0xfae2ee0234d20704U, 0x392d263bf6041b1cU, 0xcc02d6ef1505e4e6U, 0xfdd10bd8f40bfeedU,
  0xfff9f721f621d73fU, 0xe7decdfcfc26ff30U, 0xef8e30432ffd21eU, 0xdf0b0ce5fcedf134U,
  0xde5f30810050108U, 0xe905072ffdf71bffU, 0xd9fbf2e630fde60dU, 0xfad51b01d20afd04U,
  0x2060e1302020013U, 0xd41fc80201e400faU, 0xb8df1df0e40af91bU, 0xb40a0197c647f014U,
  0xad33a11c40af6efU, 0x60021902fed67fbfU, 0xd7f706f22bf6e602U, 0xc3daeec816d10000U,
  0x18e6f7bd172fc9U, 0xda03fd60401600eaU, 0xb200ebceddee24deU, 0x25a2311a1e24d304U,
  0xfdfbf147f0e3c3e1U, 0xc1da2decd81ef1f8U, 0x3bb33d0819143a14U, 0x224fcff22e6000cU,
  0x3c21c0c0efdfeb5U, 0x1e110de53011ffd2U, 0xdbf5ecf4dc050eebU, 0x41e61b2c1bc308d5U,
  0x8040428150bcf1bU, 0x91f1becc14f7eecdU, 0x14a235d8d9023146U, 0x702d6f1e605012dU,
  0xffcf231f090ef8eaU, 0xf906bcd511ef00d0U, 0xdc28f7ee0e0bed12U, 0xf4ee21e0a55d05e5U,
  0xe4e9251ef0e5edecU, 0x54134ded0cdf58ebU, 0xddf526ff17dce926U, 0xdc1e1bd424bf0106U,
  0xfe0bfe0cda041ee8U, 0x1be01e520003fef5U, 0xcdfed0b7e5f220feU, 0x26b910394222e6c9U,
  0xda240c6f0cd6d6caU, 0xcbe152e2dc4ac5d4U, 0x2cbc17143e28fd2cU, 0xe72d12440ce6010dU,
  0xfed95b5e22fd0fbbU, 0xae900d301fc00c9U, 0xcadbf4c3dbfa14d6U, 0x1ce62f2d2ab5f9b7U,
  0x112cec03e809ed20U, 0x99f8cbc3f707ef87U, 0x8aa390a0510163fU, 0x141dcc2608fc0103U,
  0xffc5262a02f30de5U, 0xd2ea9ed62eecfdc6U, 0x1754e2012300051aU, 0xfd031df6d9340afbU,
  0xe32ff11f21dc09f5U, 0x4135a0ae5fa1ef9U, 0x4f61ff920dbf3f2U, 0x150a34032fc90007U,
  0xfbff1831fbf71824U, 0x41d30527dfffff20U, 0xfb17d0c9f3000812U, 0x1f1900052ffce1c6U,
  0xd543e82c0cd803cdU, 0xdb0e3bf4ea4adbd0U, 0xee9f608180dd402U, 0xea0d1d3b17d400f8U,
  0x2f140640cf611f8U, 0xf5eec9e9fa0800f0U, 0xdbf903dbf61214eeU, 0xf40a1bff1fe3f6d8U,
  0x738f8ecd10a1708U, 0xcffcfee6f21702b0U, 0xf4e543261320f92bU, 0x1612f4181bf6020aU,
  0xe80105e9ff1eeaU, 0xefeecff3280200ecU, 0xf10c120707e5f821U, 0xc1f826c5342b1c3aU,
  0x7fadfcd7cb19fd04U, 0x63140cd2ffd220dfU, 0xcc2d3cbf5142cf7U, 0xd4d3f7cf0519fdbfU,
  0xfdf4f300fb54c7feU, 0xc22ec41dbb2dffafU, 0xbcd3190df4c71833U, 0xc4fc11bd18460c1fU,
  0x3f9813e8cd2ceffaU, 0x5619dbe1e9dc31cdU, 0x89be6bef8103afaU, 0xc6eea1cf482cfde4U,
  0xfd23f5f6e268bb19U, 0xb023d91eba11ffc6U, 0xe8ea0605f2e80c0eU, 0xf0011fe5d417022aU,
  0x9df12e8ec13f4e2U, 0xf2f6e509f0220bebU, 0x1ad212f80e080805U, 0x6f9f3ef011ffc06U,
  0xfe10fb02ea25f001U, 0xe6fef512e321fff4U, 0x14031b072af3093dU, 0xf5e1f80d1d30051fU,
  0x42d8ebf9ffef0cf8U, 0x34ef1212100cf512U, 0x1cbc2d6110b022fU, 0x3edf8c724f301cfU,
  0xfe23f4f8396ed2feU, 0xf0480f10ba06ffefU, 0xf817fffede053dU, 0xe4fa03f9ff341df5U,
  0x21c7eafafcf7f500U, 0x33eef0f10d0a280fU, 0xf19edcb60cf5fc1eU, 0xeccbbe450e00e3U,
  0xff05fcf21c7fbe13U, 0xf9420826d406fee4U, 0xfef60af4faebfa27U, 0xf9100ffdd8190b2fU,
  0xfef0df006faeef7U, 0xf4f4e9fff81d0de6U, 0xfedc0ff219f3f202U, 0x4f3f4e7150a00f6U,
  0x1f61804f41df10fU, 0xf628e31b000c0118U, 0x21f8f7df1e0016f7U, 0x15f4ee40e0e9f423U,
  0xd412fd142406ed03U, 0xd4dc0d1f1441c21cU, 0x16f3e5231505c82eU, 0xa050805241302e2U,
  0xfd171b131121efecU, 0xe010dec01d5ff2aU, 0x3706f8d8030a1409U, 0xa00fd2dd0e4050dU,
  0xd90ffcf424d5dafdU, 0xd9ea17111038db2bU, 0xf0f2f0ff0cedb627U, 0x15f21ffb13fdff02U,
  0xfded1ffa1c30f015U, 0x24fd141df4f4ff1aU, 0xfffb03eb00f9fd0dU, 0x2303fd0ed3fb1020U,
  0xf90b07f51ef6f90cU, 0xe30afef10023e8f7U, 0xebfd0df906fce11cU, 0xf9ff1300080ffe06U,
  0xfefefaf705f60203U, 0xfd1ff4130ef6ff10U, 0x3ff2d8e43d300523U, 0xe52be60138021310U,
  0x3019472fdbf6282bU, 0x5e3b06d6d6dcb83eU, 0xd70950e33fb3d30cU, 0x1b4ef033e403f742U,
  0xf106301dea0209efU, 0x121e2b1d1e1f122bU, 0x3b19e50c55265732U, 0xdb27fd2032ed27fbU,
  0x4232fd43d3ef2025U, 0x57131ee7e7ccad3dU, 0xb23f3645520ac2feU, 0xd9562942cf1aea42U,
  0x42bef2cfae7d719U, 0x1e1205512e152408U, 0xde3323ed33f43e29U, 0xe319f10e3de9f53aU,
  0x3828283ed7ea4129U, 0x414f09d2cac5cd33U, 0xd6344d4932dfc8e9U, 0xd92604511805f247U,
  0xf810f20dd9f8e607U, 0xe60a162d27450c34U, 0x154721a34b364b36U, 0xd118edd3f9f62cc8U,
  0x33285249b80656fbU, 0x2f432816160ccefeU, 0xf7463d09112bc3fcU, 0x233d1b5310e5f13cU,
  0xe932365bc9d3ece8U, 0xcd2a1db8d8252048U, 0x3b4807b94c2348d0U, 0xdd5b23cff1f835ebU,
  0x434a4d54b3e43d05U, 0x345a13e73407c8fbU, 0xe45a50ecff22d428U, 0xe73c5a58d90df82fU,
  0xfa4e304699ffd7d8U, 0xd31f21c3361e1c57U, 0x403518b9523541ebU, 0xd17fd2f9fdfe2921U,
  0x2455374ad4f54fe4U, 0x381911ef3f000506U, 0xde404534e925d90eU, 0xbe2b2a352719fa26U,
  0xf9423403ead648e1U, 0xc12d22d039391d3cU, 0x22ab6e323d6ef2fU, 0xe4ecc728c612eafcU,
  0xfa14d43bc4ed2bd5U, 0x306438dad8d2f112U, 0xe83930e12301bd3cU, 0xb33e4f46372af1e3U,
  0xf2f218493a2dd91eU, 0x222b270f3923ff35U, 0x912c3cc20fa0f3fU, 0xda44be48d908e3f9U,
  0x27ebe73ccddd5738U, 0x4d6415eadec0e809U, 0xd75949daf70abc35U, 0xe7363945ef0dfe0dU,
  0xf01feb422728c3ebU, 0xc30a19d7321e0543U, 0x3931cacc23295837U, 0xe030bc39defb2ceeU,
  0xdcb2e2edde1461bU, 0x3e3219c4fbc2ef13U, 0xda533dda2204b452U, 0x952d332f072bf702U,
  0x316f13bf41c0132U, 0xb82a0eed333006f8U, 0xe292ef6ec4ae9e7U, 0x2705dedbfadd151cU,
  0x45f40edf0aff2a2aU, 0xf31ddfff59fa120cU, 0xd1f3001bfbc1eef3U, 0xbafafee20fe7030dU,
  0x144df16d9f423e8U, 0xe41000f81bb10156U, 0x1a1ddf1018bd8408U, 0xd7d0d020da1c0125U,
  0xd7f1d408418892ddU, 0x269b360b8b48f157U, 0x408ac0dd3c72d8c8U, 0x2f45e2912ae02a5U,
  0xfd0d2335f6dd08eeU, 0xfadb3310f9eefe41U, 0x1de40a140bbad726U, 0xdadf0600e0e209f6U,
  0xb9d9c1120cc4b9deU, 0x22e61519b022e205U, 0x1fda1ceb451ae9dfU, 0x2313352c2dfffdcfU,
  0xfdcef429ece4ef06U, 0xa4f1fe2502010007U, 0xf3f52efa0062f8ebU, 0x5202e9f519c90512U,
  0x4bf10de0b2334c25U, 0xb9309d0d51d634caU, 0xe6173d28feb32411U, 0xba0bc9c7fef4024aU,
  0x19e5e5fb08e903U, 0xff2cfdfa22f5011bU, 0x65f003deb7ec1f9U, 0x1b11a1f011fbf029U,
  0x1ef8e5f724ab4e0eU, 0x1bf30e047f1ee65bU, 0x1b03a82e3506efedU, 0xb8cb00d9f7d603a5U,
  0xfc16d2e8fe22ffceU, 0x1c052bf9c9f5013cU, 0x110cf01ffdb6b821U, 0xd7eed525e615111cU,
  0xc0e5f4f815baa0e1U, 0x1cdd2f07d932e761U, 0x2cc1e6b82859c2ebU, 0x2afe13381a0600a1U,
  0xfae0fe13f3faf413U, 0xfafa3b10e11a0107U, 0xdce025f90f0f01f2U, 0x361a2d29feecf0d4U,
  0x1e1206ccb9321213U, 0xba1ae9fd0ef03094U, 0xe21c4ff7fcb42a20U, 0x219dcef10080563U,
  0xfef4ff112419d611U, 0x409e7fb2a0cfff2U, 0xf60a0e3feb74cae0U, 0x2435dbc0f4f0db0fU,
  0x39ee1dcedff44e21U, 0xf442f6ef54e91621U, 0xd75adf3610d7fc32U, 0xb9eee3d4e8030313U,
  0xfd19b5d1fe2309e7U, 0x103c07fcefeb0123U, 0xed1afb250715fe14U, 0xe41fe00fcf350623U,
  0xebea1a0703c32806U, 0x17fa1811190dec69U, 0x160ab1e4221ecbe8U, 0xfc01f9f7fbfd01a5U,
  0xfc0bf4f7ef15ed06U, 0x16e644efc41f010aU, 0x1312f0e2cf1335e0U, 0x2e150d0de1eef204U,
  0xfd0413fdb414e242U, 0xf4fbf7e1f7e1fdf0U, 0xfe101329e9fa0d1fU, 0xdd57e90b0106ff24U,
  0x3ccaeecf102b7U, 0x171a2febdbe300f9U, 0xe5f8f7f7dee531eeU, 0x44d30e07d21edfe7U,
  0x2309d911f60cd622U, 0xdfe102cdea1110ecU, 0xfa2018110d030941U, 0x2e0ee1f703c8ff11U,
  0xf1330f08e4e9e3U, 0x1dcd05fed801ffdcU, 0x5e9fae218ced20fU, 0xeea0ceddf180b01U,
  0x808e01506e5fcc0U, 0x10a15ffe20304fbU, 0x61418b5220ced2cU, 0x182eebf711e9ff00U,
  0xffed3433e4dbbc2eU, 0xf8f2030d0fe500ecU, 0x1130270cba181deeU, 0x12093c0b00d3e9f5U,
  0xfe0e20d1a50d0359U, 0x6f9fac90accf40bU, 0x6e60710cd05f92aU, 0xe71ef4ffe5090206U,
  0xf4be8118f33196U, 0x432c19f8c0e901fdU, 0xe6055417e2e81f1eU, 0xfcff3c00f207cfbaU,
  0x32f5eb00dc01db1eU, 0xe1d605c8f0fa08d7U, 0xfdcf9f700120245U, 0x2fd0cbe1f9b301ffU,
  0x1c72eee3800ece4U, 0x18d20324d40a01a9U, 0x1c53bff12c8a43aU, 0xd20431f3070600bdU,
  0x21fdd81211d4f3afU, 0xd8ee1500e4f711e6U, 0x51cf78b0bf2f22aU, 0x29e2c8dc1ed601e2U,
  0xdc313821f2ba25U, 0xe5caf11d05fb00d1U, 0x6142815eafde915U, 0xf6fd301d14dfe51bU,
  0x90e04f1ed273626U, 0x150e06db0ad3030aU, 0x18dd03f6e815f5fdU, 0x7ed06fa070401d9U,
  0x1ef0dcb1b0037d7U, 0x2c0fee0df5f50103U, 0xc08592aef00f333U, 0xde1c46050b06f5d8U,
  0x2cf80efcdf18200bU, 0xfcfd06c50dd108f1U, 0x10d1fefef21ef70fU, 0x2abdddea0bd500f3U,
  0xd8f3ee2e1cfceaU, 0x1117dc15f8f2ffc6U, 0x18e83326fe09da36U, 0xe3062c11100203dcU,
  0x26edeffffc08fcd6U, 0xeafcf6dd00e513f2U, 0x80beada040803f4U, 0x29c3e2f315db01e3U,
  0xffee00093016e101U, 0xe9fdec040ef301e3U, 0x405ed1603ffe8f0U, 0xfef3faee10200002U,
  0x13ff0df9fe1e02fdU, 0x210bdcfcfbcfebf8U, 0x901fbddf30169f4U, 0xdc11e0f9e91b0013U,
  0xff0afcf8fc0df101U, 0xe41503f9dfff00faU, 0xf3f5fd06f1fe0dd0U, 0xefd010f1f0bfbf2U,
  0x131712040e07f80aU, 0xb01f5f6f8f9eef2U, 0x3fe0de6ec0c79eaU, 0xf80ceafaec0d000aU,
  0xfef8ebe20205ebf0U, 0xfdfc0aeac4fd00fcU, 0x7fbff0efffa05e9U, 0x7f9121e050506faU,
  0x111600000a180805U, 0x404f0fffcf4f5efU, 0xfdfc26fcf4054b01U, 0x2fef8f8f009000cU,
  0xff01f9fb0e03fafcU, 0x1fdf4f7e8f800ffU, 0x702ee19ff0af2f4U, 0x2eff3e8392df5fcU,
  0x2a120cec011012f2U, 0x26fddffefed0fa05U, 0xf4fc11e3f8037deaU, 0xe707eeecec13001aU,
  0xff05e9ee1c18e6f6U, 0x2160fefe203fffcU, 0xf3f7fb0af7f8f5efU, 0xdcf50409372ffbceU,
  0x2b1b0107130ef8f9U, 0x1bf3fef9f4e5faf6U, 0xc0112d9f60b7fe2U, 0xfffdf6eefe0b0008U,
  0xf0f9e92914edf9U, 0xf05eace0300f2U, 0x3fcfdfcfcf4fbedU, 0xecf40e0c1f05fff3U,
  0x1422f903fa19f900U, 0x8f2fcfef2e7f3eeU, 0xcf926fafc1957f3U, 0x1fd05f4fdf9010dU,
  0xf304f512feeff5U, 0xf9fdfdefedf600ffU, 0x101f3080705fbfdU, 0x4f80b012a10f6f4U,
  0x141503fa01010d02U, 0xf0f4fbfc07ef0a06U, 0xf60a26040b003f15U, 0xeefbe4eff6000fU,
  0xfefdeaf51e15f9ecU, 0xb0f0aeef8120002U, 0xe11f5030afee30fU, 0xcff908ff2d1f08dcU,
  0xd0dfe0610050ee6U, 0xaf4010af7e004ffU, 0x50e05f4140930f9U, 0xfe0303ef06f6000bU,
  0xfffb110d1f1df0feU, 0xf8050bf8060a00faU, 0xa09f8f00100f002U, 0xeaf8fff4150cfcfbU,
  0xc13f3fef30bf7fdU, 0x8f001f9fde9fef3U, 0xd0c0d08150935fbU, 0xf5fd0600fdf3000dU,
  0xff0504031404ebe7U, 0xfdff08f6f6060006U, 0x1725ec17062006ebU, 0xfea17fed80a1dU,
  0x1b0308110bcfec07U, 0xf07170dee0cd752U, 0x10f3c6020cff23edU, 0x11140d0ae3e4ff0cU,
  0x107e6e9e3f2fefcU, 0x1705f6cae40e022cU, 0x4ad846fd2d05ba2aU, 0x9974c7d5cdde3edcU,
  0x9b4efbdd4f3ee1eU, 0x1910dd33f5e125e9U, 0xeac1dce5badc02d1U, 0x1dd0fc95e44ffcc3U,
  0x105ace9b200662cU, 0xa9fa8d271117000aU, 0xaa9655fffe03df3bU, 0xd623d9e8cef9d4a0U,
  0x9d23de3cb25d8fcU, 0x4512cbff29070bb3U, 0x1fd22e6a4e7fff0U, 0xfcc017bffa2c03d6U,
  0xfecbc419ec0c32f3U, 0xe11dfa431b350116U, 0xe16ee232ff3ffd5U, 0xf2e70e051c0dd0e5U,
  0xfd15ef2e03ee1404U, 0xcf8fc51f2f0e636U, 0xd00d0ed29df03f4U, 0xfdf2f4efeeda00e0U,
  0x4090707e40eed02U, 0xe6fbdccf06170200U, 0x1004fcda3910db19U, 0xc12716e7e132e1caU,
  0x31f1c204bd350d29U, 0xfde7af5e140033c9U, 0xecb7e99ee8ae1efeU, 0x1806b381efce01a6U,
  0xffddd6e1da140817U, 0xcc08db182e1e01b9U, 0xd1d330f2fd2ef777U, 0x1f0100ffee02d6dbU,
  0xf7e9fdf89f2f02faU, 0x1f00d8d2310216bbU, 0x30e14d1ced1ec14U, 0x4f2daae07e103d0U,
  0xfec6d842fc180c02U, 0x1207094b451d01e2U, 0x1b0cd5fe2103ede7U, 0x7e2f90e140700eeU,
  0xde1bf513ee021e01U, 0x171afc370105f9f1U, 0xff23d7f719eaea05U, 0xd9090afdf5fd01e1U,
  0x404ef1108050b16U, 0xc9f801eaf3e202faU, 0xeb0cd100261707fbU, 0x24a1e75ef12dcad3U,
  0xdb5c033f0a07f910U, 0xbed4ef421de0e3f2U, 0x3e0940e51e000d49U, 0x1d14d3fad1f002efU,
  0x6f218e42716eefcU, 0xfe54adae5dd02d9U, 0xe14eff50405042fU, 0x3400ea5b10db090bU,
  0xc435f71b01fa02f6U, 0xff140d0bf2faeaf6U, 0xb233501f900ee2eU, 0xfa01e7efe0fc0109U,
  0x5f80af30e19f818U, 0x9d5081bdcd60109U, 0xbf32efcbb0dc1bbdU, 0x38ca0d40edc1e1faU,
  0xf00e8b071bcedffbU, 0x8f9e3abda47fa815U, 0x7b231022e823cbd6U, 0x2a164a66ee8bfd0dU,
  0x1d41b0203a132a8U, 0xfd132fd633acff12U, 0x322ae0e6efbffaccU, 0xbe0062304d22b01U,
  0xfa09870616b9f6ceU, 0xd3c223e79f2eba0aU, 0x46ff0425091fcde4U, 0xd0c433f038bfffcU,
  0xffc4261005d9fefbU, 0xd0fb16de4ecc000eU, 0x273d0e0bfbd4e904U, 0xc1ff05f2de0a1bf9U,
  0x15ede50c0bfb07ecU, 0x17f10afbd60d0a05U, 0x1e3ef02e413fcfbU, 0xf21007210700010dU,
  0x406efee0208f6fbU, 0xc4f217091df2ff0bU, 0x1612ed680dceca01U, 0xfcd0d1f1f1072420U,
  0x8395d1e0dcdcef0U, 0xfcb324e6e1c8cb2cU, 0x25d3e5e311192e0fU, 0xffe4ff0abc77fde6U,
  0xfe20fafaecfbbf14U, 0xaaa10ecee0affd2U, 0x34ec01410efb03f6U, 0xe3f2f1eef2f4182fU,
  0x190f611018e6eaf2U, 0x1bfefded14ded119U, 0xcad7d3f012241007U, 0x1dbf4efae6ffef1U,
  0x22fc6c6f507eaf7U, 0xd9c526f4d809fdf5U, 0x2c24f10a0402faf4U, 0xebf80c03fb0dfef1U,
  0x5ea11f4ea0c0c0cU, 0xbeef7fc07f11129U, 0xee07f2f7eb1620ffU, 0x13d5feedec0e0014U,
  0xfdfdf0def61e0706U, 0x1ff1500f914fef3U, 0x5205fe4313eecffaU, 0xcef1cbe609f93b0eU,
  0x1ff25af612140ef9U, 0x740ce2f6fbec3f1bU, 0xb3bdc0ecd2f636faU, 0xecf1f106d74500e7U,
  0x136d5dae81af308U, 0xd719fcf6d225ff25U, 0x11ef22230504e11aU, 0xd607dfe3f8061de0U,
  0x17ca3ef106250d03U, 0x4905f3e906e743f7U, 0xd1f3e1eee60326f1U, 0xde0bf6e4f93901f7U,
  0xfc31ddd1f313f3f0U, 0xd7280c09e603fe1bU, 0x1a0e0c170606cdfcU, 0x60dfd0e0cf90d0cU,
