/**
  ******************************************************************************
  * @file    network_1_data_params.c
  * @author  AST Embedded Analytics Research Platform
  * @date    Wed Jul  3 10:12:13 2024
  * @brief   AI Tool Automatic Code Generator for Embedded NN computing
  ******************************************************************************
  * Copyright (c) 2024 STMicroelectronics.
  * All rights reserved.
  *
  * This software is licensed under terms that can be found in the LICENSE file
  * in the root directory of this software component.
  * If no LICENSE file comes with this software, it is provided AS-IS.
  ******************************************************************************
  */

#include "network_1_data_params.h"


/**  Activations Section  ****************************************************/
ai_handle g_network_1_activations_table[1 + 2] = {
  AI_HANDLE_PTR(AI_MAGIC_MARKER),
  AI_HANDLE_PTR(NULL),
  AI_HANDLE_PTR(AI_MAGIC_MARKER),
};




/**  Weights Section  ********************************************************/
AI_ALIGNED(32)
const ai_u64 s_network_1_weights_array_u64[127392] = {
  0xee082dedc0e8e8e1U, 0xf7181b2205c0ebe9U, 0x1360340350bff2eU, 0xf3efce1ce6001a02U,
  0xfac2152703e3080bU, 0x1ccd0cf93203cfdfU, 0xd1804134ddeaddaU, 0xeb10e10e43cb16e9U,
  0xe5bdfd2000160422U, 0xdff9154e09f2131bU, 0x5082f5607d7eedfU, 0xf62dde36e738dff8U,
  0xd6e1db1dd455e7e4U, 0xe4f0f3fa1eddfc1eU, 0xf9c9f300da2026f7U, 0xfe07ef25d7d0052fU,
  0xdb0c02d5e4f6f8f2U, 0xce0f1be61a132f07U, 0x30e1ef0befc1ef20U, 0xed17e1f2d4e6f3cbU,
  0x43b90532fc38d1ebU, 0x13e2c00dd4dccaU, 0xc0ddc4b0e2fae202U, 0x1f28f629ece4ff23U,
  0x131b04f6c6f90100U, 0x53bf16f705f3c3e8U, 0xdfd2f824e9d917f8U, 0xddee11d0de6d9a8U,
  0x18210111e3223313U, 0x2ba1eee7d905eb2cU, 0x2118ca100114e01aU, 0x1314f63bf1ef0329U,
  0x160c19e6d7f7f805U, 0x18def4e302f2ee04U, 0xe313f1e601bf0d13U, 0x281616e8e449e1d6U,
  0xf3f2f7de181cd5f7U, 0x1bfb01eac828fa22U, 0x15c9d010f82604cbU, 0xf658062ff134c71aU,
  0x1ffeec101b16d8U, 0xf5f50bfff51c0e13U, 0xdde213272f0235f9U, 0xe3e317f61d2cf91fU,
  0xde3e62cc0dad912U, 0xede11d29ffd617f6U, 0xe11ae0fd150e17ebU, 0x5b5f0d1aad9aef3U,
  0xf00761083beff1f6U, 0xe07ffe31ffa4652U, 0x16b1f1e419fbd47fU, 0xfa1615dbf33c4bcdU,
  0x14f415e94f30ca03U, 0xa2e015c6e6ed101aU, 0x1340161ce6cb1d07U, 0xf2085402e9f2b542U,
  0x1cf405132700da5eU, 0xd9f8230cf0df2711U, 0xf2f6d3d0d2ede607U, 0xeb03291dfb11f5f8U,
  0x16ba3c0d03dcf81cU, 0xd1fc4805df4f1c69U, 0xd905bc13e1102a17U, 0x61d7ea1d56e01ee7U,
  0xdbe8cf28ec292dc9U, 0xd5e7fabd240208fcU, 0xd6f1e8ad1198ef11U, 0x292acc12eb0105f8U,
  0xfa2b16df60320d06U, 0x1a20f0f5d6abdd0fU, 0xeb2f0f480c0f23f6U, 0x46f0dcfbdff5bbb0U,
  0x140b10d3edbab933U, 0xec093e1708fce0caU, 0xdc23060bfee311ebU, 0x1213d0f500efac27U,
  0x5b15cde52f31e910U, 0x32c90bcedee7250fU, 0xfa13bb0c32f31630U, 0xeb26eadc45eeeee2U,
  0x19fe2b2af8facb06U, 0x193d122d1b55fdf4U, 0xdb1af4f40044fc2eU, 0x3ce5e0d71a053feeU,
  0x311df4e803b1c3cfU, 0xda00e28813fcebddU, 0xce12f832cfede407U, 0xf627162df5d404e7U,
  0x12f2fe0702f38a18U, 0x2518100e45cd10b2U, 0xf8b947e6d5eacb21U, 0xe2261a011044174aU,
  0xa9d4ffe6232efac4U, 0xe6342f12b201f1bbU, 0x2622fd2bcbed3158U, 0x2918d3f1f6233ce8U,
  0xc2f6ff2c21ac08f1U, 0xf0c6f205fa48cefeU, 0xb4212b2ab21bd7ffU, 0xe1040713f304d005U,
  0xc9fab52e20c25ab3U, 0xcfefede5fdfe562fU, 0xddebd50c0304e3ebU, 0x16ff602123efa618U,
  0xdcfcd40d20f22b21U, 0xeee307bae2c53502U, 0xe201d828130a2f20U, 0xabc728e533f01ce6U,
  0xfe00e5071710f8cfU, 0x16ebf614b7080aU, 0xa0fef6f707ca0ed0U, 0x32bcf918d6232bb2U,
  0xa21f411baf7f2e2U, 0xcd13f97feb06f2eaU, 0xdcf7e4430e10fffeU, 0x40d4b02c8a6f8faU,
  0x2431073a07ccea1aU, 0x3afe19e4f7022066U, 0x1c105cfc1816e8daU, 0x18e70cede8233150U,
  0xf4e815eafec8e00aU, 0xfc38d9353e1ff3f5U, 0xe2df46fbefdd1ce3U, 0x2e9ff001d2b0efaU,
  0xcb0ebe32eff00ccdU, 0xfd59ddbaf10c230fU, 0xf805c32d3b191751U, 0xff001610fffb0720U,
  0xb0ea021ebeeb0c04U, 0x410e0d7da3cf116U, 0x1622d5e0cf09063bU, 0x404c4f104de0816U,
  0x72114edf4f7f90cU, 0xe6fd18e2052b210aU, 0x71f22f22f0a0af8U, 0xfd000e02cee61605U,
  0xbc08f035c4f32411U, 0xe7ecdff11fc5d309U, 0xfa26d7e9f70b1c0eU, 0xc9e8f104363ff3ecU,
  0x1f3c01f31ebc0aeaU, 0x3e3e01e0ab1b1b24U, 0x9fffdf2b3132f2dU, 0xe613eec6fdf60608U,
  0xdbf8f53fb6e0f445U, 0x270cf012d5db5a03U, 0x1bbfc1101fdce020U, 0x34dda50e1be0f3e0U,
  0xc7c005fd2acd2cf4U, 0x4003de16401e81c0U, 0xd4f1d4eadde50008U, 0xaad9091506f0dbd2U,
  0xcf2bd623142707e9U, 0x6d6fd0ae1f414edU, 0xede7f611f7062109U, 0x3cd0a22f6c1d2faU,
  0xaf7a263922fd18e4U, 0xf10e3ef9e7deaf09U, 0x30e24e090bf0e5f7U, 0x2af8070d14eb5400U,
  0xdcdb4d031105f2d4U, 0x6013d225e1efd4ecU, 0xce10274107efc6f7U, 0x322edbdf1dedde30U,
  0xe2e1af200151812U, 0xe4c716ea2afd2f05U, 0xdd13dbeb0c05e62dU, 0xcdec8020bf01625U,
  0x3bb51714eb072103U, 0xf2a0e0e7e623b4c6U, 0x7ef1312f0eb2100U, 0xb110e80130bc0127U,
  0x3ed3053417d8e7f2U, 0xd3f0d7f3bb213706U, 0xee36f0d645fbfddaU, 0x3f3c7030be3e3f2U,
  0xbf4162f15eec806U, 0x3316cb20e9ee0c2aU, 0xe9ef05062019efdeU, 0xe9380ae1fc0b300fU,
  0xcab8e4df0600cff4U, 0xc1e012e20141effaU, 0xe9fe13f3350bdeU, 0xf1f22b200be827baU,
  0x16f0e8faf40509f2U, 0x23ede5f02dfb4237U, 0xd2c310dcead234faU, 0x19213f21d08f02aU,
  0xf727c920d0eb2e3bU, 0xe6e025eff2e1211dU, 0x3030e3eef28dce7U, 0xd5ff2fc510f4dd03U,
  0x15ed2ef6e00bfdcdU, 0xfdef1fc52206b51aU, 0x92c030002d3e9fcU, 0x36ebd6b433f7e3eaU,
  0x70517ffdbf6f35bU, 0x1afc1fb4ed072ad8U, 0xf7e2a813e209ffU, 0x38f613ef07f0d428U,
  0xf3cf08294bb02e21U, 0x40d219faeae4f6e2U, 0xf62d0cd8fbf1f5fcU, 0x3736dc04f41f0cedU,
  0xebef0e0ff1e5fac8U, 0x232b1a2bcde52611U, 0x34f5ced1ca0813f4U, 0x16ae2910fa0e0913U,
  0xed43f101ea49f915U, 0xa0303e3ecfdcfc9U, 0x8d3dae6dbf6232dU, 0xbae948350bfb3111U,
  0xad3eb0eced2f06e6U, 0x1cc70a0d021b1420U, 0xa123e443cc0134f8U, 0xef13f5fd09da0519U,
  0x30a033ececebff7U, 0xdac404c214320b22U, 0xeb071117042027f9U, 0x1e0b1313da57ad1dU,
  0xe0a2b51ef11add07U, 0xb816701522fe2ecbU, 0xe600a911e7f726e3U, 0xdc183e2e05fbd508U,
  0xd60cb00eccc8fbd8U, 0x25fb1ef9cd4ed10eU, 0x21fd2ce1eee2fedaU, 0x2afd24e2f2f2ebf3U,
  0xe443e7ff1ce0f211U, 0x1f2432387fee101eU, 0x2004f04120e8f7ecU, 0xf028d7fa14015811U,
  0x5f0ccf40daae6daU, 0x6e90114dde0ee3fU, 0xeb2037f7f5e000feU, 0x9ab8081327c31c03U,
  0xa208ef2b0ce21be5U, 0xfe2407c409bf2d04U, 0xdf3ffd070703232aU, 0xf72723f105d7f43bU,
  0xdbe9d501f2f0d234U, 0x1803c9d7bd36e21dU, 0x1813ce12d30318f0U, 0xe9c4121e085dac0bU,
  0x204e906f807dc33U, 0x14ccf8ea10e130feU, 0x7c919f0043b300eU, 0xdeb024f9ffbd1d09U,
  0x381f0f0fd41c0ed3U, 0xe60fd319f2e00dfdU, 0x11d2fa35fd0a2304U, 0xb60cedefdb260805U,
  0x471de0d5cb08ca04U, 0x33151713fef6ec44U, 0x1ea11f131d031814U, 0xecec0afc05ee1f2dU,
  0x1ebec09161a0ffbU, 0xcb09e23af14ecacaU, 0xe3273adcddf52ef5U, 0xdae855e1e7daf1e6U,
  0xbf929e2e9c5d1f8U, 0xe707dc0ccb391f21U, 0x17dbe3f626020615U, 0xe9c41e250cea1906U,
  0xdeeaed0b19e311b6U, 0xd53e5ef2b0d0811U, 0x1f10cef02d23ffd8U, 0xfa45050a19e42200U,
  0x4601c3e3dfec1b14U, 0x16ec1441171d0d13U, 0x292407cad4012318U, 0x20ebc6e31703ff0eU,
  0xfff4e52c01e413f9U, 0x90b0cf30417ef06U, 0xbbf412f11110d105U, 0x23bb380ff8d5190cU,
  0x90b1bf3e7f83a38U, 0x31bc117c4f117fbU, 0xbff034c14fce81dU, 0xfce92402f941f82cU,
  0x70707f302270cfdU, 0x2a3510edcff6f520U, 0xfd06121e34c62310U, 0x572b38d4ea2efb11U,
  0x92d0af604281912U, 0xcbf22bf6ce00e2e7U, 0xe4e903d2eb0f10c8U, 0xfb1cee2a0cf3b415U,
  0x8cd3713ebf400ddU, 0xde16ed1f15cd0e1fU, 0xec24bbcecd0ff7f5U, 0x1f0d0104f22cf9dcU,
  0x9f1fd02d501f009U, 0x101ae0fb22f5dfd2U, 0xc6edd213071ec23eU, 0x191017d8ead421e4U,
  0x3fefaddfb06fdf1U, 0xc19b51307a7eaabU, 0x8f3f2e9fc06ed15U, 0xf2cd0402f30f15fdU,
  0xff242cf42607e3faU, 0xcfff6210e1525ceU, 0xe01c14c70df325U, 0x30ec0df1fcf21ddfU,
  0x21f51df31d0dd7f2U, 0xf40e05fd1ae3f9f5U, 0x10fbdffb30d22f09U, 0xe6d7e2fe15ef0414U,
  0xfbf80df8281dff0dU, 0xdf24ede309065081U, 0x3c21e9ed192513efU, 0x1ed1113be10de5beU,
  0xe0f91e2c081320ecU, 0x310b0e05fe11132eU, 0x1d22f0fcf1e00eebU, 0x820d325e6dd0f1cU,
  0xee0f5ea08e82941U, 0x9f3171926200502U, 0x1c57f3f544f5cf46U, 0x15edfedceddcfe46U,
  0x24220cca16eaeef4U, 0xfbe527d8aedfeaf1U, 0x12f5301625ff2034U, 0x940e9182e2716f2U,
  0x2eed0ebf14073be2U, 0x5eec525fecf382fU, 0x1ed2ba49f6f206e3U, 0x39f2ef331828f528U,
  0xf01beee4a3ffec07U, 0x4138fe110b0df31cU, 0xe3c4c52c1cf41609U, 0x1fd3f2f7f316d915U,
  0x82b300ffef429d6U, 0x404eecbdedd40fcU, 0x321d0e4ec46b100U, 0xe052e0430596e404U,
  0x49fd4f2409fb0f08U, 0xfb16d5ee29e52c11U, 0x351a3c1beacbd6ccU, 0xfc20f5e5cce5e701U,
  0x15e7ac11e2170df1U, 0xedfdead9dddcf0f3U, 0x2ce7d91ffacd01e6U, 0xbc32b0e51a291c4aU,
  0xe6f1151633b21de6U, 0x2e1ff51f5ae81a44U, 0xf32feaf9f81ee018U, 0xf81de4e929261b02U,
  0x170439aa01ecdafaU, 0xd203e587112c17e0U, 0xe2e0a412f9084cfbU, 0x2de3ecc1d5330f13U,
  0xaafef50bce18072cU, 0xed71bf42c4afaf9U, 0x49ee09d704f10d01U, 0x169c24f817d1f5caU,
  0x1505c62c1e09ce1eU, 0x3d17ffe71bf6feU, 0x320ad6e0f6efdf17U, 0xc9f29ef30a12bfedU,
  0xe61ffe01eec80c1aU, 0xd0fa4481f32109ffU, 0xf9ccf6f51d173223U, 0x98ef10fe20f7110cU,
  0x42041c3528b4f328U, 0x23e9d8fc3411c5bfU, 0x713dda2ffca4e2eU, 0x1bed05e402faeaf6U,
  0xc3060d5fc00ffd3U, 0x2ebe90b9fcff20dU, 0xea39f410e1dbf0d2U, 0xeff5d04e11c0717U,
  0x23d2cc419221bedU, 0x20161614eb5f2bc5U, 0xc06ff25d9ea02f6U, 0xf1dbf9040c35e20dU,
  0xf8f31bef17df23f2U, 0x2bf428000108ffceU, 0xb3eb01f96501fd21U, 0xd4ec2c1e192f092fU,
  0x131d50d82500d121U, 0x62355dc131028ddU, 0xf017023213232501U, 0x1b00f312022218e8U,
  0xf5f437a720f5101fU, 0x332618f5fb4565d5U, 0xff4120c7fc192021U, 0x6bf18b8e21d28fbU,
  0x141ae5f8dbb107e4U, 0x1bf00609f0e7f223U, 0x1a1d251da7d91b25U, 0x33193c351bf9a116U,
  0x17e13be71c372fecU, 0x180bb71cbb2904fbU, 0xe0f3f9cd12b80ceeU, 0xf381e3ff73904e4U,
  0x5eedff6835a81905U, 0xeb1a0bd10946d1e4U, 0xf0bdb8ea1f6f4616U, 0xaf24dd08d5943bc4U,
  0xde31d413f0fa011bU, 0xc644b6fa1314cfd2U, 0x47e4dce7d0d01b18U, 0x1e33f2e417003708U,
  0x14aab8fad5251469U, 0xf3e6fa24efcc3c38U, 0xfad5ced8f12c4448U, 0xe745e82b06feb5e2U,
  0xc50f11170f49fc41U, 0xcabc0cd127023633U, 0xaff510070dc9d7bdU, 0xe5f90f033e5e42e8U,
  0x3737fcf2c1f23cd2U, 0xf7ca34f801c6e4e5U, 0x44a915091626c020U, 0x2a54f444e8f0180aU,
  0x2fd13b0abddad142U, 0xfe1004e80843f638U, 0xf271d9041de05020U, 0xf9b834da0ad40f04U,
  0xe3af2bfbf429e53dU, 0x1bdcc3fc1c4a1a5bU, 0xef05e4ee1ace0024U, 0x722fedc32f808e4U,
  0xf22b013443ea00e3U, 0x39cfdafadbe9dbfcU, 0x10f619bacb071d3cU, 0x454ee89a062bd3e8U,
  0xb57e6712fe26836U, 0xe4c0d5be2155d929U, 0x12140d14d541c597U, 0xf91f1947e6e2d424U,
  0xf1ec212213d729d3U, 0x45f8a94415e53cd7U, 0xb9f128fff8001449U, 0x115ee224e1f72beeU,
  0xe1291cf7e0240e1fU, 0x1e8fc8d09ffbf755U, 0xdb1512d9f6662803U, 0xe9fabb1be21eecdaU,
  0x7fb9d1e7320a0430U, 0x2e2df2fbd842e6c6U, 0xe019eb2fc2a4b73dU, 0x311faa5d171a0a4bU,
  0x52debdccd327c8d9U, 0x42263005d6b8fa2bU, 0xbf2a0f0bc1ea346fU, 0xe91e1810fa0be744U,
  0x1e2310ce36e9e8f7U, 0x4f40a1c272bda1dU, 0xaae1e8d30f290709U, 0x20ef2110e4c524d7U,
  0xf53507311eeef113U, 0xc79bca192de90022U, 0x21ae2e35a1c063ccU, 0x10c3290df5addfecU,
  0xbe8f6b6dcdcf4f8U, 0xfc2ffe0426f5e561U, 0x19c5650524e7e90eU, 0xb72f1be6250bfff4U,
  0xdf30ef5fa3d2b04U, 0x572bf7f6040dd805U, 0x1fde2fc5e6ec1207U, 0xe504e6113628eef7U,
  0xf91707bc1615fcfcU, 0x1d2a2cd10c1ccef2U, 0x10f5eefe37ea11f5U, 0x320ae5ff0bd2fb45U,
  0xfebdc7f01a484d01U, 0x1b13212ec0ecefcaU, 0xec0724faef07f926U, 0x4defac4c52ed934U,
  0x4cfd0a1dff291fc9U, 0xf62eee40f8235548U, 0xe7281318fef35d32U, 0x2f1be22938e3c2eaU,
  0x131510e2fd11dbf4U, 0x1b07dae8c9dc5229U, 0x22f9eadaf8f82cd3U, 0xb9f9e9ed0334fe30U,
  0xded532ff053fc4f3U, 0xc2331ceb2004f8f5U, 0xd0b1a1136f20f3cU, 0x37581de7e10fef1aU,
  0x813e1da114be32eU, 0x10ea45fa21e61f28U, 0x42fed460ecc136cU, 0xd2192a40faf31f04U,
  0x1efe25060f03d200U, 0x1107df2b1a1ae806U, 0x380f1ccae0bfc12fU, 0x32ed3a3705ebf6d1U,
  0xc3e7eefcf0d7f602U, 0x19fe20ff4cae3eeaU, 0x3b0afafe0aeafc15U, 0xf5c4f3e501310d05U,
  0xfaede8146e0de403U, 0x63321330f5cfade4U, 0xeb2029ef211ae1fbU, 0x24cccfc3d4161219U,
  0x1200caf9f5260bc9U, 0xe8e5fdcba60e3602U, 0xd1c8b8e4503d22eaU, 0xe3e806f8ede2223aU,
  0xf831150cc60be224U, 0x2811dee224fc115aU, 0xdf36f811e200faf3U, 0xd66b0016c71f4c0cU,
  0x3b2a460efbf0d4cfU, 0xf1ff0a31fd460499U, 0x2c09f73a00e1267fU, 0xf2de6dc2a21ed08U,
  0xed25eefe0714070dU, 0x20f0f0d3fde101e8U, 0x36e205121c111922U, 0xfafc21ea01eb1cffU,
  0x4fbe4151b1707d5U, 0xbda18f521242c19U, 0xbad90208f50d1ae7U, 0x40a0afe08e204fbU,
  0xf436e6f9eced22d8U, 0x110dea1cf319fddaU, 0xfcd9ff39e7fde8fdU, 0x190431fe0bca3cedU,
  0x1afded130d1000f7U, 0x37fc01e905ea1be9U, 0x173c55f71207e315U, 0xf34d0a010f12f20dU,
  0xec25f3da16f8f2f5U, 0x17ee19c11634e7f0U, 0xcdfb3f1ce6257ff2U, 0xf0f3e0dceb0ed513U,
  0x4803c209431cfdd9U, 0xbfdf0adfa03e900U, 0xff07f41032011cf0U, 0x10e7f70d29100efcU,
  0xe32707190b0f1e3bU, 0xdbe712df1c04071bU, 0xdb0cfaf14509b016U, 0x24e5dee60a02fd20U,
  0xceee5f0052a02cdU, 0x2fd8e6f52b5736cbU, 0xe8f32002f10e0fdeU, 0xdee3f112fa0104dfU,
  0xf8e60cbf00032e2bU, 0xffdd08e1e2020a1fU, 0x140629e6c9fee6eaU, 0xf6f90b01de1420U,
  0x11d208c602d0061eU, 0xae11ae00dfcbdaeU, 0xc0e6ef22e41e18f3U, 0xaf2a19e9dca8eeeaU,
  0xed050ae100e206d8U, 0xed03befbdf1d0fe7U, 0x20dfe0252100bc16U, 0x34f416edfbe8f236U,
  0x19263aeb100aadcbU, 0x9e52507e4e909ebU, 0x3ff913e3eb17f0dfU, 0x2fff010bd1f31fe7U,
  0xf400c4e4d0084b0fU, 0xdcf1ff332a060cd4U, 0xda253a2421eaf0ffU, 0x251c0d2efcf735f9U,
  0x2ff41dd6151700ffU, 0xfe08f4c214ff480eU, 0xc008db1ff603ed00U, 0x290bd2e2170202fdU,
  0xd3fee9f9df0f09dcU, 0x160f21f901d71d3fU, 0x1f6eef313f9210dU, 0xca09e8f2fd0fcd15U,
  0x8130f2420f6d1f4U, 0x1b0ff202d8e60fecU, 0xf8e4eff5e722175eU, 0xfaeb270dc7ea13e8U,
  0x2606fded0eee24f5U, 0x36ddbd11cc2d2d41U, 0xe8deffed2a25e2U, 0xe613bd142fc121f5U,
  0xe00036eb07ce0d14U, 0xc8f4f32ad110e2fdU, 0xf9f604f6012a0c21U, 0xede5e60bcbddfacbU,
  0x37c946ea5019fc17U, 0x13fb04f225fb18d7U, 0xae408dd03e2090cU, 0xd512e9e61bc7e608U,
  0xaf0216a81db1d4fdU, 0xfeee5d41710f006U, 0xf8f8df0de4e7133bU, 0xfcd0e7fc02301cedU,
  0x2edbf40d33fe2605U, 0xe11f0b2029392b29U, 0x2044f22445bfea13U, 0xf8240fe5b8111f06U,
  0xf116feefdd21f8d0U, 0x2e35690c411efebfU, 0x11db13e9be271211U, 0x2db50321b7213216U,
  0x1915d4fcf3f82ff8U, 0x1746db06dc0bd51fU, 0xfdcc3ac3cc36fcf8U, 0xf2b1f7fc16361e19U,
  0x5201630d3c30d5f5U, 0xf161a0fc9edfc1fU, 0xc9e432ea36c02a0fU, 0x8f3f3bb09dcf466U,
  0x372ebdbf1fb203d4U, 0xcd35f3e3fa46ccefU, 0xfa07ee14d32514eeU, 0xdbf927df07072b48U,
  0xf509fe08f415cff6U, 0xe6d20c2bdee0f134U, 0xf62bdfe3ec1607deU, 0x7fcadbe43909edc9U,
  0x2f804030f3bfa02U, 0x28131839f53ef7caU, 0xd70dd20fe0f3f214U, 0xdd36fe14ded223ccU,
  0x300ccbd11efef2a2U, 0x1e4310b05c91ef1U, 0x1226c4e703dcf9e3U, 0x19e1ffd82156f507U,
  0x4e9aaf201eba716U, 0xbef81c30fdc5db03U, 0xcafc20e4e308f10bU, 0x1b1813fa07fb2dddU,
  0x1bbb0f21bdfed505U, 0xf8d9be08d920e9f7U, 0xc90cfb25fc09c7f7U, 0x350b201e4ad8cd12U,
  0x1802fa15f3e615c6U, 0xc5f00c19caf006e6U, 0x8dc07f11a213020U, 0x1d2047d644f3e8dcU,
  0xe0cd071521ed2f31U, 0xd824fcefe81f0508U, 0xd14ef4130ffe17d8U, 0xc4f9fafaeddef2c2U,
  0x131af3eed3de1bfcU, 0xeb081fd2ebf13f0eU, 0x9121423011410ffU, 0xfcf8e908ffd6f202U,
  0x43508fbf403bf0aU, 0x7d7f1ccd7ee0ec9U, 0x3e1d7e822f105d7U, 0xd41438eb14f2d3ecU,
  0xd1fae703c62affecU, 0x16e91821ea1fee22U, 0xf14fec11e0b1605U, 0xf1fa19fef8f6f6f0U,
  0xbef20c13e70ef2f0U, 0xd0db10dfe2d4041fU, 0xe4082e0bf50738c6U, 0x50bfd0803d40942U,
  0x32aef1bd8f2f3ffU, 0xafa3df9eff206e0U, 0x4ffd02c11051cf2U, 0xdb812eddf0d71cf6U,
  0x17eac607160be64cU, 0xeef0f33a00022214U, 0xff2309d6210114edU, 0xf9f7d03a0be3360cU,
  0xfcbbef0217dd1010U, 0x35f92816b0100926U, 0xfcbee216ed3df819U, 0x1ee70f150b1401f0U,
  0x1cdaff040cc80bdeU, 0x1de10d17fee732e6U, 0xe3230c3109151c12U, 0xee5830fd12ece1f5U,
  0xc31b2cfdcb1408eaU, 0xf50314f0220b2103U, 0xe172e3f0514cdfeU, 0x26f5e516d5dfdf23U,
  0x1c2e28edf1020bf2U, 0xb29d9fcc2ece520U, 0x3bd9f4fb23fd0d1eU, 0xc235110d0c6b11eeU,
  0xd8f7fc191cf113f7U, 0xd51928dafccf0cU, 0x23f71919f416e509U, 0xb51b07fa23fb4229U,
  0x1927030afdcd07efU, 0xf03205db0c2af90dU, 0xdf1311f812f5e717U, 0x2506d20cd8f2eae0U,
  0x12ffed031ed1e410U, 0x1501f0ff08d902fbU, 0xf9171e1cf4fabbd7U, 0x203080e25f9f7feU,
  0xf80f03e51948d912U, 0x606cb351bc0fbf3U, 0x2a2a1503e700edfaU, 0xedaf2d114ef15c0U,
  0x18142f0c000ffdebU, 0x1df50bff092e05eaU, 0xe403f1de2d14fbd2U, 0xcb825f7fde11001U,
  0xd90701ddf125440fU, 0x1f1211321114ebfcU, 0x172309031b001c1cU, 0x10ac51ff5313818U,
  0xd9f0e7fefd08f9c2U, 0xf6fdff02d7130d1eU, 0x4725d1e502ddf33aU, 0x13eabc292cd8b621U,
  0x23e117edfa29fdf5U, 0xefc9eaddb6df6c15U, 0x1220dd9731ed1b0eU, 0xf71ef2fb0cee15eeU,
  0xed51fe1af8f1fde5U, 0xc0f2f2d004fdf60fU, 0xc8fadd57ce18110aU, 0xe7d5c0d51ef5fae8U,
  0xdc4c00cf19d80dd0U, 0xab020bb833cbf3d9U, 0x10b0522e6ebd4d8U, 0xd4172f3e23450004U,
  0x321717eaf5f6090eU, 0xc411f9d8071414e3U, 0x7e81648e70e0b0cU, 0x13ecff0211027f06U,
  0xf99d180fe70ac168U, 0xfe2901260ee6f500U, 0xe707e42ee800ea0eU, 0xd2cacd0aca2523ffU,
  0x11cb271d64dccefaU, 0x12fcfcdb2de32ddfU, 0xf8eafd19e539c710U, 0xcf2011700e328cfU,
  0x36ebecfb2a3cf81bU, 0x646f4371011e409U, 0x28fd2b0cfa061d03U, 0xc1f717db1cfb07f0U,
  0xee0eea1e38d719f9U, 0xf010eb2d08d622fcU, 0x3f322fe9f41a10fcU, 0x38290c2feef010e6U,
  0x60f2bed0ff326eaU, 0xe2511133b11c09fbU, 0x451915ef0a5cf913U, 0x53f4f7efebd7c710U,
  0x1a0cf71be2f80038U, 0x2340a3853f70bf6U, 0xb1103208fa07ccd0U, 0x33ea1d54c107f726U,
  0xbf1200d21e04d21aU, 0xfaf2ef1515e519fbU, 0x4600f8ba0ffbeadbU, 0xd533ccebdb14ff25U,
  0xefd63fee513109b2U, 0xfad803153605e1a9U, 0x2d56ea0c0e32ff25U, 0x30f1bfddf05da0cU,
  0x21271a22f8ae22e5U, 0xdf11bf2f90addeeU, 0xfcd3ec26e31ef8e0U, 0xfb051bee5104fee3U,
  0xe703f2d3ea01dafbU, 0x24eef5cddb1ae8f7U, 0xc9e508f70e1b2531U, 0xe6f536df4a110618U,
  0x21aee6d40dfe1714U, 0xf2ca26e6e438efccU, 0x2ae0ce17f65cf402U, 0xed02f5e90bf727bfU,
  0x516c92e22101418U, 0x1df803d602110d0aU, 0xe7f7e7fdf8db09f7U, 0xd209ec1d2403e218U,
  0x1dff0d32e9f8f110U, 0xdee42801eddb1612U, 0xcb45cc157f1519f2U, 0x1fe9e82822f5e62fU,
  0xf32436d818273626U, 0xbd0b0bd8cbebc232U, 0x1f040d18021b0524U, 0xf208f238e20c10eeU,
  0x41f1408e6f2dcb3U, 0xe4d719bddad70df1U, 0xe6fc280237e40403U, 0x131b35e3dcf206ddU,
  0xbe10c7101f17e3d0U, 0x2a101edef425e5ffU, 0xcd3836e2fec609b2U, 0x5e6fae736da2119U,
  0xcae5f720100b0ec5U, 0xe8e40f1edec8b9c4U, 0x1a09f0f614301901U, 0x10f5fdf8091e3c13U,
  0xff2bdce3f5ddd2eeU, 0x141613f8f6247d17U, 0xe8a3e1fdf8b3443eU, 0xccdbe2ffeab1c405U,
  0x2ff8f45fd4382f0fU, 0xdec5e4023319ebfcU, 0xf31bf20028f102c2U, 0x14117e7081aee43U,
  0xe244a327f2f4e03dU, 0xf9e900fdf7310ac3U, 0x421fab6ebfe1511U, 0xf70c24cf2c0e14fcU,
  0xfec4c1d17b61f2fU, 0x1f55d1f35ebed35U, 0x2c00db3811baf6fdU, 0x1aaa261ce2fdeef6U,
  0xeff9d9e9e7c2d41fU, 0x42c9d1272bfa1ce4U, 0x10ba1549ecdef8fbU, 0xe6c52af4dde3ee1eU,
  0xa6130d13e2e5b4f9U, 0xfa100a0ce225cffaU, 0xfae6d0cbd9183ddeU, 0xcb320bcf15dfdcd4U,
  0x91a1536f035e307U, 0x4cf32008f5fdf19fU, 0xdebf4d7182af5e8U, 0xdef6f7db1d37d4d5U,
  0x1cf6c9220e0cf7faU, 0xfd08d5fbba07fbdfU, 0xb613e5e6ebca34ffU, 0xdbf503f535fbc521U,
  0xe6faf2f5f605d503U, 0xe0e0020d1fe70923U, 0xf0d214c41a1ed1d8U, 0xf907c44603e8120eU,
  0x5a09f71a042e3445U, 0x2a8afb1f10c41f0fU, 0xe420091de03ceeeeU, 0xfceac7f2060420faU,
  0xb31404f2d0f7e252U, 0xf9a50cdf350c2d5eU, 0xca5d04f20c25fdf9U, 0xabd31ec02f3ef0d8U,
  0xd624dd316120f821U, 0x6fbdcb1c3ffcb38U, 0xc97344a61ddef297U, 0xfe61d26101a123cU,
  0xb021fec7cddf516U, 0x332bced8080a1025U, 0x4af52625cdece8f0U, 0x30feeb95151c08faU,
  0x29e4c3163d0e08f5U, 0xdf4028d310c505feU, 0xf723e61898d955e6U, 0x3717d405fc081c03U,
  0xc855cee7365beff3U, 0x1202e9f10bdafc36U, 0xc32628d6e41b31a1U, 0x7f344e405256d03U,
  0x25a7220c50d43b36U, 0x801482f3a0fe316U, 0x1c5fe10106da08fcU, 0x2d80912e55a0413U,
  0xc3ecfac0dcdcf943U, 0xf8d307d2ee4fdfc8U, 0x1ff222e6d6bc5bf8U, 0x2de70b2df3d6fad9U,
  0xd2b0f1d409e617fcU, 0x1edef7da161ae6d7U, 0xe6e256effb0a22cfU, 0xfedbddf41ae71f1eU,
  0xc307e4c31e9de9eeU, 0x1308c71fce2401bfU, 0x11a5c7e3be0f248bU, 0x67ae2228d8e7042eU,
  0xf2f3db3bd0ab3bfdU, 0x40e4f1171f33d638U, 0xc5f9022cfe292210U, 0xc72a1dc6be41dc32U,
  0xde16e7e0231cedfcU, 0x46d7033bf79202fdU, 0x3edf0f91d456cd8U, 0xeab902d60d34eb11U,
  0xddf4badd10fdb5cbU, 0x2c2cefb499fa450bU, 0x14fe358d6d182fdaU, 0x20e4e4b803f1fcf7U,
  0x4fd24ec181a3332U, 0x630a0d222f231eedU, 0xe7f8f0f319f4de0aU, 0xd908292722841c18U,
  0xcfe60459e5eeeac8U, 0xa71a2ff50a170114U, 0x31af97cbdcb30907U, 0x22982ae42eeaaafdU,
  0xfae6e125fae53914U, 0x24e602f2c615f706U, 0x14ed2bb8d2664ff9U, 0xde1df1f4913002c8U,
  0x14ca1206d511c73bU, 0xcae54b210b151ddeU, 0x77de20e413f90b23U, 0x4fbe37d62fed5081U,
  0xfaee1e6acee1f1edU, 0xe3c90c09dafecae1U, 0xe6e5f0c3101f0024U, 0x1f06311418a88d03U,
  0xf7e3e80622e88c29U, 0x2eed30e40336f1c8U, 0xb2e6ea1ddfedfc28U, 0xe92318db331b1e3bU,
  0xc100eb199220ff02U, 0x17e4ec25fadaed0eU, 0x25f2fdd9d4032ce6U, 0x10471de4e00dfb2dU,
  0x3d80002f2f5f7f3U, 0x953afe7f16e500f6U, 0x10eb1030fce41ce9U, 0x2639ea1df1f9f53dU,
  0x34d01f1727b5dc03U, 0x30070968160eb31eU, 0x7c7fb2bfeaae304U, 0xe10208d7c0382c0dU,
  0x57da121a3e3c36c9U, 0x90b2521e42807baU, 0xc00aee00e6c4f52fU, 0x33cbf2ed0cef0521U,
  0x202919f70625d004U, 0x5e9ed1b30fe27cfU, 0x131cc91a113bdbe5U, 0xceeaadb81b0905ccU,
  0x17370bf0044add08U, 0x29a2b624e201f0c5U, 0xf5f0e82cf225d83fU, 0x1df1f6101a1ff9bbU,
  0xcfe6fbf6fb22ebcbU, 0xdcd6111f2bff03e8U, 0x4201d818f5ee0fd4U, 0x27144705021fee9dU,
  0x220509f122f1efe6U, 0xffd113bc7ed2f0dU, 0xd3ecd0e5d7ee19f5U, 0x2009d4d9f0c5272dU,
  0x2029ecf8010605b2U, 0xcada0de516f1f2f6U, 0x311335e6164ac4f6U, 0xf72d2defcfea2637U,
  0xc0e52ebe161220f4U, 0x1ad05c1406f22301U, 0xe5d5e7bbf317094aU, 0xdbd51a2d2bd4bb01U,
  0x9c7111c3c02f5e6U, 0x2618c998f3c924b8U, 0xfb5f9929352fa2d4U, 0x14f924bbeaedea35U,
  0xe415000cea0e29bdU, 0xc3e8000f1b0af550U, 0x1cb53d20fbf81f14U, 0xf2b1623c4133b34U,
  0xdf46bd15f9010bc1U, 0x3b18f7ee3ef8e3eeU, 0x4203d3320ff160dU, 0x231bc610e7eecf09U,
  0x24fde227d4ddadd1U, 0xeb4edc08f00af5e9U, 0xf225efe0fa3e1a46U, 0xb109f134dfe228e3U,
  0xddd3f52dfee4c72bU, 0xf31e0c9231de544U, 0xea2fede1f0face1dU, 0x3cf409ebb8fb06feU,
  0xfdfc1ff22dfd13c1U, 0x55b5ef0be5363d29U, 0x4f739241c122fe7U, 0x4db3039c21c3ac8U,
  0x1e0404fe0fae4436U, 0xc4ccee00d5ed3cc8U, 0xf0eee7e654e60413U, 0x3e6e25fef7ecb807U,
  0x3d431f0940cd2a09U, 0x2edcd3dfe7cd27ecU, 0x120512ace535dcceU, 0xb706fd0af64ec3d8U,
  0xebcbe5060b1007e4U, 0x25e0fbba0fc1384cU, 0xf92046c4bebce808U, 0x3eab0326d4eb19c1U,
  0xd1fdfefc0ebdd1cU, 0xd3c90401ca413f0bU, 0xebe415eafd3529e0U, 0x1b27e2cdf0da19e7U,
  0xf0da1ef0320115f5U, 0x26f8f535defb0a00U, 0x31e3a09d3f0b5f5U, 0x3c185035f22800eeU,
  0xe545e4063d27e366U, 0x3161047f251fd41fU, 0xbedf80ed01d38ddU, 0xdee1294326bcfde2U,
  0xf60c271c1be60293U, 0x24e001c0f4eecfd8U, 0x2d1ac62e0247d4fcU, 0x7f8ea12eae4f81bU,
  0xdf09152cf507f11aU, 0xf4e9b03b0cf0c80cU, 0x16e1efe700e11c2eU, 0xeaf4020c3211fc29U,
  0xe8421b10350f0c50U, 0x1f1dff0ae2ea3115U, 0x2fec50dddfd21694U, 0x20f6fffefb092ae3U,
  0xf81ceefbe8fb1926U, 0x421c09e107290977U, 0x1a01dff7e5f407e6U, 0xf30b273f1307f6c4U,
  0x235e6fd13d80ec1U, 0xf1eefd9ee011f02U, 0xa206f61b02d9e52cU, 0xf91a3bfbeee304f5U,
  0xe0c5211cd7fbf2efU, 0xba1129331a12df1fU, 0xee542aeb121ec31dU, 0xfe2921eb04c82309U,
  0x6ed1e24fe111027U, 0x4ff83f24c30d0c49U, 0xe6a0e306eefb05e7U, 0xf63ac8f5391c0d16U,
  0x20e1e7fef9c105dbU, 0x24e6cfc9fbe4c810U, 0xedbbfcfbe02417ecU, 0xc6f93ad30e12ec12U,
  0x18e1fdf8f951fcf0U, 0xf82214ede8d80ffeU, 0xf210ed5b0ed70ad1U, 0xbec5d2320b25ff16U,
  0xdca20dddf5f0c724U, 0x262aec33eaba5826U, 0xbfeb2b103304f01bU, 0x1a0cf72bff2b19d2U,
  0x90309eefe210addU, 0x241cf716fab82ef4U, 0xfae258bcd3431d1aU, 0xf6330e48f30ca0fcU,
  0x1e03184b1c0643e6U, 0xe0e4e800d813d9feU, 0xf52806e3d53cf730U, 0x162be300ecbef416U,
  0xd5d0d807ce22d33cU, 0xbf822d8fd154b28U, 0xdf8f9171623cae7U, 0x1128c9e8f503fffaU,
  0x1e1aa032afbc1d9U, 0xf54130ff12081feeU, 0x236b0e6e7440efdU, 0x112be5cbf91427a3U,
  0x1ecf271bf2bb4418U, 0x49e0fbed19dc961bU, 0x3fad52031f40247U, 0xeed6b606ed2603ecU,
  0xe41307f21a29cb29U, 0xcdfbfdf60ce11234U, 0x22e8efdc1e151af3U, 0x1c0fef10f31bca13U,
  0x10f4fed62ae2bdfdU, 0x40f822ccee0cd4b8U, 0xf3caf7fbd40a1a35U, 0x31081e07211f09fbU,
  0x1ce915f5031efafeU, 0xd9daf2eb44c1321aU, 0xca0004f0eccbcb36U, 0xedf1cc0dfba3d1f9U,
  0x190af5c9f0fae1caU, 0x3cb98fb18b0b959U, 0xfff7ae27190618c3U, 0x1b16e704d925ff25U,
  0x4b014809c8103416U, 0xf3051c211cf0063bU, 0x37f038eeedde2133U, 0x17f9280ff724e840U,
  0x505fdcef4ba0addU, 0xd142321f11eed2c4U, 0x22e4f0c0e3eb17faU, 0x702e2f9f6ecd524U,
  0x9ef4e0d191fcf01U, 0x9f3ca192888baf8U, 0xd35c293bcf1fbb1bU, 0xeaf9e4f8fb1404d0U,
  0xdbf1390029c4f13cU, 0x1c0f08dde1f90123U, 0x1436e7e4117fd413U, 0x6233def35d76ff7U,
  0x165211e308e7ef0bU, 0x1524c4f51a3de30fU, 0xd3d72902f55fc532U, 0xebe7d40b10d5dbeaU,
  0xde17f5ede704f9dfU, 0xf3eb3c8f1c32ff1dU, 0xe40412fe3e30fa29U, 0xf4fdd7d7d9cf1407U,
  0xead706e404402ddfU, 0xe411d28dd707fd18U, 0x2926274defcec9efU, 0xf03b0dea19db2f0dU,
  0x2ae538e1d5bdf4feU, 0x3913ea110bf5cc28U, 0xd1300d5bea16fbe0U, 0xdf3a0f08ebfffb46U,
  0xf1f7dc0ce5241f0aU, 0x472628e4f30df224U, 0xf2baee0bbbeaa962U, 0x185211cae623d2f7U,
  0x253ad2dc0b02dd0fU, 0xce9321ca2fc3bfeU, 0x16f02c2c540e13efU, 0xd061809e9f0e436U,
  0x4f570214ed281f18U, 0x1f11d32a15e74205U, 0xe3ddecf4e5ffe004U, 0xe4121bfdfc1f1009U,
  0xa905f10454fe1f04U, 0xccd307152807b4efU, 0x1913ba18eb2809f4U, 0x9091110fd3e0609U,
  0x1bc27f51ee5ffe6U, 0xf333cde825321037U, 0x7fd50209f9e5d403U, 0xf472c0f25390242U,
  0xd3f10efed80502f1U, 0x491f10dbcdc6e3eaU, 0xe1cbd6fae54fd8edU, 0xc6dcfa13e6ff16ebU,
  0xdadd2dd73cff3be1U, 0xd5fc1c19f2cee43dU, 0xd34f6132dfaebc5U, 0x6b10ce90ad4ccfeU,
  0x33f91acd03f9ed0aU, 0xa9e7f933ddfbe9f8U, 0xe3fc1c10dd1b09d1U, 0xeb10ef31f3d2032aU,
  0xccfec5303f401c2U, 0xcfef6e9fee1190aU, 0xcc061bedb1f32224U, 0xc1ce0bdfbfacec39U,
  0x8f102fbf8fad104U, 0x2c2e17e3fcc713d8U, 0xe5ec01fa1a0db9f0U, 0x170dff1927fcf1e3U,
  0xee2efee314ecdc1eU, 0xbd92218c12a28f5U, 0xfa0721da10bef3baU, 0xd50813d6fcc7dc07U,
  0xf00d08fb0914d341U, 0xe82238da1bb520e4U, 0x2219268fe90b2cf9U, 0xd6d023f650dcd3e6U,
  0x3327323b0a002920U, 0x624c101ece3b06eaU, 0xcf0eaefd5bdded1cU, 0xaf11ef9f20b0926U,
  0x1420e81a22db15d2U, 0x20eff60a3ae422a9U, 0x82c15ebab2e1104U, 0x2efcfdbfa0c2ee4U,
  0xe910f0f2d3cde63aU, 0xbc3115310df741caU, 0xe9f0c0d516fd26dcU, 0x1124f20bdf280cfbU,
  0x4e38ec542bfe1e22U, 0xfdee0418000102feU, 0xe1ff392f0ac4d323U, 0xd9140cfaea0c2c1bU,
  0x203ed7f709da310eU, 0xf8fdca131bd6bcdeU, 0xad1fff52a14f9d0U, 0x21e9aa0845ea02adU,
  0xf70ceafd2a1ee6f8U, 0xff0fff5ea16c5a9U, 0x7ceefe1e40dec803U, 0x31303f1ce9eceeecU,
  0xf5a5d7d214d902dfU, 0xdbfe18f2f805537fU, 0xe4f5e25a012025f0U, 0x1c3107121b38e5f4U,
  0x1114141be006cb0aU, 0x24390c38100226e1U, 0x3d9e21ef90a0f1dU, 0xc0cf0633ddf0e2faU,
  0xd8d803230ec8bf31U, 0x310dc10d07e00919U, 0x22ff9d2032e88bd2U, 0xf84e1d0c1db5ddf3U,
  0x15011fd54d082948U, 0xe3bbf9efd0fd00f6U, 0x12dda745defedcf0U, 0x8b2a01063fe132f7U,
  0x10bb79936ec0a1aU, 0xd5009ebc8ebd621U, 0xe510d741051307faU, 0x11fff1aad6eb1433U,
  0x1ef22e0efccd1ecU, 0x1316bfe71717cd4bU, 0x7d035c0f10bdeffU, 0xcd0f1e515160629U,
  0xd0f82817eb0ce508U, 0xff805e32ef8f43cU, 0xe3d2d7efec08f61aU, 0x110feb4c04f7fe06U,
  0xec13b8f0e4e75c31U, 0xbfe129160ef91722U, 0xfdfff81111f209faU, 0x111eb5411917d9faU,
  0x310c12e0e0fad20fU, 0xf3f614e82b0132f8U, 0x1e3d0a1604193515U, 0x932000a24fe393bU,
  0xf3f8bfe8f71dfbd3U, 0xf60d380af146a5e9U, 0xe8fbe11902fa00dbU, 0x9050bf6fb0cf8f6U,
  0x35dced3701cc4919U, 0xf2efd2135dcfaeeU, 0xdc0f20eb1525bf40U, 0xe4f921d7d3ecd7dfU,
  0x50feff620c80001U, 0x1605b6f10530e512U, 0xcb3ae7c8f7ea00cfU, 0xb5f9dbb7e1110ce4U,
  0x250ac1f813e10eU, 0x32360bdd34cc0619U, 0x2cfe024419f7eeffU, 0x3b0c2809ddf8220dU,
  0xce16f31d103f52c2U, 0xfb1202dd1ed1fe05U, 0x1124cce2dfe9fe3cU, 0xeafbfb2c13f152d6U,
  0xdffccf0df3efb6cbU, 0xc4fa0f0c03ea1f0fU, 0xca2dc800e63f2ed5U, 0xfbece314d1e824fcU,
  0xdc602028fb20ffd0U, 0x72f2fdf23d1eb503U, 0xfed218e20d15e805U, 0x312dbae6fdebf107U,
  0x8e6b6044035e62bU, 0x1cf7edfeffef11e0U, 0x1ff40b0224c6c809U, 0xddbceae8ee0507daU,
  0xed01071cf807fed6U, 0xf04b1bf23c2ba105U, 0xe4e2bcf6bd34110bU, 0x29e32c2cf7e9ec0fU,
  0xf3d628001fbe241bU, 0xd312b7d12614fcf7U, 0x66c031b001401e5U, 0xfc1328d513022cdbU,
  0xeff52720f2dde835U, 0x2820cfe51a391e06U, 0x47ebf8ecf4fce807U, 0x6b1ce3f5b3ef131fU,
  0xf8261efaed0ef406U, 0xf4d908c018ea10a0U, 0xec05b81c060b4b0eU, 0xe7e55dd935c8fd15U,
  0x31a3e02b1230297fU, 0x3dfc031404ecdd39U, 0x36272d05ee030ff4U, 0xe7e71d1022090fe1U,
  0xbff0e2f10a1d0af8U, 0xfbbd09e1fc1511ffU, 0x2a1b38101954f1e5U, 0x2324db1b06a11b1bU,
  0xfcfa09190c2bfbd5U, 0xc6ef4f3bf7d2dc1dU, 0xf01d15342402daeaU, 0x35f110152021cc16U,
  0x9ecfc0afedcc632U, 0x10f6d53add3cebb9U, 0x4e4152ae02606d1U, 0xecf3d4f8041cf16dU,
  0x6f50a08de2f0d2cU, 0xe11cfa250c081233U, 0xe1e708e4160215fcU, 0x2622f50adf1a031bU,
  0xff1916e5eb0505ecU, 0x8edfaed0f140ceaU, 0x2c1cee430934dc17U, 0xf50031f1f6163042U,
  0xf9ede7fe1cc4feacU, 0xe3e0014e9d4beb31U, 0x6281ad1fa03eb0aU, 0xd6f8f1d5f92a02cbU,
  0xcb2406f634e20715U, 0xbdecf9b03fc0f15U, 0xfbd3fdd5a200a9d9U, 0xfe391505220ee7ecU,
  0x3aee03835e9f4ffU, 0x43f9e5ce45294052U, 0xd1e954c9384e2353U, 0xda71a0e10adf327U,
  0x3a176ff6d5deda1aU, 0x103f30ddfbefce0eU, 0x8f3fff2c7de2a40U, 0xf9ed15f001be1be5U,
  0xf6faddebf2f1d41fU, 0xe937de14f5faf2fbU, 0xcde4dc1019f1dfc6U, 0xe5e6f62b03e400c0U,
  0xff631da27cba6ddU, 0xecb0c40fcd09f851U, 0xe3cc0312fee2f86fU, 0xe0e621f6cbee071aU,
  0x10dbdb071024f103U, 0x927161b23edd5edU, 0xbf3c2bb46bbdf50U, 0x2fe15ee0915212eU,
  0xe42406f42b11151aU, 0xcc3e5bec16e0e4dbU, 0x41060a02f51d0008U, 0x3d2ad2de28bb7dfeU,
  0xe502021ad9e9d10dU, 0x192bdcf1f140b9e7U, 0x5510108d2823efe2U, 0x394be70e1cec100fU,
  0x26eded0ee1e31306U, 0xf026e8d94e2e2cebU, 0xd83cdbfcff0307f0U, 0xf8320c01fdfa60deU,
  0x2309fdf61ad5041fU, 0xfbed2ce5e2fdce03U, 0x3a08f50d22ffe5bdU, 0xc104e6ef073814f6U,
  0x1834f4cd441b15f7U, 0xd4f652db1dd30736U, 0x19ed2604200ff10dU, 0xd33dc053c2afcdfU,
  0xf13c82adb7f03ddU, 0xec39f103e5fdf9c3U, 0xe32b18da0c1febf9U, 0x1a18c9fdba290ef9U,
  0xf1ddd24d2dcb041fU, 0x61f1f1ca05db1343U, 0xfa01df0d0e43f126U, 0xfdd1dff30d2df82bU,
  0x1314e612a2d8f1ecU, 0xdc0ee91b1ce0eb29U, 0xfcca0ad215fb150fU, 0x153f1af62ffa0af0U,
  0x3806fa4900271d31U, 0xedef3ffebfe13d1U, 0xfcf81143061ec3e4U, 0x21f50307fee93616U,
  0xc9320b25130d1f24U, 0x22f9e42f0fde28d2U, 0xd81ff4ee210bf9fdU, 0x2317bf20c4e82110U,
  0xdd172a08b1eb1dffU, 0xeadff825f61c42e0U, 0xf5dd21e809f8d8c1U, 0xf3341fdf08ae1630U,
  0xeed6ef1c3d051bf0U, 0xf7e1deed0f2827ffU, 0xe9e9fea817f242baU, 0x16140f2e5dccb313U,
  0x1d310e01ef10214U, 0x5252cd0e8e91a08U, 0xbbdf8f7383b04fdU, 0x1cf4ea2609002ff7U,
  0xbdf82318fcf13721U, 0x46281733d82af3deU, 0xfb021702f8bdd5d4U, 0x38ed50fee0c20e44U,
  0xa5d5ad3905ed10f1U, 0xf3ece5e3eb362bc7U, 0x4a30c7004e21f325U, 0x10f0edfc0ad50b13U,
  0xf815d0042400f817U, 0xf60f102b1b0ee1ceU, 0xebe000e5f0f3f9d3U, 0x3fbd08e60ffde109U,
  0x14323a36d6e0170eU, 0x333ebe7f3daf3d8U, 0xaef34fcd0d04f0e7U, 0xb00d11dc00000e0cU,
  0x11e337deed04f0fcU, 0x7e0e1c04d9303429U, 0xcca2dc3104b1434U, 0x44413744e931f523U,
  0xde232b00d4e3ec27U, 0x3343c002ffceb08U, 0x1eeedf2c071529deU, 0xfa28142ceeeadedaU,
  0xf40fe6dd18fe0458U, 0xd81f0f06f00f2ac9U, 0x719d74ce335ecf1U, 0x160001f0290e19d1U,
  0xee5cf3fb19f40e67U, 0x11db0bfe321a8117U, 0x1fe1202a011f09a9U, 0xf8fd05fa2615070dU,
  0x7e6d45e5c5020feU, 0xbdebd5dcb4fcfa97U, 0xf8cf201702dde8e2U, 0xf5f8dd1030d14a19U,
  0xfbf3dae025eb1e0aU, 0x1c40a80000d9dcc0U, 0xced61eb92af88cf9U, 0xebefe6bef5c5ef17U,
  0xf0173c0bd01905ffU, 0xfd1604270d92041fU, 0xffdacbbfd324dc06U, 0x9eaf90520d8f6f2U,
  0xe713be2fdb18e0f4U, 0xe41b090e0af405ceU, 0x8d8f31723ebfd08U, 0xb219ce1706f012d8U,
  0xecd4daf29a0726fdU, 0xcce4aea50d4453eaU, 0x993128361c4b00e7U, 0x3c18ff30414ad501U,
  0x15c2249de5e0e11aU, 0x2a20f80f13bf1340U, 0xc2030bd31fe6bee0U, 0xba39c9f20406d6d3U,
  0xdf205f30d892235U, 0xf7ed22c1ddd24123U, 0x240b3c181cd1e350U, 0x20fbb9cd21d1c7f9U,
  0x480ed723f961f500U, 0xb907e30abf27fd2eU, 0x53a2cc03d42f9ceU, 0xd814f45bf20cab29U,
  0xc96a10fe01da00edU, 0xf1aa23327f03d5ccU, 0xb2f5e50626070ff4U, 0x4ed30eea2a0adbfaU,
  0x4af01efbb45027f2U, 0x17e6ffc1f312cf83U, 0x80105fc081118e6U, 0x4cfbcde7ea080adeU,
  0x60d06b2ec2acbd1U, 0xaf80a29cd3b28c0U, 0xeab90202b6f0f567U, 0x1dbd919ffb8a7f8U,
  0x20eeed0b26f91414U, 0xbd2121eafe2f1aacU, 0xbaf1f0ee8e5d2dbU, 0xf8b8599d0bd2d59fU,
  0xd217ec10112ae71dU, 0xa2111f8defce20cU, 0x14103906cdd4a7d2U, 0xd4ca27cffdfde0baU,
  0xa2e08c7fbedd532U, 0xf5c08fc29e402c8U, 0x4eaf7cb342ff3d4U, 0xf6540bdffaa53fe8U,
  0x1ad4e62ef305d117U, 0xc9f12deb4fdd06d0U, 0xd011353a13fb1419U, 0xd613e20edf1e09d8U,
  0xf1c6ff24f920029bU, 0xd1273259ddf2e3d5U, 0x1b5cba2eb0d0063bU, 0xad1334ef0cf34e20U,
  0x10181ddfe525d520U, 0x3616df15a84554efU, 0x44ba4ad3f8af060bU, 0xe4d83ae5f0e5e126U,
  0xe4f11c35f13dfdd1U, 0xf90ab226e229c8e4U, 0xd7613db6efd7f74eU, 0xdb2ced214ff4f2ecU,
  0x44ea4dd500ffce17U, 0x17cc012bd8a14a39U, 0x284fe4d5d4fe32e5U, 0x647e6ffb7cf1721U,
  0xbe67fc0a0410d3dfU, 0x1bdc22d4cf93c206U, 0x4f37e8a9d4de01d1U, 0xc6d107109d27eaedU,
  0xda4906084fc73301U, 0x816f324cd05f62dU, 0xf4c418b51c3ff6ffU, 0xbb2316f9f6e5fd0fU,
  0xe93c02ab262fdbfaU, 0x14c83aee312cdffcU, 0x1e48b44a433cf7eaU, 0xccd1a501dbd9080eU,
  0xe62753e1f311e010U, 0xcbd1f8e4e936b919U, 0xf35bdee658e60105U, 0xd101130fecd007f1U,
  0x8093e042636bb09U, 0x4810e62612cafab2U, 0x25151e3506e306fcU, 0x61110ef8213904ceU,
  0xe7e233cf1efe00ffU, 0xddf4dc13fccc3346U, 0xaf1e2c050ccd29ecU, 0xe7e14adfd3f7f005U,
  0xda53db02232a1a23U, 0x7dc601e30cfca39U, 0xeef50a13b5274807U, 0xf0a60e233c2fee2eU,
  0xfd1edad0ede3f830U, 0xf319eff24b022501U, 0x42dbffeb39f831edU, 0xc3e215cbff2d1747U,
  0x101bf3a2c8154ecU, 0x3213171ad42a0ee6U, 0x200e39f80015e2d7U, 0x1cf20f11da0a2629U,
  0xf222ecb3edf90df0U, 0xec0c90df811fd98U, 0x1a3b81bdb60af7ebU, 0xfa2b0411b2310d25U,
  0x24cb2ba3320bc6ebU, 0xabef18dde5e623eaU, 0x1c28f10acd28e9fbU, 0xaf5028471ae027c7U,
  0xe92034f5002307f5U, 0x24d2010ce904f132U, 0x2226b8fe36212afeU, 0xcefa1d1ae14cfa05U,
  0x31f529fa0fe3cbd3U, 0x19effbdfe9e1f334U, 0x41f300cf1bf3f9b0U, 0x477a2a1ac0020ab8U,
  0xc7c7992c3a4f0f11U, 0xf0f297ce22df01e2U, 0x16cbc4fa0d063964U, 0xbfbf29c5d0fd242dU,
  0xf6ebc703c6140e2aU, 0x152233438c01bad5U, 0xb99700db10c43702U, 0xf6180f0e30383032U,
  0xf3064ce1261b2809U, 0xd7d6162f53ddfb02U, 0x1d4db2ffe51ec6c3U, 0xe4c8d7195e33d301U,
  0x42d5ccfc05f937a2U, 0xcde0b5df07ef370bU, 0xb64e2bee206fd01dU, 0xcb0a4a052621f3d5U,
  0x10e4b9f5fa12f20fU, 0xe616f0f4e113e7fcU, 0x38260df1e51c1806U, 0x18b4ffe7fd14f8U,
  0xf3e16523dbe598faU, 0x7d8de42c70c4203U, 0xe60305e90d2e1635U, 0x40e5bfe092fb3dbU,
  0x2743052be41ef4eaU, 0xf8d5fa14dd1de9f5U, 0xda13f0b730e8e00cU, 0xf52af23717ecf1ccU,
  0xe6fdef152b5f0b05U, 0xd8dd0a190f08c802U, 0xf8deb121110192fU, 0xf13d192b2af9fa21U,
  0xdce327ddd2f339U, 0xd2d4f310eacbf22bU, 0xe027bf1609cf33e3U, 0x2201a25ec0d4bdbU,
  0x302b221802acd514U, 0xf803cfafe355f939U, 0x2cfcdd26d707fcfeU, 0xf20d3df8bbd9feebU,
  0xd2482413ddc934e6U, 0x17dd01dbcce2dbddU, 0x341c091f25443620U, 0xa50620e8292feb35U,
  0x3fbe127d4ef25ebU, 0x5d3ebdef22220ebU, 0x54fedd00f5ed3df9U, 0x42eefa11eacce6f6U,
  0x3838c7eb121ffed0U, 0xf00d9c9ea1613efU, 0xfefafe03c11e08edU, 0x3bd2172fd2251d11U,
  0x12549d5eb27fbc9U, 0x45b3f8f3083900dbU, 0xfeddbf9de132106U, 0xcba6001bd3fbf8d9U,
  0xfcce3602de16e6d4U, 0xe836e51826003e28U, 0xd8ba232904eccc0bU, 0xed1bec023608f103U,
  0xe4efdae10d0afe27U, 0x2406eee1ad001530U, 0x1648270c20c3e2ffU, 0xccd5e8dff6dc23f5U,
  0x200060f3ceeecbaU, 0x1b2af9e9bc0d1a23U, 0x13deec22eaf3eaf0U, 0x33c3fbffef19f3eeU,
  0xc6171efaea1a29fbU, 0x1504b4eee0242619U, 0xfdcc08f5202bda2bU, 0x2119ed0c10206a05U,
  0x2d14f7f700e23be6U, 0xf099f3a5330a3349U, 0xec04ee1a0b1e2de4U, 0xe127e5e40a3e05e5U,
  0x16f3f6decc1a1526U, 0xe2f8d0cbf9f2f1feU, 0xc325f61cf412fd09U, 0xff17810fb5e7ecd9U,
  0x18e5f47fedd31b00U, 0x4ab5418bc24ed36U, 0x1d0ac819b4f92cc0U, 0x3f481307ee0e092aU,
  0xd7fd1147f3b11830U, 0x3b2d2be0922dbb2cU, 0xdbf7123c0eb91c3fU, 0xe4f91931300fae3eU,
  0xe0fede22bc11000fU, 0xf4e2f818adf621U, 0x4bcf835240ed411U, 0xe732e5ff19f3ff46U,
  0x24b229e9122d3413U, 0x2a12fde6f126b302U, 0xcb3300dcd5181311U, 0xc7c0efb09430c2aU,
  0xf4152aed010e8c32U, 0xc830eebcb606e52fU, 0x4ef9e1f124101b13U, 0xf7112002f3e0e1dfU,
  0x11ecbfe8bdfb1742U, 0x4f2320e7093cffe8U, 0xd6e107074745332dU, 0xafafb2a2db40bd6U,
  0xf8c952cc12fbdbU, 0xf6fdf3efdd042cc2U, 0xd72a0a0320b9561bU, 0x141af534f018ff4eU,
  0xfb2d190ee2081e01U, 0xdd53e9d8222ff92eU, 0x4ef5d82b2ffff406U, 0xe4d1df2bee02f53bU,
  0x28aea11f09302130U, 0x136f9e908eef01aU, 0xad1cf000f27c0dbU, 0x108fc062023e2ebU,
  0xff06bd25dd040312U, 0xb8eadaf31c0eeef0U, 0xf5161ff520b92e15U, 0x1836180709c01e1eU,
  0x309d2240a57e2f8U, 0x3735f3102e11e526U, 0x3a25d02df0be7019U, 0x17c400bf2d410bf2U,
  0x243dcf30c1f193aU, 0x16601101111bf1b7U, 0xfcd9d409ee23e619U, 0x41fdf6af03d4fbe4U,
  0xe2a12e1f83dae28U, 0x2ae6d61b0f39beafU, 0x2134e332fafa0718U, 0xc9d85e03fdf00fd3U,
  0xc9edf23915cbdcf5U, 0xd702dcf6ae0a1006U, 0xfd08cefc32a80630U, 0xcef4331bfd2620efU,
  0x5d8c7e8e3120d01U, 0xf646f9d212c0ec29U, 0x232a014bb8d11b33U, 0xebf5fa09a549daf8U,
  0xf71fe4f60c02fd1dU, 0x233226d9224d0c00U, 0x1705edfeddd518ffU, 0x32321d8fffe11e9U,
  0x7efc0bca44f8db18U, 0xb2f95d0119e7f42fU, 0xd028f4e144f99a1aU, 0x18f2e048f90525f0U,
  0xedbef0459f03003U, 0xe91ce833f5260e06U, 0x1ed90ec5c1d62a09U, 0xc3e9a8e7261d1e13U,
  0x4b0280c1f0e2410U, 0xacfb0b02e664e6e4U, 0xe221ced5e44b1ebcU, 0xdc0b0957c224c7e4U,
  0x14fa322f97141615U, 0xb808033dda18b33cU, 0x14ee1df4c2d2f52cU, 0x29c5dde80b653735U,
  0xdb7200e42e0d0527U, 0xeb12c3f619ee2709U, 0xe3ecf31a23bbf2f7U, 0xd2f11beff41bab14U,
  0x2a411cc9fe1dfc12U, 0x2409b30f100a05bbU, 0xe50306f3e0e504d6U, 0xf050130a36291ab5U,
  0x2007f5d7d8deedb6U, 0xdd9ddf2041ffb43U, 0x27dd5f5ec937d614U, 0x4518b2da20ab7fe1U,
  0xc90b31410c24182dU, 0xb053efce13b8c02U, 0xc0ee01bb06d8fde4U, 0x1bfad40e6fe99c8fU,
  0x22e23cf21d31fb0bU, 0x44c94124cf28cedfU, 0xefeb02da3bf70455U, 0xbddfbe0e30feddcU,
  0x8f3fc51c252cb800U, 0xcee1f6c310000625U, 0xe0fd17c3dd0ec7d4U, 0x52d30b13351f00e4U,
  0x270ce1ef3a2211adU, 0xcf0131e775ccbe0eU, 0x62c06201fe6dbb4U, 0xc1cfe6491e2d242bU,
  0xecd9adafeb323045U, 0xfbe7380d32e8def3U, 0xddf9d413eff83ee3U, 0x670a3819180f5a2cU,
  0xaaf7a62d4d20dbe3U, 0xe045c100af18d2fdU, 0x2f0cf0f630cc0aebU, 0xee20ecdee5e7b61bU,
  0xb6abc0e3fd110026U, 0xd5e1fa01e7fbf2f4U, 0x1ae7d6e532553af8U, 0x17e409fcf42448c0U,
  0xee14e5f90ce6153aU, 0xb913200c041cd0bbU, 0xf917bdbf52e61c11U, 0xfd0ef3e2d3e9eb13U,
  0x232e03bcbb10ad3fU, 0x27411bb0f09e5d1U, 0x4b1b0519f9dee5d2U, 0x56fe0313090b3f26U,
  0xe20fccf92df81df6U, 0x29f82de1d8fdf117U, 0xecdaf2dafcf61a10U, 0x220c17dd11e3bd02U,
  0x707f281f5e05f35U, 0x9bed6fba530f416U, 0xe50dccfec33aeed7U, 0xc4ece5defa0ac705U,
  0x2acde02250a11c1U, 0xeeea0527e624e90bU, 0xedd324b30a8fb01U, 0xdc1409e90efcdc31U,
  0x12092236c2d4e635U, 0xf5050f04e0faf0caU, 0x32ec31631efceaf1U, 0xf7f0ecdd0a084321U,
  0x9d503141d160cd0U, 0x120e1600e31b0c07U, 0xc2f61a201cdf0ff2U, 0xfdfc3318bdefeb1dU,
  0xf709ebf80b2ef60dU, 0x506d135d2eb04f7U, 0xebf40a24136201eaU, 0x7c31d083d2704f7U,
  0x100e0906e1eaf20cU, 0xa14fd4619f20d0eU, 0xd2a34fe1330f307U, 0x1cff1b4d04fb1c1aU,
  0xfaf061041c1d18fcU, 0xf7f52605eb0e0f0fU, 0xfdef611d1ef20ff1U, 0x1913da160e0e0aU,
  0xdcf0f6c00af834d3U, 0x1aea4d19d2181e2cU, 0x1c430cdf0a10e7e8U, 0xf7102af285e52704U,
  0xe0f0caf22ed8e9ffU, 0xeeea3c060819d423U, 0xde8fe28f1163330U, 0x7f9cd25271843e6U,
  0x140d13472de307efU, 0x121dfa05ff0fd1f9U, 0xabdaf939ebfd00f2U, 0x3010101f1d2e302U,
  0x3a27392110e33020U, 0xf0f62f091ff63ef6U, 0x3635edfee735c6d1U, 0x906f0bce5e31cccU,
  0x804e4f71e37ee07U, 0xb8d02435290e3ad0U, 0x3c09e4d9e4cc66ffU, 0xf1a0523faedc41bU,
  0x252e23e1e4162906U, 0xfd1cda62271801edU, 0xf0d625cf0eff0042U, 0xfc0bc31315f1e3ccU,
  0x140f17d9f20c2ffcU, 0xc7161ffe38481be9U, 0x808cff11f12f223U, 0x13dc0931effb0508U,
  0xf428181d140e27feU, 0xf707e22f13cbdf15U, 0xcacee73c13ea27f9U, 0x4afab6d9e62e21bdU,
  0x7e4f1ebbfd518efU, 0xd924e62beafe2edfU, 0xe4da1705b6feb808U, 0xee0d6f802f916faU,
  0xf909050dfc1bf708U, 0x27bfd93bfbf8a5e7U, 0x2ad9d20411f1b7daU, 0xe218f2cfca0412e0U,
  0xcaed0dfc110fd514U, 0xee9e4dd07d7211cU, 0xd4e6e843ec0b2b03U, 0xed04f314e5231025U,
  0xf2f2f72710fe3ee8U, 0xec0323f7093e0af6U, 0x1225e12b0af10117U, 0x29e31c1824d4d924U,
  0x24e8fee7e4cdfd07U, 0xcc29e512cf20f0eeU, 0x3bf0f626b33a1b1eU, 0xffe2f3d052d23e9U,
  0xf20425fffbf4ede7U, 0xea31faeb041af6e8U, 0xe9e6ebbbd80afee5U, 0x2a1d120f12170b0cU,
  0xf7f8f7e01a10d5eeU, 0xec3fe6ed2feff225U, 0xfef31df1170622e1U, 0x320304122edf14deU,
  0x18fbf8e0d63b01feU, 0x90d2ff50cf1ddedU, 0x28d51c2be3f70a33U, 0xff03e60f20e7e8feU,
  0x112617c0f721ddceU, 0xfe0edf02e102f6d9U, 0x14281fdadec1fcf8U, 0x8d00c2b3f06d511U,
  0x12eb0bd4ebea0d04U, 0xa417130841e2f900U, 0x14ede4ba1ec90d0eU, 0x123dfe1410e0eef0U,
  0x8f70f150df039U, 0x220019e99d0a10fdU, 0xc33c253efbf2df1bU, 0x241c03efe2eef725U,
  0x308ecf4ef021506U, 0xefb928142525ed34U, 0xe70e19dd1c02ef06U, 0xadea06e400d91919U,
  0xcfaffd8d534fcd3U, 0xe92af917fe0103c0U, 0xc6e7f1ecce22f7e3U, 0xe9f807d4f24713c9U,
  0xd6caece6eab7f104U, 0x160bd15b335b1c21U, 0xdb0150539f1d621U, 0x2409d3f20bfaee11U,
  0x1f0330ea17c10e0bU, 0x4408f31900fa10efU, 0x3fcebe3fcfcc6efU, 0x2203ecf01cd8dd13U,
  0xd6d6f0f8dd221809U, 0xf3ffdeeefe1fb233U, 0x7f121403f8fbd9fcU, 0xd50c17d42235e422U,
  0x9eb20cdae19ec12U, 0x1cea011fe515fbdfU, 0xfbe90ce1250cf8eaU, 0x1001f2fb5d03f5f0U,
  0xdfc9ceea3efd2737U, 0xf9fa39d6e0f3f8ebU, 0xd0d6cd02dceff306U, 0xdece825fc23c10eU,
  0xe9d6da0ef3d13d08U, 0x50bfcf237031839U, 0xbed5ed29e0f442f5U, 0x300713dc1401c447U,
  0x8e3cb1b1b30dbfaU, 0xeb01ea2d22dcf1dbU, 0x4afd2dd7b8b9f4d8U, 0xebdf67acf83317f8U,
  0xf8f5a51bef0aca02U, 0xfae6f4d917fb22fbU, 0x4fbc39ffe769d80aU, 0x230e1dbed0176003U,
  0xac0dcb04e21530d2U, 0xd0cc2508fe14c2b9U, 0x14140a24f1d1e800U, 0xd31d381601041ce9U,
  0xd109e8f5b8040118U, 0xcde6221acddb01d7U, 0xf4ff43c2f014abf2U, 0xb60cd8e701aaa320U,
  0xcd0bfe1e3cd20724U, 0x906c923e5813451U, 0x1d06eafd32e8e9ceU, 0xf7042bc9faf5f9e7U,
  0xe9f601cd304f17daU, 0xe31d070f2310f118U, 0xe9cbe500d9e10001U, 0x402247fff020f0f0U,
  0x2ee20afc03e3ecfdU, 0xfdf7021b4b0b53f9U, 0xef38fa0130bc11ccU, 0x2be51f5e10e508f2U,
  0x14cfc42dd422149dU, 0xecd9fb07462af800U, 0x618def3e2f031ebU, 0xd70c1229273e0ef4U,
  0xde12e32c222adedeU, 0xd219280c3a90d219U, 0xffe2fcd2d8c7f6f6U, 0x2d1df6bdd7f622f9U,
  0xf8fad334e904bf9eU, 0xf8f9d6490aa12bacU, 0xe7cc5f0531c62101U, 0x8ed2819ec1a06eaU,
  0xf2131fdd1605dc02U, 0xf304de4a152011bcU, 0x10dfbe210f202dcU, 0x30fc11ede2fb729eU,
  0x12de17d1f4132428U, 0xfce8cf241bfd09U, 0xee9fea36c8edfc0bU, 0x22eff5e258fbb5d3U,
  0x1a03ca0c09194eceU, 0x33e91920d801c418U, 0x1bf7d11ee2f40d0cU, 0x1e1ba415db62eea8U,
  0xdb0745f9fbe3da04U, 0xef248d042de3fd00U, 0xed1a0ddf19e11cdcU, 0xdd071147ebce28feU,
  0xef10060207502704U, 0x21d32d2bf60d3375U, 0x2df823fdb621f4f0U, 0xb60cfffed1f2e5efU,
  0xdfd4ab140b3c0ffbU, 0xeddde8d205eae00eU, 0x4c24dfce242825ccU, 0x1334252fddc5e619U,
  0x33b522f419c80a30U, 0xe7e1c20524441cc6U, 0x3c41e9e402fd052eU, 0xde091cea2b2cea10U,
  0xed111f0476ec6315U, 0xe0c4ecd8e230cb28U, 0xaf202349f7dac10cU, 0x92b6315f0f80200U,
  0x3bca1ffec81fc10dU, 0xefadfbdd161b2c05U, 0xd823dfc4d9e91c17U, 0xd3deee8e020e50aU,
  0xb24602fae5039cdbU, 0xde3fb1306264e32U, 0xe1330b5153230911U, 0xf3ed149d7300cd3U,
  0x41c6149d16fd3939U, 0x320b30cf40e6ef25U, 0xc1d0141a36ef1506U, 0x13e9cbecd1ff081cU,
  0xf1d066d5b81d0e00U, 0xfaf7aadfc9e6d51dU, 0x32e7cddc2dc718f9U, 0xbf6f2f1cc21df2dcU,
  0xf530f9f4f6e7dfd1U, 0x42222f9224362f0U, 0xcaeef79efd1417ebU, 0xf877f1f20f931df7U,
  0xfeae8cd02392f04U, 0xd301cf1ce51f4812U, 0x284d65e4cca5e1c6U, 0x1cdce3e3d2fe0cfcU,
  0x1e19fcd142dc23ecU, 0xde170b0a38f337f8U, 0xe61b45370c12e96aU, 0x150ae94a04300124U,
  0x1d3ff01220906f0U, 0x381fc5059b2d15U, 0xfc2623fc07250a02U, 0x72c8204a382e0a12U,
  0x801fddcf8fd9de7U, 0x1100191e06031b45U, 0x5d326e225f3de08U, 0x16faf51293560cf7U,
  0x2236dd261b2ee5feU, 0x1641dce8c90bf408U, 0x2d510881e4e4010aU, 0x3285fe22eec2c05U,
  0x2960bbf9f7e0cff2U, 0xe1f6dc2100f81f53U, 0xd822c5fcf9ece63bU, 0xe3db4ed705de06d6U,
  0xd3f6163c18c5fd50U, 0xffc9ee1d0cf00bf8U, 0x4f11335f1c90022U, 0x13dfcc2e2663ef14U,
  0x2535e7bfe00333eaU, 0x4e2c383fee030d0cU, 0xfa2928d1fc1d32eaU, 0x39d5f10600efe809U,
  0x10ddfae41c1cf105U, 0xe90cf407321027U, 0xfec8e407ccd2f8d3U, 0x9fa1f4cf0c02f924U,
  0xcf408c6d4f5cf13U, 0x10f12395fc47e4feU, 0x32b8d7fec731aef3U, 0x1d10af59af815d2U,
  0xebe2aafb140ce707U, 0xb0a008dbbed10c1fU, 0x1d071418eaedfe0bU, 0x16201a0804da10ebU,
  0x73fafe2de421f72aU, 0xb7e5a2f6dbf82a5eU, 0x101b1064ecfd23dbU, 0xdb228ff8f22d2108U,
  0x35f1f528eec0d6ffU, 0x24e40b0a5ff72d4aU, 0x60be316da10d91cU, 0x82f6028d1444ef5U,
  0x4cfe083dca00beb7U, 0xc1e6320ad8f51ce5U, 0x5b05d91150fc5e0dU, 0xf6e213f81dd6ee1fU,
  0xfe4ac849defc2cc7U, 0xddeb1600f9235126U, 0xeb17fdc51f36e2d6U, 0xfad2ee29ccaf3ef5U,
  0xffd065c4f9ebe4dfU, 0xffe26de113a2200U, 0xd3cc15310009f114U, 0xafccdda151ffffaU,
  0xfae205141df403f6U, 0xbd0124c84d1e1dcfU, 0xecf6b50909b5e8d6U, 0x9953fdb902ebd5d8U,
  0xd3be3415e3e94fc7U, 0x17d3f00aca1ee81aU, 0xab1f09c312b6d5ceU, 0xfd40d0f0f370d14U,
  0x2a30bd0c3ae8e20cU, 0xfbf208050bf93c41U, 0xf6e01f0b04ebff19U, 0xde59d63f00ce011dU,
  0xe6ea330e2bdc0bfcU, 0xea08e0bb1c01dff8U, 0x16e0d6fedacce4fcU, 0xcbf526e910ec2b15U,
  0x101d81fd1af120eeU, 0xf6e8136215e00deeU, 0xf4e2e4ef231fe2deU, 0x3e23faf12e15d5dfU,
  0xf951160007fbe30aU, 0x160837e7071ff4fbU, 0x58ee07f91bb0feeaU, 0xeef010093f28df2aU,
  0x2ae2f3eb3b5208f7U, 0xfe2b34021ff406daU, 0x7ce320b09271019U, 0xf6f004b8f1e311f0U,
  0x134de71dedf6f625U, 0xefbdec36a628fd4eU, 0xf6f21c2928241bf8U, 0xc634f805e8480802U,
  0xced33de5fdfcfb0cU, 0xafe61ef11b081d18U, 0x16e6ff1326fb11b8U, 0xe234e6edf96cc8fdU,
  0x2ddbfcd0edc4111fU, 0x2af1dff646251d0eU, 0xe12ae21028eb182aU, 0xd2cf15f9a63409dbU,
  0x2426090d17fbc2f4U, 0xdf16fbf52d0b06b4U, 0x1ff1109dd1b2345U, 0xe6023a03bff50e3bU,
  0xe9142fe3390ede1fU, 0xfa9ee64a04dae418U, 0x10fec524fa4119dbU, 0xc2afdf52aed12f0U,
  0xd722e848cf234445U, 0x2202ea0c02f4f1f5U, 0x1bd6a2ed04e7f4f4U, 0xf8fa02fb02ed1009U,
  0x33eadb1ed0fd250cU, 0xf2c7d9b7a4dd34ecU, 0xe93647fdeacec400U, 0xe12f1ff120bcc05U,
  0x1d1513d35165341dU, 0xe6fd14e93aec330dU, 0xdcef08d307e90efcU, 0x1fea2d0911d717b7U,
  0x3412da41032244e9U, 0xfbc218d818b6da4cU, 0x17fb11000aeab2b7U, 0x321b8f606242202U,
  0xb11e9cce8e8e6fdU, 0x34804ed05ef2f05U, 0x2e322f6d91a1cf3U, 0x25e3f1f4e404eef5U,
  0x39f3fd0011fff3e6U, 0x5fffe370df6bddeU, 0xdbe1190e07274110U, 0x1736c4e1db00c5e5U,
  0x1af4e10adecdd0d0U, 0xa9d8fec8fefc0d20U, 0x2e0ef7080907e726U, 0xce0112c55ebef04U,
  0x11ce34b2d2de03caU, 0xc502f5edd83642caU, 0x42f72ba2eff5f113U, 0x1be64c2127ddc008U,
  0xf3e7d7271a07d90aU, 0xee270ffcb8cf2337U, 0xf720f2160016cf18U, 0x2346f5b3d0cdeedeU,
  0x30a4df0c0b1024ebU, 0xfb3cd60216ee08fdU, 0x49fe2506ed7fee16U, 0x1bf9f1f1ecfd20fbU,
  0xd6e112fb1cf7d8f9U, 0xba1734d4020c2228U, 0x12c6a20718d61519U, 0xe3ebc9041008fbf6U,
  0x1d54df8df33d2f9U, 0x5019f1270114e7faU, 0x152bc8f4f502ef81U, 0xc220f20be1d306d9U,
  0xfbe0e7edfca1182cU, 0xdf68db2bfc121a3fU, 0xf374ff08180129feU, 0x28e52ef329d701fcU,
  0xfdf0f7e4fff92211U, 0xbd04fc27b13ff8f7U, 0x132325fafcd6ef62U, 0x235adab5fce50cdeU,
  0xf5d8fc13f3eb3c29U, 0xf612f3003deab3e2U, 0x73ca080fe019a112U, 0xc9e5e01545fc39deU,
  0xe0ae7baeae9d2e6U, 0xd867dae1fd142404U, 0x41efb090fc4fc00U, 0x18af1af03ec919edU,
  0x9ed721d1dad8e804U, 0x5bcd0c0120e51904U, 0x2bb8f0f9f6e403e0U, 0xf5ffbcc70cfafee9U,
  0xf9fd015417dfcb16U, 0xe105190505e3f407U, 0xef0c38090c03d2e6U, 0x1dde301c0cc1ddecU,
  0x29022a1af52efcbeU, 0x4dfa0cdb0edf46deU, 0xd4ffe404c6fcb7ddU, 0xda1e302e04090b42U,
  0x350d2e63da060de1U, 0xc7001b0913195604U, 0xe7ec08f304201e00U, 0x192136f402fd1006U,
  0xee1f08a80de5f5f9U, 0xf9e60122010817d8U, 0xe447c2f8e9d0b1f8U, 0xecdd06de10fa0afeU,
  0xc214324f05eefc05U, 0x70beb3e4dfa45ebU, 0x28e7d90d2b09f82dU, 0xfe141adf02e5da2bU,
  0x19f61f0c23250205U, 0xfaf6fae0c3c236dcU, 0x50d0010dc01d813U, 0xf7df110b28f1fe27U,
  0xd3ffec14d4e7d0bcU, 0xdac62d4223c34dd5U, 0xfc01daf123f7d4f8U, 0xf15d73505191e16U,
  0xfaf80b2ed4fb1c0cU, 0x180c32e71cf41cd0U, 0xc7c22631450c1b0cU, 0xf11403f3eecd2d04U,
  0x1e1eeb161cdf0e1dU, 0xf9fcfedcdbdeee14U, 0x141916b6e3a5f317U, 0x21dffaef44cbff08U,
  0x3609d100195807ecU, 0xeae8fa2ff52be5ecU, 0xb390f0f08beebddU, 0x5e500e849213af3U,
  0x5ea0e0b031825deU, 0xcbf407f2fb14f9edU, 0x17fdbdee1429082eU, 0xccf3ffe3f6e4f6f5U,
  0x9bb0aecf50bfcf3U, 0xfadc13fe13f20df3U, 0xe3da2bf6003407f0U, 0x820da0cf9facae8U,
  0xddbee62f17efc9d6U, 0x111c07ecc9fce62cU, 0xdb29fc4c0f0537d1U, 0x3125f5e5e00ae319U,
  0xfe14bceffef8c2e8U, 0xe9150f1a1d0e270fU, 0x71f11d410f02df5U, 0x5cc1820e502edf7U,
  0x1bc5cee5f5f40cf5U, 0xa23d537e0ea04f3U, 0xe211ce00fcf513f8U, 0x4a260e00f50803f5U,
  0xd60cfdcafa2ef310U, 0xf7061112661caf18U, 0x4610f1f2dfca32ebU, 0xc429ec4eea29e614U,
  0xe5e509e3e2c6c9d6U, 0x140504153dda02e8U, 0x4bd304f3091829f3U, 0xff1debf7f7dfd40bU,
  0xce06141f0b1509e8U, 0x49f4fb35eed91230U, 0xe52e0ce9bf01032dU, 0x230e293896321e15U,
  0x52f8dbf9feece7e9U, 0xe82a0a0709f7c7f4U, 0x21063a2fe52ed5edU, 0x716f70fe2e3ec38U,
  0x2ef1e7eb34111018U, 0xd5dc0e108140dcf7U, 0xf51acff2f6eaffebU, 0xd81307e4f8fd11d0U,
  0x41bfe7f43c10dc0aU, 0xe0e90716dfecf4f4U, 0x1020d0d917e9210cU, 0xfe412ef2fe22a06U,
  0xe434e80b14fb0c2dU, 0x240e072f0dd89e0fU, 0xfcf3fbe32ac3f207U, 0xfb341ee60abc0cb5U,
  0xae8122c253c0106U, 0xebf4184d18e8081dU, 0x807ede4fdd622f6U, 0xfede2f12df07f60dU,
  0x1dffffed1ceb130cU, 0x32062e17112c16daU, 0xe90e1e1005e90038U, 0xef610f20cf9eb01U,
  0xa81ae6d8290a0318U, 0xe817fef8ef0003faU, 0xf7e6ca07fde41610U, 0x291b2900eb1cf707U,
  0xf123ef1f572d17e6U, 0x67230517f616043fU, 0x608ff4530f80e30U, 0xad93553ff301806U,
  0x73eee2ee0350a0dU, 0xee092ecdfe2e1640U, 0x332b2631d8eca5ffU, 0xd1f023e9330ee711U,
  0x2df0f7003b0117a7U, 0x2658e0bb07ebdc32U, 0xa21f25fecc16fe1cU, 0x13ba4646e09c38e4U,
  0xe23bebc917b70e2cU, 0xf8ef113b2df30335U, 0xfcdae51e172cff20U, 0x1a26de0400d20915U,
  0xf51afde5e9f804c4U, 0x20ff93ce60cff0aU, 0x2e361d1bd8ed622fU, 0x1fc5e182200eb08U,
  0xe1422d02dbf125f9U, 0x3df3ee20c6d63f03U, 0x1fc6efe2dc2325d5U, 0x29f30701d7f10dfeU,
  0x3a1b05ec26e5fe07U, 0xff26e5aeb5c3e69aU, 0xf755d426a7f62542U, 0xce12fcd72f16f6d8U,
  0x2c25e6db27fb2212U, 0x161ae3f4ddc033d8U, 0x72ef153320ff42eU, 0xf91109d1233e1a55U,
  0xf325dfd7b925e03fU, 0xdfd0eaeed3c555edU, 0x3ae8f1df2915361dU, 0xbc02faf50036d0dcU,
  0xc01c0157213818f9U, 0x155dd7d8da0c1aeeU, 0xe231e0fbe97fe35cU, 0x19b6dce4cc2a68e7U,
  0xf9e4e502f432f9ecU, 0xd9ede102d4c3e1f3U, 0x320dade2080bccdaU, 0x2a3cc4e33a0ffbb1U,
  0x3c210f05e8015333U, 0xdf4a0d2106ebb600U, 0xe2407228f4d500b7U, 0xf8e408fd2123f6f4U,
  0x12f50e60ef283110U, 0xf30535eecee70400U, 0xef0ef754130ff003U, 0x36d71fe9d8d91fd6U,
  0x3bcf1d08fee0c212U, 0x11dfa11af202e630U, 0xb55e1162bf5e9c3U, 0xf6f21ccf16b50fdaU,
  0x143791e213dccec1U, 0x17d4ec271d19f418U, 0x1a1406ec321a0e0aU, 0x1628f0e9e8b3dc10U,
  0x151207d0d620ac20U, 0xdea5e435fd430653U, 0xe31318044d2a01ffU, 0xe8b5cde3cdd9f0d0U,
  0x7e111da08c7dafeU, 0x2831e34ec80ae79dU, 0x43d3e63f242ddf06U, 0x3ded3828f9f53f24U,
  0x30eddf4dde76d14U, 0xf614d6201e02ca3dU, 0xf552e42e00f1fbfaU, 0xfd28c2911e2518e5U,
  0xffc0601d9f5beeeU, 0xd9421906f5ff1403U, 0xe0d5f5d2fbf00937U, 0xfbb407d0eaee0403U,
  0x53cafb1ef2d719U, 0x1f3418df10cf0418U, 0xef50b3019cfa9cbU, 0xf80e2d080abb23U,
  0x29f1ec153c20f63aU, 0xf1b804d34f170312U, 0xf0f35f9f009082dU, 0x2d2f11ff2042e9e4U,
  0xcd0ac9f13617014dU, 0xf502b2f5ec282425U, 0x2cf9d113f8f0ed28U, 0x64ce718f8134bf8U,
  0xcf7ffde70e03fffaU, 0x1c0d08fddff0120eU, 0x2bf10bd792f8bdfdU, 0x3c0020d3eade5f16U,
  0x461cd035001c5602U, 0x1d3c0a3c15f40b12U, 0xffe3f91b1019c4fbU, 0x2ad8f6d4fff3de4fU,
  0x181b31dd220ae90bU, 0x36eff2051ad4db06U, 0xd02cad030fde4ae9U, 0xb7fb250ee6d8e914U,
  0xe9eb56f9180507eaU, 0xb8faf3e6d1e9c800U, 0xf0f435d91c220844U, 0xea0e3b41d3f2f904U,
  0xc12a0cfcff1ae7daU, 0x1bdc01090954e2f0U, 0xf8100bf20dcbf30bU, 0xf2370100d7f7371eU,
  0xcb32cbef0926dc05U, 0xd145e616df1f14f1U, 0x160fe7131905f822U, 0xe0ff25ccb5d6eae2U,
  0xd1ad20012f81a28U, 0xc10600f1ed0d042aU, 0xcff13210f61ada14U, 0xf8d311f0d3e0f1f0U,
  0xcceef4f0212e3e08U, 0xd8d2f9202728e4f1U, 0x23060d2909f10604U, 0x406e53718eedc00U,
  0x9d9340ef2d602e3U, 0xc0d0ff0e9cedd38U, 0x3dd7d9d3e6f41b3eU, 0x1213f36a1cce28efU,
  0xbcb13461bf4de37U, 0xfe10f4283cdff03eU, 0x2be90136e9131cd6U, 0x23290704eebcfad6U,
  0xd7dfbff2273e072eU, 0x30ee11e27fc0400U, 0x40be0a1203e902ccU, 0xe019c22bfef538feU,
  0x29cdfa0eed24e6f1U, 0x3301bb28080503c2U, 0xcbbb08061e19db07U, 0xe9f007160723ccf8U,
  0xa1930e7f202ee1dU, 0xf5020ba4dccf380aU, 0x2e0c02362aeee3b6U, 0x346fed0d8dc0cf3U,
  0xe3cce0f4ec1dfc12U, 0x2117e93fd2b7fb08U, 0x3638f8300e450410U, 0xd1440101c82b2cf9U,
  0x70af611e3fdc6d6U, 0xd5ebea28fbd8de48U, 0xf505f3d0e2012f35U, 0xf12805e70ffd25ecU,
  0xa00bc0a12e9e912U, 0x502f000d5dbf701U, 0x20519e4e70ffd17U, 0xfb170b1cd8dcfb04U,
  0x1b1cf553df09ebebU, 0x4f2821f907041a76U, 0xcf51f9091011d6f1U, 0x30014bbda110d09U,
  0x520ecd209220cf2U, 0x1bb3f6fd2507f603U, 0xcbbdc4dcfdfbedf8U, 0xdb0c2107e6e4120fU,
  0xc2fe151f2a28cbccU, 0x1efd13bdf32afdfaU, 0x22111504a312dee5U, 0x12290714f6f0200eU,
  0xf90e1b05dc2b07e0U, 0x1e0ad034ea51e53bU, 0x4d17f5171f22e0bdU, 0xedf74b200fd73af9U,
  0x5de0afae3f214faU, 0x33e31adcd120efd8U, 0x5c81604e81e04b7U, 0x240cd0f1fe15180eU,
  0x1418ecf5d6e915f7U, 0x2822f32aeee581f3U, 0x1a1d2be9f6fdfaf0U, 0x16400d1ec516b20cU,
  0xcde718140601d336U, 0x1bf7ee1cba16341aU, 0xe0fbeb16f9f5e50cU, 0xea1805f1e6d110f4U,
  0xed04d1ecd3c5bfe9U, 0x2229f8e9ebdae4fdU, 0xab26d704e3e0e420U, 0x5d271be41c0126c5U,
  0x36cd27141deaec16U, 0xd8cbdd110ef303f8U, 0x33d00cbd0123d3efU, 0xf7d40a57251212dcU,
  0xcd10fef907f8002fU, 0xd20d06bac1211006U, 0x2206baf0da03021bU, 0x9fedc1cfaeccc16U,
  0xebd103f817e9dcbbU, 0xb3cdff05e2261107U, 0xff61813ed19fd19U, 0x34e662f70832d317U,
  0xdee114d60bcc131fU, 0x253c09010c11d5acU, 0x183523b603e33025U, 0xfaf7f821dbd8c9e5U,
  0x2e1fff647bbb926U, 0xf736fa25d5fdf3efU, 0xe3251d560201e9f7U, 0xff06be700ad520dcU,
  0xf4120900eb25dcc8U, 0x232f3dd08272909U, 0x11d8f523d8160c30U, 0xef1e4aef660b09d3U,
  0x17b91b0db6d2fe3fU, 0xe6fe0c4410c5e10bU, 0x3ee5e5f21233d50fU, 0x110a641ad53d03e3U,
  0xc6edc20a1e0b1bd7U, 0x10070e9def0c16d5U, 0x915d6f0f5edd3d8U, 0x1d3221023bd4e938U,
  0xc5f6fae2754401eaU, 0xe5d6ee02caf80fe8U, 0x19c411e102fae5c6U, 0x190943ff16e107fcU,
  0x25f7bff8ae32f122U, 0xcb0bd6f0f609db06U, 0xf52eb1c4e811e9deU, 0x8d708f8f60ffd0bU,
  0xff0a014149dcf319U, 0x450de7272cd3f725U, 0xf22246090331fdf2U, 0x241ee91e0a21f906U,
  0x23dc1becfc1d2408U, 0x150dee046c893e04U, 0xca3a0ff1321e14e7U, 0xef0b3de3f9a4efc7U,
  0xfde8fa21ffa80fadU, 0xf725091ec612de21U, 0xc1fc5e4130a7c19U, 0xd514b51d110b0839U,
  0x3932aee3ed080d24U, 0xd061fc3587dde02aU, 0xd1f9052c14100040U, 0x24143c20f90c12edU,
  0xfffdd81d284e26fdU, 0x3ef945d20fd3400fU, 0xf6ea0f24f5030519U, 0x1d04f6dc28db2bb1U,
  0xf6eb0c4e21fdfee4U, 0x390a2f28fb0ff806U, 0xbf8121fe12000adfU, 0xf1d5e31e94ed9b5U,
  0x35ccea3f26f03128U, 0xed0031312cb8250cU, 0x6bf1239f7dd0331U, 0xf12100072fe350e2U,
  0x25dc0aede9f21565U, 0xca0ec32eeb4f0cfaU, 0xf2e22ff74608371fU, 0x12014acada102058U,
  0xf0c96410f733e51eU, 0x5c091c11ebc23e0cU, 0xe3dc3cecf81bd8dcU, 0xcceeb6ba0837fff8U,
  0x52d221d061a14edU, 0xea13bffb3f0cf335U, 0x1dd9ea120a14f400U, 0xe42ef2e56e35ed11U,
  0xfde6ec14ce02a4ebU, 0x6f70c02f7112afdU, 0xbe14aafb58f63aaeU, 0x33f907febc33feefU,
  0x6e2620ee0308f801U, 0xedd23ce5ee2109f1U, 0x47c11207e3a6d133U, 0xec54f1e5e6222bfaU,
  0xfbfdf3e20af727e4U, 0xb70daa12280e24e9U, 0xa8fada2e3900d034U, 0x41b4fcf896cc0f00U,
  0xf120092de3d71cdcU, 0xe5ed3ff0e146e1dfU, 0x2face190f9cbbefU, 0xddb806b7cac0e422U,
  0xd4cd14f727fffcdcU, 0xe378eb0c06f0f723U, 0xcded7b8d009edf4U, 0x4f49bc1fe65615beU,
  0x1e2afa0bf613e6eeU, 0x1915150901f7ec0dU, 0x1b050acbf6300bf7U, 0xa3cdf7f9333e004cU,
  0xe3b803d8d0ebe3fcU, 0x6c2aaa1615e88b20U, 0xf8cae81ba2ee1f1aU, 0x15f1301b282cffeeU,
  0x64e613b7e41f2dddU, 0x7d7c965561e542dU, 0xdbfd421f013cfb03U, 0xdf023338d6c1110cU,
  0x3248de15d3de24e8U, 0x15fbffc00feafcefU, 0x200ce1730f22817U, 0xdbe702ce0effd0f7U,
  0x111faf3e9e6e9e5U, 0xfe8010618ca7047U, 0x5799f5812e343330U, 0xe9e8091fea15e1fcU,
  0xf42d2fd82e3ae1e6U, 0xe4081c0fde12b5fdU, 0x8542af71d2ae5efU, 0x1872f6ba4f30f004U,
  0x301e80102c023f7U, 0xd0e52423e618c400U, 0x11ca20ce1d1fe1d7U, 0x2df4e4ccf9f54018U,
  0x7d6dbd70fc2f3dcU, 0xdbe70ee1fa05b9ecU, 0x17afee41eddb1614U, 0xb5f219344708ddd6U,
  0xb2bed321ecce7f7U, 0x50001326f3e7e803U, 0xd8f431fcff0a10f5U, 0x2034dcfe4de0526U,
  0xe5f9f5efbc03faedU, 0xdf3904cd322634U, 0x12b42ae50206c7aaU, 0x4e81ccb1aa702f9U,
  0xf55120bb02052016U, 0x96c9eb0c21005c0dU, 0xb509e034ef1846e8U, 0x7c9061bd908fa20U,
  0xdfe103f3202dc73aU, 0xfadc4326f6f6deceU, 0xe5151fe3150413edU, 0x16f6fc18f91ac700U,
  0x714030bd1f50e1fU, 0x2ffb0f0c724e400U, 0xdcf8181e1505e21bU, 0x22e80af5132217f2U,
  0xbff4042b3f23b803U, 0xe110eaf635d21addU, 0xecf0270835035bf2U, 0x22d8fb3c12df45c7U,
  0x1210312f072ce921U, 0x18ec0318f2fc19fcU, 0xef03e209e30f02e6U, 0x2515e0dfd9f906e3U,
  0xe9010c27fe3629feU, 0x20071326aa0946e9U, 0xb12f0df3ddcf0e6U, 0xeb194000ff191116U,
  0x58daf7175921e744U, 0xc2cee8c33ee016e0U, 0xdbabdb0004e6efe1U, 0x6250232f6d51f0cU,
  0x11ccd3eb190fd7d9U, 0xedd1ee36e6f70bf6U, 0x22e9c3c4b2e1d9f3U, 0x2df228f8f612e313U,
  0x20f9f2fae0f02fdbU, 0x214738d2d8d025e4U, 0xe80404fbdae825f9U, 0x1dba3e0001fe3ee2U,
  0x5a252815ef1804c6U, 0x18fdf7c7582a22f5U, 0xcffcf52d3b17e2faU, 0xef501006f1043eedU,
  0xfeb5e62732420e2aU, 0xfdcfaf12fc920b6U, 0x23e10cee2208f8f8U, 0x2921f8182711e412U,
  0xdf09e6dac50fd22eU, 0x1515df42b516fe25U, 0x2b1efffe28e81f2aU, 0x4321719ea5f3534U,
  0xfef31c2ac6f5ee07U, 0xe55127e0e6fdeb0cU, 0xec11d365271eee09U, 0xff12f6fe7f07fc23U,
  0xed0e3025e40bf629U, 0xe24408170429050eU, 0x1a15e0d20727c929U, 0x1fd3dff81f363bebU,
  0xd00c332101ddf9dfU, 0x642c66b25115dbd4U, 0xdbeee31cf2c017d7U, 0xfb1b2c0039dabfe5U,
  0xecde29cd0aea02f2U, 0x2ef2112e2e0e6103U, 0xf1914e7270309e5U, 0x16e30324ea32fcf9U,
  0x23aaf543181afc0bU, 0x1e5e329327d22b18U, 0x1823f10820f7030dU, 0xd0e8c8e805edfabdU,
  0xe006d0da28009cd7U, 0x1b1e1b11ca35d904U, 0xe0cd51c082af107U, 0x2839ea47c647d7f5U,
  0x1de6a3fcc9fedbe7U, 0xf911110dffe61dfeU, 0xf8233e2d9bf6fe10U, 0x15f61a26effbf204U,
  0xe713c918fbd305e5U, 0x82005e632fd1713U, 0x6ea0ffbe6241b40U, 0x33131a37db2b02d8U,
  0xf6e36c0d81b109fbU, 0xd808d0dc0b063620U, 0x291030f31bf2e000U, 0x29f81dc8ff3716f4U,
  0xd00528db0e15fde6U, 0xbeb01131717d73aU, 0xcf033a13dffa25e1U, 0xeef3e995186030e7U,
  0x1e1b08f50602d3e1U, 0xfbed03a4013813efU, 0xc03ac6e1ff2bf1dbU, 0xf21bfae5f411f32cU,
  0x2519d7db10c2dfd1U, 0xe8e0041af3dc0fddU, 0x1803edd342f321e7U, 0x1614f4f252040f2dU,
  0xd16cdf128e25b06U, 0xe40bf7e42ff207ddU, 0xb71fece40131e617U, 0xa70408f1f4af54f6U,
  0xe014d902f40b0304U, 0xc9dfecd1d4e411e3U, 0xd0c7f90ff3ed38a2U, 0x2b1703a4f50beed5U,
  0x33ef1d0315fc17f6U, 0xf6d7322311cf0036U, 0x1019361b09c9050fU, 0x41f0ff421a360ed9U,
  0x2a1707ea3a10dee6U, 0x106925bf421f73eU, 0x1e05090805c8f302U, 0xe0c8edf4f2c0dce2U,
  0xd921f9cfedead94aU, 0xc421083118e1dc0fU, 0x108e0f1318f21423U, 0xf9f8d9fe10da1517U,
  0xfc03592224e019f4U, 0x1ccfe601f5141910U, 0x6132915d12ffae1U, 0xec291715ca15e1e5U,
  0x2382a4de5fa63f3U, 0xbf7e5c1edb9cbe5U, 0xe91ce6fb50bcefdeU, 0xf911150d0f1c17c7U,
  0xeb60132ffe2b0e3aU, 0x1310cacf4719c1e6U, 0x29fe05feed4310d5U, 0x1dfc10fa093c1cbeU,
  0xd431013ca10fdd7U, 0xf00ff3fbf01aef05U, 0xc5eb3ac4cad8cc10U, 0x2848f7d810ebf326U,
  0xd0ef0321d54e1f8U, 0x3540fab1405e0ffU, 0x421ed512def618d4U, 0xe6bff9bfdd1623a9U,
  0x201171060c0df407U, 0x21728fbfbe82715U, 0xd3f9e0c5f304f429U, 0x2ccd0f38052163fdU,
  0x34271417fe03cbefU, 0x9322ef2b14f25cdU, 0xa50db17000fd8f9U, 0x3d1160167f31845U,
  0x2adad9fbf6fb28c6U, 0x535d1ff30e3d6cfU, 0xfaeed8272ce40a1dU, 0x42b2009e233122eU,
  0x18d101e72a08d2b6U, 0x20e71c0fe004c65aU, 0x3affe308dde161ebU, 0xd2ed42141119ebe4U,
  0xfceae2a6f6c951c8U, 0x1916f6cc10fa070bU, 0x6f2f203c8dfcef7U, 0x1430e6ef0b192016U,
  0xee3a07e5f9111401U, 0x171a24584ee81043U, 0x33fdecfd09f6fffaU, 0xe06cd1f1203bf73bU,
  0xd7ad30e4faf72e21U, 0xeed232f50a180ff8U, 0x1f4dbe712e02905U, 0x9a0effee10492f31U,
  0x3004d40da7f90239U, 0x113df2f51befe8fcU, 0xe9dd16ecd50b15c5U, 0xf703d71811451216U,
  0x462aff0104170126U, 0xc53631e94b0e1fffU, 0xe8242b23c01c0324U, 0xc9f6f05bee35dfcbU,
  0x40e36d1be4ae615U, 0xf00114da2a1419eeU, 0x35014e0fa14d72bU, 0xdff4ca14f7e8f710U,
  0x1023feb701dd1d18U, 0x2b8e704e012f852U, 0x27ee32ba21140e01U, 0xc1f5dfeb06352ac5U,
  0xe2df03d7fa00aa7fU, 0x2442e340390abf1eU, 0x37d0f10440dd7605U, 0xb0203d32b08cd2bU,
  0xe6e9d81c7117f4f9U, 0x160ef00aebd205cbU, 0x1108e1fe644be162U, 0xcc02081a05c803ddU,
  0x240ff3e261280babU, 0xbef2cc0d3aeaee11U, 0x4113f4eed9120c40U, 0xf00414e9d06510e8U,
  0x9dcef30f018e220U, 0xc7d56517f6070e2aU, 0xb0aa06002129f6fbU, 0x4d0ef0b1fbf528e7U,
  0xe1eb00072fe3c61fU, 0x4406063b30eee119U, 0xd11fedd5fda8d840U, 0x26e0e4411c14f0f8U,
  0xb13dde8000a0d07U, 0xf9bd27e3e720f5f3U, 0x430ec34f1ee953dfU, 0x43cae7df0e12d3bfU,
  0xbfc6c5be0c30e4f3U, 0x390f41102e04ec31U, 0x45f4d4caf7d94fe4U, 0xffe9e5163b08215aU,
  0xcf53dce93130d47cU, 0xd8cf10ec32d2da12U, 0x89dd6230d40a33fcU, 0xee02eac2fcdf1429U,
  0x41f2f63aeeeb05feU, 0x3110fb24dbfaec06U, 0xd112ff95f8d8f0d5U, 0x584a09430460f8e2U,
  0x1bbae0e3e3b011f7U, 0xf37b32f20a7f69daU, 0xf5e6c7bafa0d201eU, 0xe4d7eaef09fb130cU,
  0xd84121051b02f6c4U, 0xde6182ac5face1cU, 0x9d9e5fd2a0e18U, 0x3723f8ebd51108d4U,
  0xfbdbf5a5ebccf1e3U, 0x2bce1739f8051eeaU, 0xb30310200024acc8U, 0x14141315304bcf1dU,
  0xec8c5ec22d91039U, 0xd41f1b042ee7cdd5U, 0xf4c5d72137a8f12cU, 0x182e1707280d3c18U,
  0x3a19f4b4201ce98eU, 0x331f0b2f0612c6f4U, 0x3c050a0510de1f01U, 0xa7e9eba709270716U,
  0x32f85bfdd6fcd2cfU, 0x43cbb2e1f2d9df22U, 0xf3b6faff11de0de8U, 0xd2f0ddf2f6d7effeU,
  0xe9f920fc1b0debc2U, 0xc8ff47f1f2031118U, 0xdde20bedc3fee1e6U, 0x21dc121df6fd200bU,
  0x3c34dd212ff1d41cU, 0x34f01a12203c061cU, 0xd12fe61f096bceeeU, 0xf2e4320a39e4031cU,
  0xe32105cf29eecff2U, 0xff230ee1adcfbfbU, 0xe80007d0d312e4e4U, 0xb350217f110d16fU,
  0x12341921f99ff809U, 0xf7030d1079100107U, 0xefeefe0d14dcf8U, 0x7eeda15ddfa26cbU,
  0xc81510eb38f01408U, 0xebaded0b01e21914U, 0x2a002800e90e15e1U, 0x11cf07a2300c2a35U,
  0x1416df16cd17180fU, 0xaf100cdf3e1ed40U, 0x13d0eee51532f6acU, 0xca02fbf0a0d5dc13U,
  0x11040204fb4a531cU, 0xc0c8db1c21f7fbf2U, 0xeee3cf0bb7cdfeedU, 0x27e6e71b30fdc6dbU,
  0xf0d5e9df371b21d8U, 0xe3ecd737d42bf5ebU, 0x3b0f3911f63531fbU, 0xcb3c0deac8f508f2U,
  0xa9dfe032100b26dbU, 0x2e2704e8e5f40f26U, 0xdc0a200d191a2448U, 0x37d839e934e8f325U,
  0x40c08d32e0d20f2U, 0x1b0ae531fdf848f9U, 0xd812dbf6df26e50fU, 0x31f0fa42fc24eefeU,
  0x81e422d5f9c20bfbU, 0xa4ebdd0f0b0aefd6U, 0x1cf302fc2914cef1U, 0x20ebd20d06b900cfU,
  0x5daf6f6b9460704U, 0x180a34f3eece0217U, 0xfc5403d5ff1e0fdbU, 0xd1d5d600dd051506U,
  0x5dffbf509dfd401U, 0x3404140937fac008U, 0xc8dc1532f309d7b4U, 0xf4eadbf6cfe31930U,
  0x2f0a08ec0ff326c6U, 0x2bbee7c3eec406f4U, 0x63caed15051718b7U, 0x1b1018bcc9003ee2U,
  0x2e1cf10b3f3cefe3U, 0xddf07074ad0df1dU, 0x9ddd0fcd2f50404U, 0xee29cf00fd51f3dfU,
  0x1d21e9f6bb31e916U, 0xf20cf31a230a102bU, 0x4a07fbebeaf1d9deU, 0xdafb9efa220e3ed8U,
  0xd0edd6f34922f8e8U, 0xf2d4e20fe30a2d21U, 0x1bcfefc12547e4eeU, 0xf6f5e715e012a9eeU,
  0xef2ced16f8f6e9c6U, 0xf329e41a0efbd0efU, 0xdab30a1619d71217U, 0xe9d0da24caf302c7U,
  0xaef24cb22f8e9dfU, 0xf015e335272f2827U, 0x30625fcb81dd0d6U, 0x1907c72827f610faU,
  0xffa64cb1cc91a33U, 0xa3ad50716e1d3fcU, 0x5636a81b0bf9b0e1U, 0x17f942d6c5ebe6dfU,
  0x1c2b5bf102e1acf0U, 0xe2fabad943f5d2e0U, 0x24f70ac61c1f0c20U, 0xeed7fcad4edbb126U,
  0xde19f80423401001U, 0xc60a21f5db565e30U, 0xe8eef105f6e205c7U, 0xcb0b2236fc68b054U,
  0xe0f64715224cf4f2U, 0xba23e1bf01e5cc30U, 0x38e2e3ff14ef25faU, 0xbfae3d9e833f2e4U,
  0xdd25f809fd0abe34U, 0xf50d0ee722072014U, 0xe80f1c9afccafe12U, 0x38f3fed3ec03ef56U,
  0xe9e8422300063bd4U, 0xdddc0135ee44fd39U, 0xc4e021df07c8caf9U, 0x4f0c50513bbdbe4U,
  0xf436f52628dfc80dU, 0xeb1fe5d305dc02ceU, 0xfdb21507d44012f9U, 0x335e19012ede0beeU,
  0xf3ceee1332e120ffU, 0xd7d9edf8e2d9a901U, 0xe6a8e953f6211803U, 0xddfd4848d7e1164aU,
  0xce13e9eb34efb156U, 0xb599f8f5d740c921U, 0xed2228e0ffdfbf73U, 0x81e509f63d0be9bfU,
  0x292bd6d6fae30a03U, 0x2604571f1e2a9e1bU, 0x14f906f8e52cfd2cU, 0xe304f12904613ffcU,
  0x706322ff5fdf535U, 0xc3defa05061fda0dU, 0xf09013030030eddU, 0xf8385aecfb180cdfU,
  0x2ce7e7fee807ebfeU, 0xf816ed01f3cb0923U, 0x2d306374600f840U, 0xfcddeccce7252b3fU,
  0xece31ae82adeadf7U, 0xebc6ed60e01109e0U, 0x504d92df4d10f0bU, 0xcf5a085b123a34f5U,
  0x8817ef112808e9abU, 0xf0cce8084e31dec2U, 0xbb5ee910fe08e725U, 0x6d80d3ee512b115U,
  0xf1eb1238ecc5c026U, 0xcc29f8dc2cbdfd26U, 0xfc3bf9e6e30cffe7U, 0xce656f49fffe2f0bU,
  0xf2e5c8e5f2fbf527U, 0x861c0c116171503U, 0x25dc19dc301638dbU, 0x2b10c0059d23af4cU,
  0xe81cee1300e800f3U, 0xfce30740421e18d9U, 0xf0ffc6c1cbef04c6U, 0x2c17d40cc41fdce2U,
  0xfdad0c23eb36ecbeU, 0xd2c5f849e13dea33U, 0x30512d100f105558U, 0x202d0fd7e1afcdeaU,
  0x8fe4b582a2339f8U, 0x471d71d0926f732U, 0x3bcf0ff4c5faf068U, 0xe167d8064115d81eU,
  0x4fc5f3fb06efbde0U, 0xfddc20bf40e90af4U, 0x9ee2d3533b1dcc21U, 0x38c8ed3ff43ec3e5U,
  0xfae9b6fe1d1bfcc0U, 0xe0d0e2f4e91762dcU, 0x2c189c0ff1071e4fU, 0xa0118d2053acc12U,
  0xf5080bede299f639U, 0xb9fb98043ef61346U, 0x2b1a202515fb3216U, 0x2fe324c94c18f7f3U,
  0x16d10a3df100cbd6U, 0x11a6eef10af03831U, 0xefb5231f0ad2db27U, 0xf2cd08e34b630426U,
  0x27f2100df529d7b0U, 0xd436042524ec45f6U, 0x66d4ffd705cd1a11U, 0xd5f2113de31ac8d7U,
  0x11be0313dfceea4bU, 0xf7232a2bb1eaf137U, 0x27bf0fea4514f80cU, 0x3c1af00a9ccb11d1U,
  0x33fcced5f60b3f02U, 0xe427dd0bd0970ff4U, 0x20b3c40f8fbc4f6U, 0xfcddf0cbed4f19edU,
  0x3601f1f60abb189aU, 0x113b8df9fed2deaU, 0xaefb0e10f63e1212U, 0xefb5f1d61217e110U,
  0x2d9a241ff556381eU, 0xd602fe063d061d24U, 0x44120415f2472951U, 0x24291f0e061c2101U,
  0x2225d6c7eef0d2f3U, 0xe114e6d2923af25bU, 0x3166cbf412ea29dfU, 0x11e81033eacc0d2aU,
  0x1705f31416d5d615U, 0x3f4554b31c0bf423U, 0xcbe4d6e1db25ac49U, 0xfcfef1170bd71efeU,
  0x36ece63bd12e2312U, 0x94ef04443aed05faU, 0x2326fc37aa07fe05U, 0xefb7ec3608d4eafeU,
  0xf11823ba5fcf46b8U, 0xd3effddbf07f3200U, 0xb21750eddc33d6d6U, 0x48334af4aee0d3deU,
  0xe821c801f9d3054dU, 0xecc00bdcbb09efd9U, 0x14e8ed4735a5e598U, 0x1b4cee0301f9fcdbU,
  0x80ee36429e3e3e0U, 0xd5e30d5d37b5f114U, 0x420cdbe2cf11faf1U, 0x14e3f018291408b9U,
  0x3bbf8473e5c38dbU, 0xcfeb2702c7261527U, 0x2de8f2de7f22f456U, 0xe92b10f02241f149U,
  0xe13111dc23ccff31U, 0x1db31ade2c5fcfcU, 0x4720369e2ae9d841U, 0xd717e5dd263aa7b8U,
  0x1c7506ce335cde15U, 0x109fe2eccad25a0dU, 0x230f2815c2e3df27U, 0x47c903de10c3da29U,
  0xbd62f10c13b9ddfbU, 0x24583cd3e10711e3U, 0x516220beb0c27edU, 0x6ffd1ffd2de396aU,
  0xea38d4f928e3eee0U, 0xd20170014f8f025U, 0xde24ee1205eeb1f4U, 0x1ee6ed1cc743c51bU,
  0xef47e8eb031ce62eU, 0xeafe13002812e6dbU, 0xfc30130e31ff2b15U, 0xc4f60bcc0100f9c4U,
  0xe00be900c1e428aeU, 0xb01cdf348e8eed4U, 0xff00f3a3c222e504U, 0x170e0be2e82cbd4bU,
  0xee0fe8d2510eca75U, 0x211f2fcd18aedb32U, 0xb082d1f01cd05c7U, 0xb1063853570fea28U,
  0x30211f36f196e138U, 0xcff40213f60924cbU, 0x20ebf4f6fd3528b0U, 0x24f813d727e75ddbU,
  0xe7def7d80ef3d607U, 0x13e6efd7062d0d33U, 0xd2232f20f8c02516U, 0xd424010deaa2fe30U,
  0x25f00d28e7cee8e3U, 0xbfc0a5df1bf452cfU, 0xd1dbdf30f9f401bU, 0x21b11fbac03df20U,
  0xd6f2fcfaf0291b0aU, 0x212d141cf1fa10f2U, 0xcef436f9bc2720e3U, 0xaeeef5242b2139cbU,
  0x10183410055f10f8U, 0xd91dccf7042f1200U, 0xfd27d5fb0dfbd005U, 0xe50f39e6dd70d43aU,
  0xfa7406fe17f8d9e1U, 0xc911f09feac410fcU, 0x1cd6210e0135dd12U, 0x5fc2a2827e0f4c0U,
  0xf3e206f8fa14d60bU, 0xfd210c3f093a03f4U, 0x2c212e19382f1aedU, 0xe2f863bdededf1c4U,
  0xfc1fff27a1f9fc07U, 0x2e34e0e2c2c4e0fbU, 0x2df7e0ffc3f03902U, 0xfe1eebde18e1c615U,
  0xf0c30c2e2e52e0f5U, 0x3c2b2472529f1ffU, 0xedee2e504b53018U, 0x6a13e060adac147U,
  0xbb410a14bff93438U, 0xcf2cbd101ff5c09U, 0xe20805fdb825cd15U, 0xfb4b5afd1002580eU,
  0xe2b70a021e0ada27U, 0x15fac032520d1efbU, 0xf133f80809162ddcU, 0x33b0221d15fe26c3U,
  0xe7f327bbd9e6e208U, 0x1926c0d806f06407U, 0x13d2f6c6f23bde20U, 0x581a0d0cb18c3a0aU,
  0x3fe2c911020d05c3U, 0x93fe4121ff21860U, 0xeded0fe6c3ce3f00U, 0xf10b17ff0202d8cbU,
  0x519a1de825e7e10eU, 0xef4b28cc031bdecdU, 0xe3fe082926eeefa3U, 0xc848df2cd3cce932U,
  0xf7e5f715ee9ffb38U, 0x70c05d019ded03eU, 0x30c2d31f7f0315b2U, 0xfbd0e9e92402dffcU,
  0x350ff4ddaf0e3342U, 0xcce01dea8c2332daU, 0x20fb0de62ae30391U, 0x7a0c7c30fffb49aU,
  0xd6d6d5b1e2ff16c5U, 0xeef31f28242e4912U, 0x10f707220ff51af3U, 0x38d2f1ca5ac908feU,
  0x4c4fcca2916fce1U, 0x13ddfdfa280319edU, 0xfe0be92847554016U, 0x10ac7091014fe31U,
  0x1d1611e0b41d45e2U, 0xe414dfcee804e1d1U, 0xd4fa142e0df4f609U, 0x4a11dadc1321d123U,
  0xe2d1f6151e2035e9U, 0x78cc19f1e701dfc0U, 0xc8f4eee30108ed0cU, 0x1ac2ebe90ac01a0aU,
  0xe2b4d1ed29c29ad1U, 0xc5301fe7bc24083cU, 0xeecbacbc23071423U, 0x17dc27fffdda8df4U,
  0xfda2f36c70ec520U, 0xd2ff27260dfeed1fU, 0xfc0cc7fc34f310b3U, 0xe719ce3606001929U,
  0x17f9efecd5b4ebbdU, 0xdbd0161f25270ecaU, 0x3ff210f4b021fb1eU, 0x47f201380ffcd609U,
  0x10dc24dc0f1233f9U, 0xd8dc322f3344c5fcU, 0xe3ccb800e3f2ff17U, 0x20310f5e1a2f2feU,
  0x183d31e6fae81205U, 0x1f51fdc71fc5b6efU, 0xe4fce3d0fac205e0U, 0x27f81c0a1115d623U,
  0xdf3c36d407300a08U, 0x1cef1f0b39be14f4U, 0xe8ccf02233fc111aU, 0xedc50d30db04e33fU,
  0xdc39c52d05fe37d3U, 0x1ef0eb90cde004dU, 0x48d73416fadd0aeaU, 0xfff9ebe610163902U,
  0xfd0c4d04210d19caU, 0xf2092442ec1f01e8U, 0x20dafaf2cdd6def8U, 0x43d8bf011d320e08U,
  0x51e6c2c9f81acef1U, 0x24dd24d5a3f05feaU, 0x1839d73e1c35def3U, 0xfaf09b6c0823fdfeU,
  0xee3e047ca1cf3e8U, 0x1f3fdbb2510200eU, 0xdbdc81f3e51a13c7U, 0xc914cdfed99dfad7U,
  0xe601db15ef1207f8U, 0xee61c56f91b0203U, 0xb1dc7decd0affdaU, 0xf02b17d3f6170e33U,
  0x4de921fff8ebf4faU, 0x1316f1beff0a0b2cU, 0x1406f4fff918031fU, 0xe845ed0b21e5ef1aU,
  0x32f7d7f9eeee09eaU, 0x1a103700ef4814f8U, 0xffd3030c1ff22eU, 0xfd2547ef04e60b03U,
  0x4a101a04de11f916U, 0x2901f5fe539df2bbU, 0xe2dfc7e206f3f9d2U, 0xdefc07f5cc40d3fbU,
  0x280d020104f6a50fU, 0x34e3b9bb12403ce7U, 0x636d2dbedc3e2f6U, 0xf814f437df16fcd8U,
  0xfd2a19f5fffb1cf9U, 0xe0ecf5051a0ad2e8U, 0x1ec2381acd1d511eU, 0x4be6174f05ec1502U,
  0xf3e00c1b1acb04d4U, 0xc4cfaf4f3aaef0aU, 0xb3724f129b35ae1U, 0xfc29212f9b0505ebU,
  0x200e0d66e9dafb1aU, 0x204128c11de72320U, 0xd701fd2f11daf3f0U, 0x41e917ef63271d04U,
  0xeff9f4f8fd1bf402U, 0x18e0ed04e140d5d3U, 0x32b20fd1c70a0cc2U, 0x4afdf00f0ed70227U,
  0xebe722532e4cbaf6U, 0xc0aedb7b3c125ebU, 0x2c22e2d13dfffe45U, 0xe0fb0f1df4b70c17U,
  0x26f4c3eb472bf2f0U, 0x20c340ee6f3d64fU, 0x20ab3e01ff130efbU, 0xed0eebd5130e38f7U,
  0xa2de00f511072e02U, 0x1f106e224a0e6d6U, 0x3401dc18f7f520dcU, 0xecdc0b1ce1be0b30U,
  0xe7e781050cb86807U, 0x3de18fa32fce403U, 0x10db111a3906c71bU, 0x1ad92ae018c634fbU,
  0xf21dace90c0a13f9U, 0xf70c10f527e611e1U, 0x1cdf1902e023f129U, 0xcaf015062f2909f2U,
  0x11f7f6022500f7ddU, 0x1ade171011f32946U, 0xe707d8d7463a22b5U, 0xbbf1403402c507eeU,
  0x3715dd0706ed3108U, 0xf99d014804282bd6U, 0x156f1b0c0a2c1be4U, 0xd7fd1e1f7bfd1731U,
  0xfc6226fef5fdfd2cU, 0xc7ece02011effc04U, 0x940507d10c201bf7U, 0xaf7d1230af628f7U,
  0x340edc815234700U, 0x1fe2ddedec4b32b0U, 0x15e4ffc8c62e1606U, 0x3d1743d3cc1e4cddU,
  0xf63116fd1732f338U, 0x46943900d0383629U, 0xec17e80e06f911c2U, 0xf112240bea55e212U,
  0x31f40ccebb1213c5U, 0xfa13df1b072be914U, 0xee442220d3ec05faU, 0xfaeff646cbc527edU,
  0xd2dae5f8f6161d04U, 0xecea10dcb5fdea6bU, 0x23d429fe0c1a3ff2U, 0xfde0e0efe30556d2U,
  0x1fea15cd2bec23fcU, 0x111ee91cdd1808eeU, 0xe9fa1cf9fb002e08U, 0x13e800e1153b3003U,
  0x1ec5ebfcf3ead40aU, 0xebd9dae63cf80217U, 0x251fc61b05f5e6daU, 0x14181f4ad1e8df1aU,
  0xc3eef7d51af1a7f7U, 0x24efddf8eff30501U, 0x17e806e4ba04ef6fU, 0x1e3cf3230d345b9U,
  0x30bdde705c9f6adU, 0x615d71d3be23614U, 0xf7f320ccd9dc2e24U, 0xe71b053aebdf2f01U,
  0xf8d9d8e91622c6e3U, 0x2d19ea3bdf321d16U, 0xe407fa0dd10d0718U, 0xfe26f3f8c1f822c2U,
  0xfddc25fa18541b04U, 0x571a2609fcdbff14U, 0x1ace5512f3f1f4cbU, 0xede2236fe53f4ffeU,
  0xf703cd67e50af5ccU, 0xabad19115f80806U, 0xfcda1957cf051642U, 0x21356808b0dbfa07U,
  0x39cf34124ad7dfffU, 0xa877e3e598de00e5U, 0x1efeb0f61aed31c2U, 0xdf92f17460e3c38U,
  0xd6bdec0503d7bffeU, 0x352802c3e6e53b13U, 0xf70e3214fdbfefcdU, 0x10d0da311a21c104U,
  0x3af4061bf71d00cdU, 0x2b06024345c33b0cU, 0x14ddb10cdb4ff1c3U, 0xfed523a2de0e5d1bU,
  0x6cd10505116d0ce5U, 0xe9cd0a00cd0a1b02U, 0x51180de5112eddecU, 0xeed8f91bf23cf218U,
  0xbbda44e8f1ebf718U, 0xc70d2450d73a3207U, 0xf0065604d9201ed0U, 0xf54ddc25e8ed0d73U,
  0xfeecf5f814bf31e8U, 0xe129dcd8e54d30fdU, 0x4e8d7eaf82a2e0fU, 0x600f0b5e4d1e33eU,
  0x18ea39c8ff1620b0U, 0xd1293df01a0cd1d0U, 0xdfb21101fbe1e5c6U, 0x2816ebdd4aec0fdbU,
  0xd41d4016f40d2ad7U, 0x3da364b0ce6ff1eU, 0xe8eb2ec6fdc42e1bU, 0x2d053ecfd8ffe5fcU,
  0x5364513d0e6ce38U, 0xd6ce40b7c458ea96U, 0xf10e2c1db0cf7b1U, 0x77df3d019113dfdU,
  0x34dce6f518ef09d6U, 0xd40edd58b457e528U, 0x322e22f1f549e130U, 0xc0c30de88e3dd4f3U,
  0xf435f5c020df0234U, 0xfcec030e32ddd437U, 0x18ddc852d1c10cd5U, 0x2ab000c3c9df5ebU,
  0x3302fae2f31ca2d7U, 0x2cd081edf9cbf5bdU, 0x2e2418ff4c0dd30cU, 0x280b32cbd81beb3dU,
  0x814d9fde3f3eabcU, 0x1bfced19bbd905d3U, 0x3dccd7f311041d17U, 0x5fa1118e0041dfbU,
  0x1afaf34bd21f10ecU, 0xe3e4f312ed2412U, 0xf4e80b19e309ec29U, 0xfc17ecb2f92105fdU,
  0xf5381df6d9e60c11U, 0x19e1f9f7ef0b031aU, 0x18ed34fa0a0a191bU, 0xed06fd0211c707deU,
  0xfe09cfebfd0df10cU, 0xa04fcfcfbfe12efU, 0x282300f0f0eada17U, 0xfee0619142b1615U,
  0xe8e6ed360700f1e8U, 0xf5e4b615dbfc01f9U, 0x1df90cf6f5ec20f6U, 0xffe5cef8c3e21e04U,
  0xffaf306d0e7e7b8U, 0xfb2dee23edf80732U, 0xfe23fe80101ee0eU, 0xd21decef1003edfdU,
  0xbb010be503fffdffU, 0x550fd1d03fb06fbU, 0x1129efdae42cf809U, 0xcd504022131ffd6U,
  0xfbeee04f221831d8U, 0xf4d545150c04fa12U, 0x191631e207e812f8U, 0x2f9fb15f0ff17aeU,
  0xfe5e2d8f1ec1313U, 0xd6ebf40bfe00e920U, 0xfc1a7f221fe50ccfU, 0x403084cdddcf118U,
  0xfefa28fbfc05feeaU, 0xf0fdf322dc2cf5f6U, 0x2f03350e0a1ce3ffU, 0xe91d1dbf1a11220eU,
  0x2322b0cf01e0eeeU, 0xd8fdfc0f03e9fd0eU, 0xfeae2fff4f415f4U, 0x1126f132f6d6f225U,
  0xd2eed331e02f5f9U, 0xf80401e51de9c0f0U, 0xd7e5f5df0defff03U, 0xf508cff10b130407U,
  0xd90521ddf1f31fe2U, 0xf510d312dfd01530U, 0xec34520d18fd2b26U, 0x25ecfd2c4cf3280dU,
  0x81eeb08e1f5fbd4U, 0xf1f9eb07fa19e7U, 0x1d701e8e90deee6U, 0x8fbf7f61a191dfaU,
  0xf60decdd02da1608U, 0xf911e4f1402cd7efU, 0x3915dbfd190def1cU, 0x61ceef9f8e83f05U,
  0xefe811ebee051308U, 0xea2cecf40c041d03U, 0x7ecf91e0afc2227U, 0xdb292d172005dd0bU,
  0x5f6292bf632210bU, 0x20f60de609e22943U, 0x43fd04051b1102e7U, 0xfd03131c42e4160dU,
  0x14d92f14aaea07f1U, 0xb1101c0b000a0c67U, 0xecf0011cdc9dd2eU, 0xfeba2fefeec1de20U,
  0x19d5d8cae532134fU, 0xb6eb10fcfaf431e1U, 0xf24c2ed91af6f40eU, 0x33e002053ae40127U,
  0xe50615df0b0ac90bU, 0xd9fae325d6eeceeeU, 0xdc4bb6eaaf04005bU, 0x8d711e706f2f9d4U,
  0xc05fee217361317U, 0x25f6eafdd309e6e5U, 0xfd16fde3f3ede949U, 0xda05d325ec14e9c8U,
  0x160aea0642a4e2f0U, 0xf602f0ebbdfef61eU, 0x2bb83102da1d2919U, 0xf9bf340de4ede54cU,
  0xfbedee3d11b72ef2U, 0xedaaefd00e1f7eeU, 0xd1d0b416fa21504cU, 0xf422f6e7dbe606f7U,
  0x38b60115dee709f5U, 0x17332fc4cdfec8faU, 0x1bd827f5f9f924d1U, 0xfcecf1e8ecfcd9ecU,
  0xfbf62e0421b40028U, 0x1e93af723cf09bfU, 0xea0c2a4ce3f0fe0dU, 0x33e913b8f705f6fcU,
  0xfc05433d4bdae712U, 0xffd3022a1413ef13U, 0xf10b128104fc1809U, 0x4ea99c308e21acfU,
  0xf4e8eb2df327d819U, 0xeacbedf9d515b71bU, 0xe5fe235efe241b03U, 0x1e27345b56d1e8c8U,
  0xd21b27cb3d101bf2U, 0x842beb1d11f2fae2U, 0x17d1dcc2ebbb0520U, 0x2a0d180e91ebe5f2U,
  0xd138131cf73927e4U, 0xe22bd6ef28d02cefU, 0xa4cd81bf005a8f1U, 0x1f32c51d30190815U,
  0xf917dfeff7fbd41eU, 0xef5c22cf91157e6U, 0xe4cf452d2016f0d4U, 0xe2430f320d042912U,
  0xf228dd1108273a06U, 0x2f29caa03424e0d1U, 0xf00e6411ed2203e1U, 0xb40a4d14f701fa2aU,
  0x22c6c33736240606U, 0x103b1ff72124e53eU, 0x1239f3dcda250af7U, 0xe2b3050f1f21f11U,
  0x50802d6c1d2fc09U, 0x2cda1cf2d9322be0U, 0x1c21162f46f7b5f7U, 0x6edd3e4e6ecd2acU,
  0xe3e8061ae3f9e821U, 0xdf19f34909034812U, 0x29ee1338c7056f41U, 0xb3f11203e70b01eaU,
  0xd6f51406cdf1fceaU, 0xe1530309cfb6ca10U, 0xebccd643defbf11dU, 0xd009f72438bbf9f3U,
  0xe6ee2d17b12af20eU, 0xf216d81cede90009U, 0xf813e7cd4d172bcaU, 0x20e219054905eecfU,
  0xe337fc334c240f1cU, 0x2d3bdd01192defe2U, 0xd500dc31ecfafa12U, 0x1969d210cae1fbe8U,
  0xc4ffc4f90b05d8d5U, 0x1e23d21404fe1e0dU, 0xdde1fdef5e813f0U, 0x2af6060e06d221d2U,
  0xebfd092300f8f613U, 0xde2e5f9f6504e26U, 0x81d2b0a11fa238dU, 0xd5020c1f13b5c2U,
  0xdfe70af93e26ebf7U, 0xe8071beffc08f10bU, 0x71542e60ed522e1U, 0x472404ebeb240a84U,
  0xce2dcd0140103f1U, 0xd8052909ccf913e2U, 0xe37df04e1e6031eU, 0x25fcf51af426ccd8U,
  0xe6150efbec0c213aU, 0xae2bd4d90a5efca8U, 0x11251a0f06dcf5a2U, 0xea1910e028d218e8U,
  0xe333d51af7f22429U, 0x308faf90fcd2f5aU, 0xfdf10106fcf3c9d8U, 0x16ebea3cf6edda35U,
  0x16cdf64b2af50bf5U, 0xf7eed712182ae1f4U, 0x36f62100e6201a21U, 0xf6dff00101e07116U,
  0xa0526291c0f3914U, 0xa5e423f693ba0bf2U, 0x130031ffe90da531U, 0xfc39f84dda2e18c4U,
  0xde45ffd7f2e8ea03U, 0x19ecf415065a2bf1U, 0xb80fe8c70e38f1eeU, 0xea16d5dce5fdcd0dU,
  0x34d0e4e400f10212U, 0xde1dfb19dafce8efU, 0xef044e09fc2a1a02U, 0x6170b0f330bed08U,
  0xd4f910f7f8ee0346U, 0xf30feb2ee9fcf9f7U, 0x2c01e9b4d402f57fU, 0xe00914ef4b281407U,
  0x5521e9ea11fb1cc9U, 0x7fb00e928d41f0bU, 0x123e4ece723fd14U, 0x9f2cf2fccda0b0bU,
  0x20000babac00005U, 0xdfece8b2d12af4f6U, 0xe62deff0e83aea29U, 0xd8ffb9cbbc100222U,
  0xe12dbfe3f0c227b6U, 0xe220e41b22e9db12U, 0xdb2fc0f430f71653U, 0xf60b2c0342cfbcf2U,
  0xffead8251e26e118U, 0x193ce537ec1640feU, 0x825080620de0910U, 0xece09f4e3052be2U,
  0x393cffe0fcc6ce15U, 0x107e0ec3d16f31eU, 0xec4f04e803170fddU, 0x471510e4f1f703b5U,
  0x1fb10e4e0ef2f5U, 0x120e0a2edcf8e7f0U, 0xfc203f60216f8d6U, 0x14192605d80cf642U,
  0x14eefddbced41be1U, 0xf013fed92327ecb2U, 0xf010e41bdc38e5e4U, 0xe5ecbe4be50aefc2U,
  0x310b3801ff0123e3U, 0x2a291a05eef91a01U, 0x240e32bcc70bfc40U, 0xcffd8e6e41cff1dU,
  0xedc5d7080ce71e3aU, 0x3012b02afd0ef1f4U, 0xf90c07ea040603e8U, 0xfc2841e7172dfcc0U,
  0x417f1cfba582c33U, 0x3ef0e322edfbe014U, 0xfee7e49cfc7ffa1aU, 0xa0fed03c06d804f5U,
  0x121ee41e1af41959U, 0xbafcacd431fa1a2dU, 0x13ef8c9081c33f0U, 0x2de1d93427fd020eU,
  0x3030fb615f90009U, 0xe529ecf65703fafaU, 0xeade03e7270204c3U, 0x343b1a30e3e1e61dU,
  0xf42cf82ab0d0f51eU, 0xf0060607032dc314U, 0xfe2a1bf22609cbc7U, 0x14e9e2060bf9db06U,
  0x14de1a08cbf80723U, 0xf6e91d57150a4c0dU, 0xdb3ea24008fcdd0dU, 0x1103e4cb11ca4a48U,
  0xf6f1e5081c00cffcU, 0xd50f0ab8d1feb602U, 0x3f7229f3dd0ec31fU, 0xfbfd0ddefeb10902U,
  0xfbfef903090b1e11U, 0xfa591e1ce3024810U, 0x4ed182bb017173cU, 0x43f512e638f1e106U,
  0xafb06c7063a112aU, 0xebf23f1fe3fd23e2U, 0xec13c21b123ee721U, 0x3fc0a25feac22edU,
  0xe4db14f520eff6f7U, 0xbc6e7e519f71fe9U, 0xbf1e11eaf3e818efU, 0xda1027ca0be2d4e3U,
  0xd3dfec4b080e0a0bU, 0xefe60d1de7d430e3U, 0xddfbcad7f049fa10U, 0xab1d1207ff01b9d3U,
  0x41deaf7ec6fe12bU, 0xd9da1f17f0b70416U, 0x12d2dd313dfdece4U, 0xd639f504e0f62233U,
  0x2fdedfbf61c0fe8U, 0xeb021941f6120d28U, 0xce15ed24060a2509U, 0x3443f1ff15ecddd7U,
  0x160ee00501c7fe11U, 0x1a0a2d1c00e71c36U, 0x3fcc4e430cdf51cU, 0x319a0a36fda7f9f7U,
  0x26c7081810d9eddfU, 0xde1206252c141347U, 0x9efd1214b0281d08U, 0xef1e13108fcfeedU,
  0xb5edfef2facf107fU, 0x432f3b04e1fa03e9U, 0xee3234fe2fca19b9U, 0xbc3f3f00053e34deU,
  0x1116d941f9e61dc5U, 0x583aeb32e2c404dbU, 0xf8e123192638d3f1U, 0xfd0ed3f615f6ba38U,
  0xf4d921f52c122dc0U, 0x19e8e60e17f14e16U, 0x2d3c260c45e40206U, 0xff104ddef3f5fba0U,
  0x333008f101dc0a01U, 0x1132bd1ac435c7efU, 0xe2e3e7000c2d26fcU, 0xc8d6b3231cde2017U,
  0x2327e96200f6ee23U, 0xeecf0cdb1408c0d7U, 0x310a2be1df0ec110U, 0x7c4fb1a0306baf5U,
  0xe586e3fb9bec0cb7U, 0x1cd73c3a18ec54e0U, 0x5406011a04b6b31aU, 0xe6ff0de1c90b3324U,
  0xcc18d8d719affffcU, 0x190cd6b3170de8c1U, 0xfc061c360bd8cc1dU, 0xb0f2f62ae915df32U,
  0xaf8e32518f8d6c9U, 0x2a0601d31fea0237U, 0x2bddafc0e0f10ef5U, 0x14171e12242c28f3U,
  0x2fc9d9e50b2a235aU, 0x4109f8181d29f846U, 0x4c3916f7db27573dU, 0xdbe00c222ee8eb01U,
  0xddd10efd15d3e313U, 0xdb022b312108a848U, 0x395c073db4fdde21U, 0x29f1d8d126cd2eU,
  0x1d980f10a60527d7U, 0x1ce08fbd51e52dcU, 0x5c33be55ffdb0715U, 0xff16e43b461206c3U,
  0x2838b2ed04c8941fU, 0x511332eaf41d1506U, 0xd8a37ff0eee42646U, 0x2823fe8e11bf2fe0U,
  0xe2d11bcd0df7ffdcU, 0x2d6209fbb1ef1c0cU, 0xd12c06c921ee225dU, 0xc8df0318ff2eced9U,
  0xce0c604405bac029U, 0x4a140d383dc50b24U, 0x1fd309e7dc452ff5U, 0xbcebd937fdec33c8U,
  0xd69c0aeeed36fcb4U, 0xfb5ee2bdfdcc519U, 0x27d2fffdb73c1416U, 0xbb1c8fe1e8e8bf24U,
  0xf421fefff1dff525U, 0xefe1f6c842d3bf2dU, 0xdcbb31e1f8373a13U, 0x5345ea541903c128U,
  0xfa28cc069d3fb5f1U, 0x5fb2519e9e3b8f4U, 0x151b0dd0eaff1188U, 0xfc1d034ae539e8cdU,
  0xe603c1bfdd54bdeeU, 0x380d330ee4dac3f9U, 0x8f04104fb2ce408U, 0x1f0f0f49ff165107U,
  0xf30159eff9e60e27U, 0xde4d50117e0172cU, 0xba08f8f01af416b7U, 0x29d5212f0d24effcU,
  0xe12226f7cf0c32d5U, 0xdee83232f4312afbU, 0xd97213dbd0fea006U, 0x219e6e77cc9f146U,
  0x321ba0ff1e8c4caU, 0x562d08232e20eae6U, 0x1ae4ecbdff11f1e9U, 0xd7ef36d504beef1dU,
  0xf478e6e814e01fc7U, 0xf942451fb9df19f0U, 0x51060041f13f201U, 0x151222f4f5a105e4U,
  0xdce919fbfb39200dU, 0x422137eee995201fU, 0xf6103ef02ed41a10U, 0xf9d7282981c204ceU,
  0x1befe7d811e8bf40U, 0xfd23131bc4eaf019U, 0x33e706edd6cdeaf9U, 0xe81cd4425501dcf3U,
  0xc511fc00e9ead92aU, 0x6924e20b2c0fbf3eU, 0x2fdedf030b91f47U, 0xb40cae0b0c09e0f4U,
  0x2fe6b31bd8f1e145U, 0xb131d8b01c26241cU, 0xecc61e0efafccdU, 0xdeeccae927392706U,
  0x46b75a32f7fd060bU, 0x2c17dcee18e8e8f2U, 0xde2c185adb1aeddeU, 0xf4e0981dfc04fac2U,
  0xdc816f1030ed3ebU, 0xe5c5e20ef51dc4deU, 0xd1be568c7100af0U, 0x1dfa0bfa38dc232aU,
  0x2e2c1b2de3240946U, 0xacb5f4ae1338ff07U, 0xcf401ebf2fc1baedU, 0xd38e3db4d09ebf1U,
  0xbe0a38051af02d1fU, 0x1d3415f5d8febb0fU, 0x9fb5d28f424df34U, 0xd1ae1ee7d1e912fcU,
  0xd934ffc2def0322U, 0x12d90a5f01221e3dU, 0xf9d914010234c922U, 0x55ffcae12ef6031eU,
  0xc7040cf89bf013U, 0x713f1e71f11ab2aU, 0x52f9d5ccd8e3220dU, 0xfdf8f4f5eb0f08f4U,
  0xf3030ed1c0ca03eeU, 0x1aff0c727ba160bU, 0xf2e0fbd6174adf08U, 0x43fe1d1c1f3c1f45U,
  0xf80a1734edc0f20aU, 0xf611d28106b8ddeeU, 0x222bc3e347fb1edfU, 0xe2170a00adf42620U,
  0xbb000f3707cd5b4eU, 0xf237182a0ae6d312U, 0x20d5c2a90f25df2bU, 0x14e10f35fee32e3aU,
  0x29e30decfd21fcf3U, 0x122e5207f7dac4b2U, 0xd8c8b810130f071fU, 0x1e06ed01240fe2bdU,
  0xf8fa0ce031e911fdU, 0xff0fff17f4f837d8U, 0xa1821a6eef5fdc6U, 0xee04be120bfcf101U,
  0x2bfb2f1e06a4ff13U, 0xb42700c8091f1bc0U, 0xded62aeb0af736efU, 0x2826f615266313a4U,
  0xbee21231416ec32U, 0xe00c2619d6cd3d21U, 0xe1df25f5c8ade511U, 0xffec3cf7ec1e0defU,
  0x35fe1d13d5001ae1U, 0xf9340ddaef3203d7U, 0xf3e318fa27e2f804U, 0x45d374e923c92a2bU,
  0x162d0311090bf4e7U, 0xfd41d327f0d7dbe3U, 0xd0dec900f2bb0c37U, 0xf22029f3dd18130cU,
  0xfab9fcc945f5fb15U, 0xe7111ab1db71c5abU, 0xfe12e60aece1e13bU, 0x90d7e562404e218U,
  0xe3d8df251b191b38U, 0x210dd9ed41ea4fe8U, 0x4408f93928d905e1U, 0xf459fb1cfe2abde4U,
  0xde41d7edb835d130U, 0xd9f90d1af829e1f2U, 0x12fd140cbe1d26dfU, 0xfbf0031cf63ad2d9U,
  0xc0cf1ff202d18efU, 0xb428f40fac3adbf6U, 0xec0c15275e181df8U, 0xfcea26e0d3253726U,
  0x121ee0daf4e5201bU, 0x16c6fa041fd53622U, 0x24c51820bec29f41U, 0x11ef25df4001bf6U,
  0x1f7ff605e0efea8fU, 0x2804cb2cf6f6b0dcU, 0xd5fb06f7fe4128e4U, 0xad5bf602b7c12032U,
  0xf724cb1138feac3dU, 0x103417191b2c6ecfU, 0xfde2da0107afbbf5U, 0xdfe440df3610ce07U,
  0xda0ff82754c915f2U, 0xe710c713004c9802U, 0x3cf0fdff1edd0dc7U, 0x1cf9c532fa9b1a00U,
  0x1e0b3005d002c477U, 0xe92cdc987733ffddU, 0x7e02cf97eed11d1U, 0x27ad4be6cfdaf93dU,
  0xf4fb3db7170f0d05U, 0xdfc8c133d52d1d2eU, 0xc5e3dce92427e7e1U, 0xe81ef7551445fed2U,
  0xf6ddee13f505cdfdU, 0x9e6e210a9e8db13U, 0x29ea4ff21323dbe8U, 0x4950f4fa32eff2e5U,
  0x3c02ebc6f2f9d92bU, 0xf0e52bfcc9f7fcd0U, 0xcf1412062f170f2aU, 0xe118ccf62af6b301U,
  0xd6f319c634d9cd03U, 0xc418f512f132f183U, 0x2d60440f1ec25c7U, 0xfbad25e41bdae2ebU,
  0x10fe8ea2211e500U, 0xbe5ff3413c5f621U, 0x15b2f7d7f2b8e0faU, 0x12f150a3f40dfc2cU,
  0x1edb0aec0de5d1e1U, 0x4606091bcaeaf655U, 0xd5849112a038815U, 0x162708011526d9f2U,
  0xe32f38b20dddc8e7U, 0xc2c9d700dce2b1b6U, 0xef0adc121a182ef4U, 0xe61eb8d9f7454716U,
  0xb8f300d1b21de4efU, 0xe5d7271501470ebfU, 0xde39daffd60eedbaU, 0xf50b0cff23fcefe8U,
  0x33cde2ed09ef0f0eU, 0x1f1ebd0ff606f4ffU, 0xeac50d01e504fadeU, 0xe7cfed1a01dadaedU,
  0x48fad1facaccdfbdU, 0xf1f70238170b0f3eU, 0xf9990f04230617e7U, 0x2f24173d20f72320U,
  0x21c70e0dc924ef33U, 0x1df7d5fe06e813f2U, 0xdc08fdd7f5ec2bU, 0xfcef2cd53849bb00U,
  0x7f11ed3cebfbbe08U, 0x250926db2216f153U, 0x192525ea1c2bcfcdU, 0xe9141fc6d4ee0c03U,
  0xe7fcffe4f2f719f8U, 0xfe07fb080701b01eU, 0x201e2f2229e1e7d0U, 0x340cf4fdf9e01a3dU,
  0xb614f8c6f526b7c6U, 0xcab026e814eaeaddU, 0xfa11e810b51b09fdU, 0x42f0cd691bcd17ecU,
  0xf50014ff0c0547e5U, 0xedf61901e5eb3be4U, 0x152ab41bf41215b6U, 0xfd14eda7071246f2U,
  0xedd72a250a1d0ba2U, 0xf722d6ec202c22f9U, 0x18172ff002e3f30dU, 0x22d7fcfe04f30cbaU,
  0x4df0311ac0da31f1U, 0x2b241815ded5e800U, 0xf6c818ef090ffcf7U, 0xe814da351cd6cee5U,
  0x3f1e531d6ed06d6U, 0x42c515f608efe40bU, 0x251014040201d3eeU, 0x242119f71bd4264fU,
  0x337e1230bdf0aeeU, 0x22e320e23010bce4U, 0xe110fa46f2f6e2U, 0xe349233b001ddddcU,
  0xd20915e5ebdef6fdU, 0xdad60825052c10d9U, 0xf1ff4e3de030a16U, 0x43f1eaf427252b01U,
  0x31e09eb1dfce8f6U, 0xfe17e6e0f2f8d810U, 0x182ce1deee0f240dU, 0xf3e8dddd09be0166U,
  0xdcd1818e0ebc5deU, 0x241307040dfa06f3U, 0x54bede902cb4aeeU, 0x143cfafa30120f09U,
  0x24b90004e700e21cU, 0xf0245f20e2315f4U, 0x1cc00be4371cd20eU, 0x1dd50d01290906cbU,
  0xd1db384f2c12cf12U, 0xe5a01fdb2ecde9f4U, 0x2b03f311fbc7bad3U, 0x9a003ff0efddec32U,
  0x13b414ed29e9dc18U, 0x2f21150cdc0640deU, 0xfa434cd10cee2a18U, 0xf3ef0c29dd16db10U,
  0xef0bfc26ec181f14U, 0xccf90918e9330af8U, 0xfce5e7f70bd8d740U, 0x35e0eccd6de208daU,
  0x9e5e5f62338f710U, 0xc212fa01d127f20aU, 0x1a35facc43f80523U, 0xecd914440accdf15U,
  0x270c0928200402d3U, 0xe0e9f9f7f8f8e4U, 0x4c0916e5ece3e1fdU, 0xe4f5173409262ee1U,
  0xc2be040ef60204e0U, 0xe205ef1923350de8U, 0xc7de08cedd340c26U, 0x31f4f6dc00d8e6faU,
  0xc5291badfbe1f60fU, 0xc37eb06062207f2U, 0x6dff52a3b300609U, 0xd51b253711be2df0U,
  0xfe18f6f4484e1f0bU, 0xfd64fe07dbefe7eeU, 0x270cddd1ea0e14f6U, 0x10e616f4d6364003U,
  0x120af702d9f2dbefU, 0xece0201e5b8f0U, 0x25192213ed040eecU, 0xcbdf14e9e728b9f0U,
  0x28f3dbd1e50c4340U, 0x1d0afb1b241c4e26U, 0x3221fbcf21a715feU, 0x1ed800d9040b2505U,
  0xf211f3eae2e011f0U, 0xd1d10e1b309affbU, 0x3c4a13c503111b20U, 0x22e9f5fa1d03f209U,
  0x230de310f2f4151bU, 0xe2addd10ff28f7fdU, 0x1625d6e7dbe82d81U, 0x3bd958ebe51a060aU,
  0x416fc0f1b0fe3dbU, 0xa12ad4ec0d1dd429U, 0x23011915d2230949U, 0xe8e625e3f0eb0520U,
  0xe630dae5e512102aU, 0xfe162be1d91c004dU, 0xe0034800f3fe1c08U, 0xfae3e2f93d1c0ef2U,
  0x43fd54eec5171bd5U, 0xf0e90700451ce9fbU, 0xc0070fda2100fde8U, 0xdef52905ede8fa18U,
  0x590fe2fb2fb5fe21U, 0xe3133ef5fce6e3f7U, 0xff3c0dff0af70ee4U, 0x300dd70c520bd126U,
  0xdefef5e80a39f2d0U, 0xdf1b2d4f0bbb14c3U, 0x2602f6ef1b0aee0dU, 0xffff28e9d9f2dfbbU,
  0xdebf6c9cf0c0a01U, 0x20c505f1312ce2daU, 0xc503161ab0d704fcU, 0xf4fb07ec210d06d0U,
  0x36e30c1cf20ac813U, 0x3d22f63208f62703U, 0xf51bd5e8dcc90ce2U, 0x50ee2af928180520U,
  0xcb28d9f805e25516U, 0xd80530ec1a2cd3ddU, 0x234144531ff91ba7U, 0xcc0a1018fa251807U,
  0x33cd381c4ee9c01bU, 0x190d1548dc0a0b15U, 0xfbfbf7b932da34ddU, 0xecf725e448ecf23bU,
  0x2fd16d9dd3af4dfU, 0x9f93013fa01f3ffU, 0x32e20517ec30f1fcU, 0x311e0412fb14e5edU,
  0xeaf508c0d501f5d6U, 0xee2903f300e204ecU, 0xfbd91117f510fd50U, 0xf9f8313c0308e5e3U,
  0xe2d61b093b1b19edU, 0x1beafd061b42fe1dU, 0xff11fafc1ad61dcfU, 0xa2bf7c7d4f41144U,
  0x21e807930dff03ffU, 0xcc431ee7251e050eU, 0x16d32c1e06351c3fU, 0x57dd2b1309201e0cU,
  0xe8030107c202f603U, 0xe8f8db370e0d0d15U, 0x1ffcfb13dcb62709U, 0xebf211fbed57da17U,
  0x1bfe120d0f28ff03U, 0xa8fe0afcc2bcfc3eU, 0xcebdfed0f921d918U, 0x14f2f6f1ad24dbe9U,
  0xa7cddb3b47172234U, 0xe57fc3124bb83254U, 0xf5e1fb323afa270dU, 0x41dd34ef092ee50bU,
  0xe8fdbc1cc10518d0U, 0x36b1e5f53a4025f0U, 0xe70cf83312ef51e9U, 0x26d5f42756160ef7U,
  0x140e1c1024150b18U, 0xccf807ee0f06d302U, 0x9f6d6e413f1f111U, 0x4be5fc0ff9fcbbccU,
  0xdff0160cddde40e7U, 0xef16eef502d0b602U, 0xdde500194100ad07U, 0xfa170aff1729f6e5U,
  0xdc12d9102adbf223U, 0xf5d3f811123c1448U, 0x2eeded33f0f115d1U, 0x5dbfdf632c3ff10U,
  0xf7ea05b21711ea39U, 0x52e9cfffd1fdececU, 0xfe303325c1347e6U, 0xcce8161ad73520e7U,
  0x21f6ef3601f40d1aU, 0x90407ee1039fd6bU, 0xe424d1b113070afbU, 0xc04c32feec8b42fU,
  0xe040f308f1cd4125U, 0xd5f0f1f8f7221a28U, 0x235d4611eb152ad9U, 0xd6cce104f2defc33U,
  0x4c2768f22e1f2b41U, 0x71d040e232216edU, 0xb6e829ee3517e708U, 0xfa42bccf01e616e9U,
  0xf420ecf6fe3ac3fdU, 0x63deb29ef0a2906U, 0x3bee30d2eb34ddf3U, 0x131df1ec11140557U,
  0xcbd92cdc13d70249U, 0x5ea0be4e21ada3cU, 0x16942008d84212e0U, 0x8d9fc1408eefe22U,
  0xcd1319322ec7f81bU, 0xfe18d6e5e206f2d3U, 0xdcca05d9d5c0eca2U, 0x88e0ed39cee03f00U,
  0xfbc8004edc46d326U, 0xf817f9c9b4d6ec25U, 0x37c6201e03f41cecU, 0xd0192c08522dfbfcU,
  0x9bf2503604c5d2e6U, 0xc8303cfef33fb0e5U, 0xd44e51319372effU, 0x42f6da37cbe80e39U,
  0x2c0411fcf1f9160aU, 0xecc10919b540ff42U, 0x1255e133e7fe1525U, 0xc21f2091a300e08U,
  0xe80e16ddea300f00U, 0xf7fae8f80c046af5U, 0x2c37e1f1ca054336U, 0xee21193f45f5243bU,
  0xc0c29e0436e71413U, 0xb7d20b1ad8eb41feU, 0xcac8bb1818378c1eU, 0xa50e250748d9f9cfU,
  0x18f64a1cef042a13U, 0x223803096ad5e60bU, 0xf7ecd4f8f5c933cbU, 0x1dbe71ccdeffd29U,
  0x27f848d12d2c0246U, 0xe7e6f54975d4cc11U, 0x1c1313c4ffd61ce3U, 0xc8fbd4dac6fbfcd7U,
  0xec00b6ce19022939U, 0xf926d51b050a335cU, 0xbee6e6613f328ef5U, 0x8075ff57217f01aU,
  0xf9ca2c290829c820U, 0x2b20be8106eaf0bcU, 0xfbe9f3eae826faa6U, 0x291320ed070f25cdU,
  0xfd1aa7f5beff1db7U, 0x1c0335d81005fd10U, 0xead609f605e22333U, 0x201f4ceef0600faU,
  0x384fc129fbf9b7dcU, 0x2e94f4b3b30622f9U, 0x13e80bcf22e25305U, 0xf11e47f9e5f313f6U,
  0x12fc1401ff0bc90cU, 0xc40ed1eedfeed21cU, 0xf519e5e5c3e8cc0dU, 0x41731d815f7fe24U,
  0xc0ee6ebe1ae4e6bdU, 0x28b005de510224e9U, 0x593029c60de6d11eU, 0x3029130800e9e9e3U,
  0xdd1d174205f4c100U, 0x14bf0cee2ac1d129U, 0x23fd13bdc84c81bcU, 0xc2252bffae29992eU,
  0xb62d24f9241918d2U, 0x14de262806e82319U, 0x1d3012f020618ffU, 0xc2260516020d0bd3U,
  0xd4c6fffa020efc9bU, 0x10c61efaa2f0de13U, 0x11241e1ea2d534dbU, 0x921edf503c41becU,
  0x9724d619584c08deU, 0xe6f44c16da35093cU, 0x16feed2ff2369629U, 0x14c123cb2f054226U,
  0x3620cf1508ff09bcU, 0x1b1000e0f0eff141U, 0x1fc300e4ecf22aefU, 0x9d3825eff11a170dU,
  0xf81c54c808dd2906U, 0x10df310621dfc4fbU, 0x19f7e511f627e919U, 0xe4ebf644ce21414dU,
  0xdc0ddc26cf2af01aU, 0xc843fc099ed114dfU, 0xce1ed1e20e0bee25U, 0xe9dcdef4c1fbbe4dU,
  0x180bebd6f602f20dU, 0x3e0cc0de052b01f8U, 0xf5f7204acc1c35b7U, 0xd5c49203f609cfb6U,
  0xec141fb5ef0705f0U, 0x19470332e135d9ddU, 0xe5e81017e51c18efU, 0x2eecce29ffeb0301U,
  0xebf8e0d7d5f19c08U, 0xb9eaec2431114bdcU, 0xdec2d0010064d3eU, 0xffa171436e2a7ddU,
  0x16eadd0ff4f404f6U, 0xbce615f9183206f7U, 0xe21bb9dbcce1d5e4U, 0xf1184fdf060de91cU,
  0x322d5d1fffbfe04U, 0xfb4f08fd3c01f43eU, 0x240204f710dcfc2fU, 0x1f829e512100df0U,
  0x2cb7e20525aaf3e6U, 0xb903edf7062844e6U, 0xf62aaf24b3b7e52cU, 0xc5ff0800eb0424b6U,
  0xfdd0feddb1f737efU, 0x292e3cf427e8d74aU, 0x198afae3c3e517e5U, 0x1e2ffd1231d11536U,
  0xd91d360d0435dc0cU, 0x2027d0f00d1117f4U, 0xd34822c4b50be43bU, 0xc628df21e00904e8U,
  0x320140c9d341fed5U, 0x220a2907f914091fU, 0xe71afe24eebdf3f5U, 0x2c2c1c1ded1ee101U,
  0xd33b18d2071d13e2U, 0x142111b27d04b15U, 0xe6ecf6bdb1150dcdU, 0xf10bc807c80024c9U,
  0x2497cd05cff42147U, 0x3716d4752a0f9cf7U, 0xdfc27c4f804d1ddU, 0x318f6fefb190e0dU,
  0x643efd56d635ef02U, 0x15af00c70f14e232U, 0xe1e32dbda0539efU, 0x26c8f11eca1a02fdU,
  0x10f22ddadc4c3617U, 0xea02cef91a01da46U, 0x313dccc004314225U, 0xf322e3e02a1a04d3U,
  0xb32dc110fb234ffU, 0xf8162f1305ef3b1eU, 0x3f52705ee25f406U, 0x82fde6dfce082222U,
  0x27e6f5c1c73114ffU, 0xc60edf2654ca1732U, 0x2ec2eb191619f1c5U, 0xee280ad11ff9cd11U,
  0xe6f5f1f408f6fadfU, 0xefc0e810c6d93e3cU, 0x272eff0c0cd93217U, 0x290ef44b03190d3eU,
  0xb04020ee19dc03d7U, 0xf92126f4e6f8e333U, 0x1f3bfa5e06fb000eU, 0x11cd9f0ec4fdeceU,
  0x8aae8e749b20b12U, 0xcef332ce143822f3U, 0x14f326013ec8e430U, 0xfb0fd9cc1bf70b2fU,
  0xece8110809b10229U, 0x15d2b600283ef4e4U, 0x1a2ae0ea08d42aebU, 0xe022cde06b0c68d7U,
  0xcff507f3e6cbe754U, 0x182c01061b2108d6U, 0xbdc3750d712262fU, 0x18afc8ee57e4e904U,
  0xf47f2c2a0f07193eU, 0xf4dffed4d9d2da1eU, 0xf634ea041c560ee0U, 0xa20605ef03e806dfU,
  0x12d3e3da0d171e01U, 0x28b615faf9f2e3f4U, 0xf7ddea0e2e1ac526U, 0x1327e80b222a1851U,
  0xf5fac2b9fcd3c7e4U, 0xfbd9cdfa49f62f48U, 0xf2cc27c30f1b27c9U, 0xecda3e20f21ced16U,
  0xbcb000d4932c8e5U, 0xbf006b8cc49f00bU, 0xedef2521e5cd01a1U, 0xd21926d1edde02d0U,
  0xf2ec0706290cd812U, 0xad26ea5b03ad320eU, 0x11dd41c0edef9deU, 0xb1030026f5371d14U,
  0xf206ef02dac8e24cU, 0xedf108f0f3e1d622U, 0xb0f6fbe415d01415U, 0xe63439df3118ec0eU,
  0x16c01f1e1ecd1761U, 0xf0e1da121411e411U, 0xe9ccf01e0110f5eeU, 0xef3a460af40aeb1aU,
  0xfdfb014ef136d316U, 0x39cf2db801f30401U, 0xf5ec227f2aeeab0cU, 0xf0fe0502effe4545U,
  0x1932d4f4e91104ddU, 0x1130190efa0015f3U, 0xedf00000c024bfdU, 0xf8152e81f0f2af21U,
  0xf0fdc5f8dd3af551U, 0x6d9e415ff2b3c29U, 0x80c18ca23f326fbU, 0xe7bd082e02c2ef2bU,
  0xef011cfefc140eb3U, 0x48fbaf19b1d316cfU, 0xe5f30517fdc11617U, 0xf3f7ed4ded0ae2e1U,
  0xf924f727f43800dbU, 0xc7fae9f21019c2e2U, 0x36092fdbee33bd1eU, 0xead9fced100c04e9U,
  0x2f08c601d916e6fdU, 0xfc0ef7fe0dd5bdc4U, 0xcaf2fbf5d4f3baf7U, 0xcdf2beacfe252d8U,
  0x1ed8e2fc17ea0ffdU, 0xea154de3f240e8c9U, 0x162c1acaec071ffbU, 0xe03500cdc03b0af5U,
  0xc021522f911e8fdU, 0x14e002c1ff2e3925U, 0xe6a40ac443fa112aU, 0x424cf7edf5154a03U,
  0x1f18e8dbfff53d04U, 0x270a02ffdbacc310U, 0x2b19d0f22b2bb5f7U, 0xf1a0dd5db3104eeU,
  0xc533d616b7ebeaaeU, 0xe4e94629ef411214U, 0xe6e8ca46102bf42fU, 0xf3f93403e0c91bffU,
  0x26de12cce9d6d91cU, 0xa0f75d1ef0c3e3eeU, 0x9f2643111feae109U, 0x2e16f1fde318d5e9U,
  0xef61ff62feab618U, 0xcbdef717fbfbe2e3U, 0xe810190ee6d3ec24U, 0x42173ff822f3503bU,
  0xe4f0dcfdfade342cU, 0xeeb4eedc19d010f4U, 0xcfab2dce051e0a05U, 0x37371d0e5adcd3c9U,
  0xc2f5faea15d10e14U, 0x3ecf3d2eb25d443U, 0x8134d8ef1abae7d5U, 0x3dee3e2abdc1a837U,
  0xb1d519f22b3bfe0cU, 0x27150e28c6411f0eU, 0x27e70f0305982a48U, 0xc6e2df040cf8d1f7U,
  0xe5d5b9bf0af229d8U, 0x202503f04dd25e9aU, 0xeeb210a03e1728ecU, 0xf8dd06050e230a03U,
  0x9fa06cb2211084eU, 0x15d2e42d8a0e31f1U, 0xcb38e1e048bf000aU, 0xface37fb1c05b8f6U,
  0xeeb4d0f9fd26b71eU, 0xe6631c8e8841ec2U, 0x11d4280d28e10b09U, 0xa20adad51cd6fa0eU,
  0x22c8e0ebedee07e1U, 0x922150d37f540daU, 0xfb08d2fd1e19d617U, 0x80405f7590dc6e7U,
  0x47f7fb262238083eU, 0xf6164a4d180c19f6U, 0xee24122adf12de51U, 0x1c15d8cceec4c20eU,
  0x3355daf4eeddf126U, 0x6f44a1ef8ed1f60U, 0x2c00cce804f103a7U, 0xfea1738c71921ddU,
  0x242cb8124121f158U, 0xd5fae200cf11b4e1U, 0xe7b9e3f10c315407U, 0xd6dc1fe5e2d03d0aU,
  0x8e0020a56fc0210U, 0xabd710ce3ae902b4U, 0xf512f6d924543306U, 0xce1ce12433c744eaU,
  0xf0d8279d641b2a4fU, 0xd81500ef27ba370dU, 0x2b59f230c4e909ddU, 0xbdfae5db28f53be4U,
  0x2e9eae7e50ec9f3U, 0x3f0bf6fe0f3df712U, 0xf8fc334836eae618U, 0x27ebe9acfb460b09U,
  0xd85d370531dd1107U, 0xfa1c00b1e605f8e1U, 0xe5fa62391eded6faU, 0xd7f00551020ef5f8U,
  0xb1ddaced04d0efe9U, 0x16109f990ad215f4U, 0xdbfb53f61d021330U, 0xcbf5f92729aae572U,
  0xd63752ec27bd390cU, 0x43eba7e7eefbf6f3U, 0x524d1fd1130cdaeU, 0x11c5c9e9b51ddd2eU,
  0xee36ebe7bc0cc7d1U, 0xd7bf0e10f120e0f3U, 0xd60fbe2ecfb8e3eeU, 0x9c60b17f2d8fd1dU,
  0xf021090b29ea1503U, 0x3112ee325102527U, 0x143ffc21684a0e00U, 0x1f603622084de524U,
  0xc9c801f3380fdf16U, 0x4aec201ecffdef6U, 0xf44453eb32fb01c3U, 0x3ef72324f1d90134U,
  0x2b14ab09f3d8bd1aU, 0x363859601d082f2fU, 0xe3f92d1809a3fadeU, 0x28e1ddecd718d749U,
  0xd1c21d054bb83cb8U, 0xf20bf7123eea97cfU, 0x4d61618180c37d9U, 0xcef4e5380c18b34cU,
  0xd845fffb5b1af7ebU, 0x7f3724fa1a1539f0U, 0x260b9e00fdd224f6U, 0xcedac801c9d115d8U,
  0xe2f6c60f081504f2U, 0xaec2d436191000fbU, 0xf1a41b3a09225221U, 0xf9f617f296e9413fU,
  0x4c02bc2df3be03a2U, 0xf516f76d3ec64202U, 0x441de7fcedf709baU, 0xe11707bcf4ac05f8U,
  0xb1f60ef0edc61cd8U, 0x2fece615261d09f4U, 0xf60fe90ffe40d6ebU, 0x351706012eeb43d3U,
  0x58d9facb0de2eee7U, 0xb28351f48f302eeU, 0x1fd1ea271ed2bedeU, 0xe34f210744fbdfU,
  0xf40fe532d6fcd413U, 0xcc122a0652eabee2U, 0x20e31fdcf9131c1fU, 0x32441ed2e3fbdd1fU,
  0xd8f5e8caf7e9e4d8U, 0xb922ffa414e024ddU, 0x1abc1f1a3bae26f8U, 0x1d47ea156214d768U,
  0xca3b4c1a13f7160dU, 0xd950dce8c6d5d9d1U, 0x602b01b0d2f3fc22U, 0x101ee7fae71235d3U,
  0x2bdf2c4614410210U, 0x19d84fd40659ff23U, 0x29e5b224fba01517U, 0xec2b160ffe4cc7f0U,
  0xf6f527f9161ad621U, 0xe6080df0efdeec13U, 0xdbf6d2ef1f1f21fcU, 0xf1a013219052f27U,
  0xf1efebf00f392afcU, 0xfd12f70728e610deU, 0xc303ebf32bfd1ad8U, 0x1f04e628fdff05ffU,
  0xdd052705f1dcdef3U, 0xecf300fd2df20d15U, 0xd11b24d1e50a0ae9U, 0x182502fa0ceafb03U,
  0xde81baf116f814d6U, 0xdce104c821ee1af4U, 0x923fd1ffd18092cU, 0x10e9270b08de39e2U,
  0xf809fafe23fc09feU, 0x150833fb0cee13U, 0xe0f82bfd17ffe60aU, 0xf3f82101fef10a10U,
  0xf9080cf61d3f0eebU, 0xe2f0f1e60310f03aU, 0x1900e6021213ee22U, 0xdc2a0de7151401b5U,
  0x1205e422ddff35d4U, 0xc705f5e5d9f662cfU, 0x4e5e7d60c05d2f6U, 0xfdd1e332efdefd0bU,
  0x17f3f1f9f6e00200U, 0x124da10d4e7fdeeU, 0xbe19faf5d3effa17U, 0xe4d923e217123240U,
  0xf4f5fbedccdb35fcU, 0x16ddef11f3fdf8f2U, 0x5190be8320213f2U, 0x2ce813120d041a20U,
  0xe8dfd212f7cc01dfU, 0xf41208211dcb2d1dU, 0x1c2314f41dea0e02U, 0x1ddc0206f4101afaU,
  0xef1b1ccbf513fd22U, 0xec0e0b13cbf4f2e4U, 0xe20d1c08e00b0a22U, 0x141631d60ad0f000U,
  0xf218dfed37efcd33U, 0x15f3bef926eb0b23U, 0x7dbd000390621d9U, 0x5f300f51fc8c3feU,
  0x1af0d729fb0b4ad6U, 0x24dfffff09f31223U, 0xc0febef1a3ce218U, 0xd01bfe3ff11e1df3U,
  0xf81ced1918070f0dU, 0xe1d226e5e7f6f5f0U, 0xeed80efa131c1ce5U, 0xd6ee082204c227fbU,
  0xaaf406d7db212202U, 0xf415f7dbff1bc312U, 0x223ce1fe1407b805U, 0xeb1ee204e1f4f9e2U,
  0x13052ce6faf520d3U, 0x1d70e063721ecedU, 0xfdf4fae2042605U, 0xeaffd5d20efb0bf6U,
  0xe1f61d2781ed0f2cU, 0x11f1f6e621e0f41bU, 0xc4ec00eae326c83eU, 0xf5f10cf660011f0dU,
  0xf122ecf904251d02U, 0x161df70641f00f07U, 0x2ed2cadb1aec1bd7U, 0xdf110ce0f1054df6U,
  0xeec80d0cef121d16U, 0x182007e914e118cbU, 0x22111701d951ea1cU, 0xfa0fd0fb18071802U,
  0xf409720a25e833dcU, 0xea08f5f7251eefdfU, 0xe001e3bcecceee2aU, 0x76037171ef7f51fU,
  0x1de1f6fc26e52c27U, 0xea0927de00ef16e5U, 0xefebf7060c192404U, 0x2219320bbf1f1a00U,
  0x3082015f926ebb3U, 0xa2f1f9a0c1de7f1U, 0xe817ddd9cfdd1ee4U, 0xe203ecfee3ff0809U,
  0xe5fdefdaf942e609U, 0x3d20d616bc19d9d8U, 0x35012f1dcdeba31dU, 0xec08af10f74d242bU,
  0xe605e8ecc9e2d8e7U, 0xce0f2ef1606e9f7U, 0xe6040022e60df122U, 0x1909e230fe30f922U,
  0xc0211f115f2e0e8U, 0xe8d2dffef7ea18dbU, 0x2212ff17c5dc0021U, 0x7133816c0fbdc17U,
  0xd9f8e3dded0be6fdU, 0xfa021ff824acbffaU, 0x71215db243b0af1U, 0xf2f131f9e6c12218U,
  0xf91eee20102ce601U, 0x1ee6f5cfda17081cU, 0x2fd19d8072bf0caU, 0xe6f52148fdc627bfU,
  0x1ae7bd0deaf8f3caU, 0x163124d7b92697f0U, 0xddedc5f52fffed0fU, 0x60709eb3bf11ffbU,
  0xfd221ff91f08ce0eU, 0xbb3d21a3718111cU, 0x11e929d0e13ce917U, 0xf7d704030811cee4U,
  0x3cbdac0cbfcfeffU, 0xc8fdf29607e9f3d2U, 0x19dceff6ffed44e1U, 0xebea3e2556e7f909U,
  0xff16f7f72000e511U, 0xa9e7e30c47eb0adcU, 0x2215e3d5b0e3fd24U, 0x101a21fe5e0bf017U,
  0x40eb07c5ed0e0c98U, 0xcd5ed14042bd829U, 0xc5e271bff4f8dc17U, 0x19ec42cebd2c232dU,
  0x41225fdca01048eU, 0x81c25d6f9ece1fbU, 0xd0fcb3c625f1dd31U, 0x316e5f33e26e635U,
  0x19ea05dc4bf1321aU, 0xff082a9df343f4f3U, 0x330310bf1dfb2148U, 0x4de8dbe52d06f929U,
  0x1ef352c1e27f6dfU, 0xf6d0001804e1e5e0U, 0x353d2306dec2e8ecU, 0xcebf0a46dc010405U,
  0xcc0444010dab400U, 0x2301fe1df20116f3U, 0xe7344d030831dc49U, 0xeaf0e5f51bb2f0f0U,
  0x11e149e4f4f7070dU, 0x1eec0ae0cfd8ee23U, 0xce9f70cdff2c605U, 0xee0ef603d5177f2bU,
  0xfee8de02c5d13c32U, 0x1ef505f9c8d90d10U, 0xdd36170aff02fd4aU, 0xe40eec05f204001fU,
  0x11f801eb050d0be2U, 0xd7f5e6b80530e633U, 0x301639f5efe7fc11U, 0xdb222242fa31860bU,
  0x27900e8e417c6f3U, 0xed71bda0a4fa8ecU, 0xd70e0e09eef72eeeU, 0xdece000cedf30f1U,
  0x3103a3e326fb0801U, 0x3df9381fdcf23609U, 0xff2ed7ee27d6fbdaU, 0x9d0a1a3ad11cfd02U,
  0x381d120a00eb2115U, 0x32f6eb0c21eefb20U, 0xc0eefee703cd03ecU, 0x1616bc0bf9141541U,
  0xfcead31e100d06e1U, 0xdcf306e7df181f03U, 0xffece107d8d7defbU, 0xecbe14ff27e11602U,
  0xf71dc9e5e905fdeeU, 0x363f27daad4f8bf8U, 0x1cf64302d4f80105U, 0x8cdea16b9f1b9dbU,
  0xe73018e1fd18fe04U, 0xdc17f71bd0e0d124U, 0xfc0d08c4f8d0fc1aU, 0xa3113b7c962e32dU,
  0x7283f0a0811e412U, 0xf4f63be308ee120bU, 0xf8fefcffffef2be0U, 0x2fde812151b1cfeU,
  0x18fe3019e917d520U, 0x3d933ff15153136U, 0x6d6c7031701f1eaU, 0xecc9e3db15e61bebU,
  0xf6c804e223f5db1bU, 0xec280bd714d11707U, 0xe61714f210a3ea37U, 0x3ce46add35d9f929U,
  0xfa011114e6e4f3f0U, 0x2b1505e407d90ee4U, 0x3c1ae7bc0f41de1eU, 0x23dffd3f0510fc02U,
  0x1c1101f507b7c3f0U, 0x1212170312f8e620U, 0x2e0aba30f52321f1U, 0xb2faed9820eb07fcU,
  0x13d7ec0a1230f3d3U, 0xd6dd03f5ff81d250U, 0x7b724291df3c206U, 0x2405e5e901081e18U,
  0x4f2e349b10b0defU, 0x78dafce6470ef8beU, 0x151feb03f2f5f83bU, 0x1244f8e123f6e8beU,
  0x227eff6fbd3d1f4U, 0x2be713f2f9f2da0fU, 0x2ff9ecc9f6183dd1U, 0xdf1cf3e616e8e7e4U,
  0xd415df19ee40ea0cU, 0xeb2a270100e4e9f0U, 0xf3f50a08d0021015U, 0xfa3c26197400ec0fU,
